, 116815
the 76556
." 51555
to 49817
. 47547
a 46233
of 45069
and 43418
that 35923
in 31688
I 28868
is 25501
it 24354
you 23421
we 22672
&quot; 22314
&apos;s 21576
this 16008
on 13239
was 11888
are 11740
for 11378
have 10744
re@@ 10661
they 10290
ed 9691
with 9529
b@@ 9396
can 9234
an 9149
es 9133
"And 9085
at 8842
&apos;t 8715
ing 8596
as 8531
i@@ 8488
what 8418
about 8152
be 8099
t@@ 8033
— 7957
f@@ 7939
in@@ 7936
s@@ 7883
e@@ 7825
m@@ 7812
or 7735
all 7689
And 7518
one 7289
g@@ 7258
not 7113
d@@ 7061
a@@ 7024
o@@ 6917
my 6697
do 6669
s 6663
st@@ 6471
al 6442
people 6418
l@@ 6397
&apos;re 6372
our 6370
-@@ 6353
there 6352
like 6347
p@@ 6223
y 6062
me 6026
from 5996
so 5973
c@@ 5791
an@@ 5772
? 5716
u@@ 5699
en@@ 5663
but 5598
h@@ 5563
: 5535
) 5454
de@@ 5370
li@@ 5358
w@@ 5348
just 5335
ar@@ 5270
S@@ 5198
y@@ 5172
r@@ 5172
e 5162
ly 5117
di@@ 5060
very 5035
us 4996
out 4995
n@@ 4945
these 4874
by 4827
ac@@ 4780
if 4759
on@@ 4658
them 4639
v@@ 4608
more 4599
"So 4556
when 4483
er 4446
ri@@ 4425
up 4410
al@@ 4279
had 4270
t 4259
si@@ 4203
because 4196
he 4191
know 4175
going 4164
how 4152
their 4143
( 4136
le@@ 4107
see 4063
were 4019
tion 3981
or@@ 3964
m 3959
ts 3958
er@@ 3924
think 3896
It 3880
your 3866
would 3849
get 3840
So 3817
who 3799
ti@@ 3794
ro@@ 3792
really 3791
C@@ 3776
con@@ 3753
ma@@ 3681
ate 3623
it@@ 3620
time 3602
M@@ 3594
which 3589
&apos;ve 3560
way 3509
su@@ 3502
ers 3465
o 3436
at@@ 3344
ent 3343
where 3336
world 3335
un@@ 3323
&apos;m 3310
here 3285
then 3266
don 3243
la@@ 3234
has 3228
into 3216
st 3209
ally 3203
We 3197
"I 3175
th@@ 3155
se@@ 3099
will 3088
some 3057
os@@ 3051
B@@ 3046
ation 3038
?" 3032
A@@ 3021
ve 2993
other 2990
actually 2981
years 2971
ex@@ 2969
as@@ 2945
ca@@ 2930
D@@ 2926
now 2912
G@@ 2885
lo@@ 2884
ra@@ 2873
able 2861
vi@@ 2836
go 2822
Laughter 2809
could 2796
P@@ 2792
z@@ 2790
things 2789
el@@ 2765
been 2745
want 2731
k@@ 2727
"But 2717
sh@@ 2706
en 2699
ment 2688
ting 2686
make 2673
ds 2658
The 2636
k 2632
n 2565
sp@@ 2559
those 2554
om@@ 2544
ap@@ 2520
pre@@ 2512
T@@ 2506
than 2489
work 2441
But 2439
ch@@ 2425
ted 2408
il@@ 2407
ab@@ 2399
d 2397
"@@ 2395
something 2394
me@@ 2393
right 2392
much 2390
tions 2387
p 2383
ci@@ 2365
th 2339
H@@ 2334
no 2326
per@@ 2295
ter@@ 2283
ec@@ 2274
L@@ 2269
l 2265
said 2264
pro@@ 2252
first 2248
O@@ 2245
be@@ 2240
"It 2225
two 2217
ad@@ 2215
also 2209
ic@@ 2207
"We 2205
se 2191
ot@@ 2189
for@@ 2182
most 2181
thing 2181
ver@@ 2177
even 2157
day 2156
ur@@ 2147
op@@ 2147
co@@ 2145
life 2137
mo@@ 2137
de 2130
back 2123
look 2112
many 2108
le 2102
R@@ 2079
"The 2079
te@@ 2077
need 2076
sa@@ 2067
only 2052
ice 2051
over 2046
"Now 2033
mi@@ 2016
This 2016
E@@ 2007
little 2005
ne@@ 2002
tra@@ 1985
got 1977
ir@@ 1974
F@@ 1971
his 1944
ge 1935
lot 1934
Applause 1933
ous 1932
h 1928
par@@ 1927
take 1923
sion 1919
cal 1918
fa@@ 1909
ag@@ 1893
str@@ 1887
her 1880
its 1878
to@@ 1870
she 1869
x@@ 1863
You 1860
new 1858
ou@@ 1858
N@@ 1847
ks 1840
say 1838
tr@@ 1833
ol@@ 1816
around 1813
ar 1773
W@@ 1773
use 1772
ul@@ 1756
ter 1747
ine 1746
ta@@ 1733
did 1730
J@@ 1729
come 1721
ity 1703
red 1703
"In 1702
different 1701
ence 1688
ated 1679
ev@@ 1676
ant 1675
sc@@ 1675
every 1670
They 1670
1@@ 1670
gu@@ 1659
through 1657
hi@@ 1645
king 1627
kind 1618
fe@@ 1617
I@@ 1617
fi@@ 1616
good 1614
ver 1596
ms 1592
g 1590
down 1584
mp@@ 1583
ons 1575
ha@@ 1573
ding 1569
same 1566
ance 1542
ite 1539
im@@ 1529
is@@ 1529
et 1523
and@@ 1522
qu@@ 1520
end 1515
we@@ 1512
pa@@ 1501
being 1499
min@@ 1496
any 1495
"( 1490
j@@ 1486
c 1483
bo@@ 1475
That 1473
ect 1467
&apos;ll 1462
pe@@ 1452
es@@ 1447
ic 1444
gi@@ 1439
ch 1433
ating 1426
ge@@ 1426
own 1426
wor@@ 1418
ary 1412
ded 1407
am@@ 1401
age 1389
"A@@ 1384
What 1378
put 1374
percent 1372
tu@@ 1372
als 1369
doing 1364
us@@ 1362
called 1348
ties 1345
made 1341
ss 1341
change 1330
ke 1324
inter@@ 1323
pos@@ 1323
com@@ 1323
so@@ 1313
um@@ 1310
find 1310
let 1310
bi@@ 1310
year 1298
ce 1298
ved 1297
ying 1296
gre@@ 1290
water 1285
ty 1284
tic 1283
ves 1281
tell 1281
K@@ 1274
three 1270
pl@@ 1270
gen@@ 1265
&apos;d 1262
cre@@ 1261
used 1259
the@@ 1257
ws 1256
am 1254
well 1251
x 1242
bu@@ 1241
po@@ 1240
tive 1237
sho@@ 1233
"You 1221
started 1220
id 1220
ents 1219
ful 1219
gh@@ 1217
"S@@ 1216
; 1215
i 1214
"This 1212
tri@@ 1205
might 1205
A 1204
pri@@ 1200
today 1192
ans 1188
didn 1187
rec@@ 1182
der 1182
fact 1180
Thank 1178
wi@@ 1175
au@@ 1171
old 1171
human 1166
ies 1165
"O@@ 1163
ning 1159
why 1159
ob@@ 1157
ble 1157
sts 1157
ph@@ 1157
ose 1156
low 1144
after 1140
pr@@ 1140
together 1140
ings 1138
ent@@ 1130
gra@@ 1126
do@@ 1121
problem 1119
fin@@ 1117
wh@@ 1116
should 1113
wing 1108
wa@@ 1108
important 1107
idea 1104
before 1097
ser@@ 1095
"If 1092
better 1090
ked 1087
story 1085
car@@ 1080
enti@@ 1079
ru@@ 1078
ever 1078
great 1074
never 1073
Y@@ 1071
last 1060
imp@@ 1058
found 1057
went 1057
body 1055
sur@@ 1052
bl@@ 1052
b 1051
cl@@ 1051
ps 1051
still 1045
cor@@ 1043
part 1043
ure 1040
less 1038
ste@@ 1035
"They 1033
big 1032
ors 1027
off 1027
te 1016
oo@@ 1016
thought 1016
ke@@ 1015
gr@@ 1015
no@@ 1014
bit 1013
give 1013
ill@@ 1010
cu@@ 1008
ters 1007
start 1004
few 1001
wr@@ 1001
There 1001
place 997
another 995
ago 988
exp@@ 979
inv@@ 976
br@@ 976
ga@@ 974
him 973
les 973
man@@ 971
talk 969
question 969
ve@@ 964
V@@ 961
course 960
2@@ 958
ue 957
mar@@ 956
brain 956
em@@ 951
il 951
comp@@ 951
each 949
ea@@ 948
ali@@ 947
ck 945
ss@@ 943
next 943
uc@@ 943
fac@@ 941
tre@@ 938
ory 936
came 935
act 933
too 933
est 930
eff@@ 923
ins 921
example 919
does 919
"Well 915
ad 913
system 911
try 908
ni@@ 908
plan@@ 903
man 899
looking 898
long 897
cho@@ 897
w 897
using 896
r 892
show 887
comes 881
between 876
ations 876
again 875
mean 871
doesn 868
understand 868
ay 859
gener@@ 858
live 857
chan@@ 856
light 855
love 853
point 853
women 848
dis@@ 848
gs 845
ate@@ 840
ort 840
Now 840
medi@@ 837
any@@ 835
ach 833
ear@@ 833
prot@@ 831
done 829
He 829
ld 828
"M@@ 827
help 819
3@@ 818
data 818
all@@ 816
"When 816
ing@@ 815
ess@@ 814
ger 810
cap@@ 809
ving 808
produc@@ 806
ges 805
mat@@ 805
der@@ 803
away 798
ori@@ 796
wanted 795
How 792
pla@@ 790
dri@@ 790
res 787
believe 786
ther@@ 783
mon@@ 781
ight 780
call 779
ten@@ 778
school 777
face 777
technology 777
may 776
.@@ 776
sen@@ 775
ates 771
ore 770
pas@@ 770
person 770
ati@@ 768
trying 767
children 766
des 763
oun@@ 762
ther 762
f 762
enc@@ 759
&apos; 759
sk@@ 758
room 756
10 756
city 755
feel 753
go@@ 751
develop@@ 749
working 749
pu@@ 748
off@@ 745
line 743
sta@@ 740
always 740
"Th@@ 739
ness 737
real 735
int@@ 735
um 734
information 734
maybe 732
ses 731
U@@ 730
fu@@ 729
sti@@ 728
ry 728
star@@ 728
means 727
trans@@ 723
ree@@ 721
ff@@ 717
ood 713
times 711
sec@@ 711
form 710
Th@@ 709
gro@@ 709
app@@ 709
country 708
sy@@ 707
thinking 706
ging 705
create 703
vo@@ 702
end@@ 701
econom@@ 700
see@@ 700
million 700
ones 700
coming 699
small 697
pi@@ 697
poli@@ 697
5@@ 696
everything 696
19@@ 696
sub@@ 696
ask 696
col@@ 695
ments 694
whole 692
number 692
ome 690
"T@@ 690
ari@@ 689
dre@@ 688
land 687
&quot;" 687
took 686
become 685
respon@@ 684
best 684
In@@ 683
money 683
supp@@ 681
pic@@ 680
making 679
home 678
solu@@ 674
are@@ 674
energy 673
he@@ 673
ep@@ 672
ize 669
future 668
space 667
Let 667
anc@@ 667
mil@@ 667
organ@@ 664
ability 664
est@@ 663
wat@@ 661
dge 660
read 660
ently 659
ce@@ 658
ard 657
ster 657
ines 656
led 655
onal 655
countries 654
coll@@ 652
har@@ 652
ell@@ 651
sort 650
hard 647
tor 647
ran@@ 646
stri@@ 645
four 645
cla@@ 643
side 641
coun@@ 637
du@@ 637
social 637
fore@@ 637
tic@@ 636
science 636
high@@ 635
getting 635
logi@@ 635
cells 635
left 634
enough 633
0@@ 633
el 631
"There 629
set 629
ust 627
kids 626
second 626
mor@@ 624
ways 623
ath 623
tly 623
val@@ 623
wed 623
ill 622
ative 622
ship 620
quite 617
cra@@ 616
told 615
ssi@@ 614
ima@@ 612
five 612
"That 612
book 612
struc@@ 611
sign@@ 611
ici@@ 611
case 610
cen@@ 610
ack 608
ir 607
food 607
Wh@@ 605
happened 604
without 603
pretty 603
ba@@ 602
lives 602
tal@@ 601
"H@@ 600
lar 598
equ@@ 597
living 595
ber@@ 595
ong 594
Well 594
shi@@ 593
jo@@ 592
brea@@ 591
serv@@ 589
days 587
cer@@ 587
fl@@ 586
probably 586
mem@@ 586
hand 586
bro@@ 586
across 584
form@@ 582
ene@@ 582
iting 582
sense 581
art 579
saw 578
power 578
et@@ 577
ang@@ 577
tru@@ 577
later 576
build 576
ously 576
ess 576
connec@@ 575
iz@@ 575
acti@@ 575
ack@@ 575
Ch@@ 574
els 574
asked 573
gn@@ 572
che@@ 571
talking 571
public 570
"He 569
experience 569
4@@ 568
ited 567
family 567
seen 567
cr@@ 566
care 565
50 564
while 563
dd@@ 563
half 563
son 563
learn 562
speci@@ 561
almost 559
interesting 558
works 558
communi@@ 557
ght 557
sure 557
ese 557
head 556
far 556
war@@ 556
cation 556
pres@@ 555
suc@@ 555
ot 554
shed 553
men 552
tur@@ 552
tw@@ 552
moment 549
20 548
ected 547
"E@@ 547
cha@@ 545
anything 545
ell 544
simple 543
doc@@ 542
though 542
,000 541
picture 541
ics 541
happen 541
dep@@ 540
bot@@ 540
inside 539
ined 539
Earth 539
"What 537
building 536
ear 536
such 535
words 535
ven 534
ately 534
dra@@ 534
"F@@ 532
ling 532
ome@@ 532
ace 532
ital 531
not@@ 531
health 531
problems 531
pp@@ 530
makes 528
disco@@ 528
billion 527
young 526
comple@@ 525
sh 524
ality 523
dollars 523
5 522
mind 522
cle@@ 521
months 521
someone 521
single 520
stuff 520
cul@@ 520
happens 519
wn 519
play 519
reason 519
else 519
design 518
ner 517
car 517
mm@@ 517
S 517
matter 516
kay 516
deci@@ 515
planet 515
gest 515
ences 515
20@@ 514
ank 513
ghts 513
comm@@ 513
cancer 513
gin@@ 512
stre@@ 512
ward 512
project 511
sible 511
"N@@ 511
over@@ 509
often 509
having 505
move 504
nothing 504
duc@@ 504
design@@ 503
ices 503
high 502
cri@@ 502
ens 501
whether 501
acc@@ 499
answer 499
7@@ 498
possible 497
process 496
"As 496
turn 496
up@@ 495
emp@@ 495
ys 494
por@@ 494
community 493
cess 493
osp@@ 493
says 493
myself 493
! 492
ols 491
tures 489
already 489
"C@@ 488
wrong 488
"For 487
od 487
inf@@ 486
looked 486
ele@@ 486
Why 486
order 484
spec@@ 484
exc@@ 483
Mar@@ 481
ow 480
tors 479
dru@@ 479
yet 478
experi@@ 478
tional 477
char@@ 477
va@@ 477
lan@@ 476
lar@@ 475
remember 475
"B@@ 474
top 473
bio@@ 473
ere 472
nor@@ 471
ery 471
bri@@ 470
incre@@ 469
incredi@@ 468
contin@@ 468
vel@@ 468
ist@@ 467
imagine 467
goes 467
vely 466
anding 464
"Because 463
amazing 463
learned 462
prof@@ 462
fe 462
An@@ 462
disease 462
rop@@ 461
ven@@ 460
real@@ 460
lies 459
hope 459
mer@@ 458
tion@@ 458
gir@@ 458
bad 457
cep@@ 457
pers@@ 457
ini@@ 457
ish 455
cop@@ 455
vir@@ 455
sing 455
sions 454
resul@@ 454
2 454
att@@ 453
K 453
table 452
ture 452
materi@@ 452
stu@@ 451
under@@ 451
New 450
fic 450
oper@@ 450
ote 449
ut 449
both 448
bly 447
oc@@ 447
sity 447
6@@ 446
global 446
students 446
once 445
appro@@ 444
9@@ 444
ely 444
men@@ 444
tical 444
tici@@ 443
aff@@ 443
true 443
♫ 443
wal@@ 442
allo@@ 442
hund@@ 441
group 440
progra@@ 440
ep 440
logy 439
pat@@ 438
business 438
fun@@ 438
ective 438
duce 438
underst@@ 437
3 437
dro@@ 437
nature 437
against 436
looks 436
mis@@ 436
ism 435
vity 435
ju@@ 434
wasn 434
species 434
individu@@ 433
study 433
physi@@ 433
uni@@ 432
keep 432
United 432
net@@ 432
00 432
cont@@ 432
job 432
direc@@ 431
ach@@ 431
8 431
dies 430
heard 430
decided 430
language 430
friends 430
ized 429
os 429
lead@@ 429
far@@ 428
beautiful 428
within 428
word 427
&#91; 426
oti@@ 426
control 425
issu@@ 425
fully 425
six 424
government 424
per 424
research 424
na@@ 424
built 423
flo@@ 423
open 423
animals 423
ourselves 423
places 421
kers 421
sometimes 421
isn 421
piece 421
saying 421
ia 421
&#93; 421
da@@ 420
tin@@ 420
ls 419
ged 419
Ma@@ 418
shar@@ 417
hea@@ 416
blo@@ 416
eng@@ 415
dr@@ 415
child 415
history 415
bring 414
list@@ 414
200@@ 413
education 412
ering 412
basically 412
sit@@ 411
action 411
meas@@ 411
questions 411
ft 410
ounds 410
lic@@ 410
turns 410
ink 409
tting 409
igh@@ 408
acy 408
culture 408
ape 407
requ@@ 407
ale 407
cur@@ 406
share 406
elec@@ 405
big@@ 405
under 404
appe@@ 404
wonder@@ 404
ection 404
phone 404
arly 403
fic@@ 403
30 403
fil@@ 403
bor@@ 402
sist@@ 402
ideas 402
ition 401
0s 401
ze 401
learning 401
until 400
ner@@ 400
stop 399
tis@@ 399
themselves 398
exactly 398
stories 398
completely 397
inst@@ 397
out@@ 397
"L@@ 397
ten 397
lea@@ 396
6 396
bra@@ 396
exper@@ 396
created 395
jects 395
tation 395
became 395
ide@@ 395
soci@@ 394
couple 394
level 394
view 394
tics 394
"W@@ 393
gets 393
heart 393
fish 393
ll 392
ed@@ 392
cess@@ 391
wer 390
run 390
worked 390
mother 390
colle@@ 390
mul@@ 389
ched 389
known 389
rou@@ 388
Re@@ 388
"I@@ 388
States 388
guy 388
cell 388
happening 388
tle 387
Africa 387
ground 387
taking 387
conf@@ 387
reality 387
ur 386
ris@@ 385
knew 385
9 385
society 385
dy 384
hy@@ 384
house 383
bed 383
company 383
cated 381
sli@@ 381
sch@@ 381
ization 381
computer 380
some@@ 380
thousands 380
ching 380
environment 379
vered 379
hours 379
hear 379
ise 379
cities 378
clos@@ 378
ouldn 378
arti@@ 378
changed 377
provi@@ 376
everyone 376
sm@@ 376
test 376
She 376
These 375
logical 375
universe 375
itself 375
instead 375
Because 375
Ar@@ 375
ber 374
8@@ 374
U.@@ 374
name 374
huge 374
4 374
af@@ 374
dom 374
aw@@ 374
sed 374
eah 374
news 373
sound 373
her@@ 372
indu@@ 371
national 370
sel@@ 370
100 370
illions 370
No 370
St@@ 370
front 369
woman 369
tun@@ 368
liter@@ 368
aper 368
ist 367
lim@@ 367
uses 367
ool 367
0,000 366
7 366
must 366
behavi@@ 365
cept 365
night 365
" 364
tom@@ 364
oce@@ 363
tually 363
companies 363
begin@@ 362
outh 362
somebody 362
ker 362
entire 361
kinds 361
happy 361
engine@@ 361
ining 361
others 361
shing 360
based 359
ects 358
sive 358
model 358
difficult 358
re 357
stry 357
Internet 357
dia 356
ech@@ 355
state 355
past 354
ton 354
video 354
olved 354
stic 354
figure 354
sted 353
gave 353
pot@@ 353
interest@@ 352
dec@@ 351
couldn 351
cate 351
thy 350
scienti@@ 350
t-@@ 350
pul@@ 349
systems 349
spe@@ 349
teach@@ 349
prin@@ 349
dev@@ 349
easy 348
America 348
tual 348
ree 347
stra@@ 347
hor@@ 347
opport@@ 346
key 345
since 345
ey 344
typ@@ 344
ord 344
ind 343
ening 343
adv@@ 343
large 342
Eu@@ 342
ast 342
American 342
music 342
ire 342
gle 342
rather 341
everybody 341
neur@@ 341
ants 340
"A 340
ues 340
wit@@ 340
structure 339
regi@@ 339
given 339
ots 339
kno@@ 339
olution 339
photograp@@ 339
conver@@ 338
dence 338
image 338
size 338
wards 338
My 338
ject 338
pol@@ 337
gn 337
sting 336
ential 335
Here 335
yed 334
foc@@ 334
viol@@ 334
vari@@ 333
move@@ 333
One 333
rest 333
ssed 332
cal@@ 332
row 332
cle 332
identi@@ 332
natural 332
ey@@ 332
care@@ 331
finally 331
fir@@ 330
difference 330
feel@@ 330
early 329
sor@@ 329
ark 329
along 328
ki@@ 328
boo@@ 328
stitu@@ 328
least 327
ros@@ 327
turned 327
lots 327
ext 327
air 326
cy@@ 326
unch 326
D 325
particular 325
wer@@ 325
team 325
ace@@ 325
walk 324
can@@ 324
bir@@ 324
yourself 324
outside 323
den 323
dist@@ 323
atten@@ 323
Nor@@ 323
"D@@ 322
ets 321
free 321
Al@@ 321
fra@@ 320
emoti@@ 320
mous 319
field 319
anti@@ 319
scale 318
simply 318
deli@@ 318
ature 318
"One 318
run@@ 318
mic 318
fami@@ 317
behind 317
inclu@@ 317
electri@@ 317
cei@@ 317
taken 316
China 316
takes 316
bloo@@ 316
jour@@ 316
demo@@ 316
flu@@ 315
V 315
expla@@ 315
relation@@ 315
eyes 315
patients 315
ordin@@ 314
sources 314
int 314
TED 314
fo@@ 314
d-@@ 313
bility 313
tain@@ 313
dent 313
lation 312
ned 312
minutes 312
super@@ 312
realized 312
non@@ 312
survi@@ 312
week 312
friend 311
sol@@ 311
ders 310
mal 310
grow 310
y-@@ 310
People 310
telling 310
ost 310
during 309
e-@@ 309
bab@@ 309
win@@ 308
cir@@ 308
surpri@@ 308
inno@@ 308
pur@@ 308
died 308
ith 307
condi@@ 307
ck@@ 307
techno@@ 307
1 307
Is@@ 306
ns 305
ases 305
inve@@ 305
mu@@ 304
York 304
cks 304
needed 304
ules 304
gar@@ 303
population 303
weeks 303
bur@@ 303
certain 302
15 302
reas@@ 302
anci@@ 301
expl@@ 301
cos@@ 301
mal@@ 301
self 301
ages 301
hon@@ 301
bar@@ 300
Au@@ 300
full 299
evi@@ 299
born 299
predic@@ 298
ban@@ 298
u 298
quickly 298
acter@@ 298
fol@@ 298
like@@ 298
solve 298
third 298
compu@@ 298
ho@@ 297
seeing 297
verage 297
speak 297
risk 297
extre@@ 297
parents 296
spend 296
micro@@ 295
media 295
Be@@ 294
kes 294
publi@@ 294
maj@@ 294
century 294
close 294
cannot 293
pati@@ 293
powerful 293
ats 292
middle 292
war 292
lease 292
DNA 292
self-@@ 291
ator 291
yp@@ 291
reli@@ 291
political 291
hel@@ 291
felt 291
eri@@ 290
insp@@ 290
guys 290
spea@@ 290
stor@@ 289
amount 289
situ@@ 289
kill@@ 289
fer@@ 289
help@@ 289
sequ@@ 289
squ@@ 288
ular 288
recogn@@ 288
messa@@ 288
deca@@ 288
T 287
tim@@ 287
"P@@ 287
cost 287
lish 287
perhaps 286
pay 286
scientists 286
obvi@@ 286
Eng@@ 286
lost 286
won 286
our@@ 285
poor 285
radi@@ 285
conv@@ 285
dic@@ 285
stud@@ 285
If 285
transp@@ 284
hands 284
"Wh@@ 284
challenge 284
parts 284
began 283
cars 283
father 283
In 283
opp@@ 283
trac@@ 283
sci@@ 283
tou@@ 283
archit@@ 282
common 282
leave 281
seven 281
grap@@ 281
machine 281
follo@@ 280
consi@@ 280
ered 280
unity 280
longer 280
M 280
hu@@ 280
ending 279
knowle@@ 279
climate 279
every@@ 278
mental 278
thre@@ 278
inc@@ 278
terms 278
tiz@@ 278
moving 277
needs 277
tried 277
human@@ 277
either 277
nam@@ 277
antly 276
reds 276
numbers 276
heal@@ 276
source 275
curr@@ 275
fundam@@ 275
market 275
ssing 275
rought 274
anal@@ 274
dom@@ 274
B 273
smar@@ 273
ental 273
humans 273
met 272
spent 272
images 272
hol@@ 271
esp@@ 271
differ@@ 271
scre@@ 271
pt 271
med 271
year@@ 271
fied 271
que 270
descri@@ 270
ound@@ 270
den@@ 270
giving 270
♪ 270
ught 269
green 269
alone 269
ug@@ 269
defin@@ 269
All 268
camer@@ 268
box 268
cy 268
elli@@ 268
ase 267
Jo@@ 267
gl@@ 267
read@@ 267
sha@@ 266
black 265
ous@@ 265
nec@@ 265
olec@@ 265
ney 265
ater 264
Con@@ 264
ths 263
ken 263
usi@@ 261
ound 259
usic 257
ai@@ 257
din@@ 255
environ@@ 254
lear@@ 251
ut@@ 250
vel 250
univer@@ 250
tain 249
partic@@ 248
rela@@ 248
op 248
clu@@ 247
hop@@ 246
tely 244
Wor@@ 243
tech@@ 243
40 242
12 242
ends 242
... 237
Goo@@ 237
phot@@ 236
challen@@ 236
id@@ 236
sear@@ 236
om 235
eci@@ 234
ells 233
grou@@ 233
lit@@ 233
ased 232
hear@@ 230
ort@@ 227
fri@@ 226
11 226
G 226
ans@@ 224
mark@@ 223
pop@@ 223
ybe 223
ould 223
wan@@ 223
z 222
cause 222
gh 221
Z@@ 220
my@@ 219
phy@@ 218
ational 215
60 212
rea@@ 207
cou@@ 206
mach@@ 206
R 205
,@@ 205
thers 204
beli@@ 202
iness 202
ces 202
contro@@ 200
ole 200
C 199
sic@@ 199
Un@@ 199
ird 199
secon@@ 198
lon@@ 198
ably 196
happ@@ 196
buil@@ 196
bus@@ 195
too@@ 194
gy 192
beg@@ 192
govern@@ 191
gine 191
mom@@ 190
very@@ 189
fore 188
ready 186
bers 186
zing 185
ands 185
org@@ 185
O 184
ple 184
devel@@ 183
of@@ 183
dol@@ 181
plac@@ 181
import@@ 180
25 178
mic@@ 177
199@@ 176
)@@ 173
dise@@ 172
search 172
call@@ 171
Chin@@ 170
80 169
0 167
ince 166
olu@@ 166
aughter 166
illi@@ 165
Americ@@ 163
exa@@ 161
ead 161
thin@@ 161
edu@@ 159
und@@ 159
scri@@ 158
divi@@ 158
ult 157
won@@ 157
18@@ 156
beau@@ 156
ich 155
thous@@ 152
uring 150
Q@@ 150
ural 150
net 149
sing@@ 148
sul@@ 148
throu@@ 146
tran@@ 146
belie@@ 146
70 141
ety 141
tter 141
E 140
aps 140
200 140
whe@@ 137
ron@@ 136
L 136
P 135
14 134
ouse 134
Afri@@ 134
piec@@ 133
dat@@ 132
econ@@ 131
rom 127
ours 126
Pe@@ 125
cour@@ 123
ful@@ 123
fund@@ 120
sically 118
loo@@ 117
reco@@ 117
quic@@ 116
hum@@ 115
simp@@ 114
chil@@ 114
TE@@ 114
ograp@@ 112
ough 112
kin@@ 111
/ 111
desi@@ 111
..@@ 111
En@@ 109
fron@@ 107
dn 107
member 107
resp@@ 106
formation 106
quot@@ 105
ury 105
glob@@ 105
lob@@ 104
ener@@ 103
fel@@ 102
X@@ 101
wee@@ 100
forma@@ 99
hal@@ 99
$ 98
ama@@ 95
W 95
fiel@@ 94
nee@@ 94
clim@@ 93
langu@@ 93
!@@ 92
nat@@ 92
vide@@ 91
cent 89
mple 88
thou@@ 87
nex@@ 85
ff 82
&apos;@@ 82
q 81
kly 79
H 77
nd 76
N 75
youn@@ 75
F 75
ross 74
fig@@ 73
arch@@ 73
whi@@ 72
elling 70
tea@@ 69
ddle 69
prob@@ 68
cent@@ 67
Inter@@ 66
000 66
ility 66
’ 66
- 65
amoun@@ 64
ulation 64
ei@@ 64
twe@@ 63
bli@@ 62
ne 62
App@@ 61
augh@@ 57
syste@@ 57
power@@ 53
f-@@ 53
J 52
v 51
was@@ 50
haps 50
diffic@@ 50
é 48
til 47
mes@@ 45
ew 45
Ear@@ 44
ques@@ 44
ca 44
NA 44
num@@ 43
é@@ 43
vern@@ 42
canc@@ 42
tries 41
Y 39
tty 38
&@@ 37
diff@@ 36
U 36
sour@@ 36
compan@@ 35
with@@ 35
beauti@@ 34
dren 34
anim@@ 31
X 30
ican 29
asy 28
á@@ 28
uch 27
Yor@@ 25
_ 25
selves 24
Q 23
beh@@ 23
í@@ 23
proble@@ 23
utes 21
ou 21
actly 21
# 21
= 20
lars 20
+ 20
q@@ 20
ó@@ 20
gether 19
know@@ 19
del 19
Amer@@ 17
Z 17
ã@@ 17
ç@@ 16
wom@@ 16
viron@@ 15
beha@@ 14
them@@ 14
% 14
engin@@ 14
lause 13
^ 13
allen@@ 12
esn 12
apos@@ 11
som@@ 11
ö@@ 11
ild 10
aga@@ 10
—@@ 8
inst 8
tween 8
è@@ 8
j 8
♫@@ 7
ü@@ 7
;" 6
dividu@@ 5
ï@@ 5
&#93@@ 5
@ 4
illion 4
² 3
á 3
♪@@ 3
your@@ 3
è 3
ø@@ 3
ñ@@ 3
ô@@ 2
happen@@ 2
£ 2
– 2
อร 2
่ 2
í 2
à 2
ä@@ 2
Á@@ 2
∇ 1
τ 1
ú 1
” 1
ā@@ 1
û@@ 1
ě@@ 1
ó 1
ī@@ 1
Č@@ 1
Å@@ 1
ø 1
¿ 1
อย@@ 1
อย 1
Ă@@ 1
Ť 1
* 1
ì 1
É@@ 1
