่ 438745
้ 297885
็ 85759
ที 47818
์ 47574
น@@ 44387
น 38454
ว 29099
ง@@ 28806
และ@@ 27355
า 26255
า@@ 26180
ได 24825
อ@@ 24162
&quot; 22649
เป 21430
ใน@@ 20448
อง@@ 19906
ก 19604
ต 19103
าง@@ 18337
ไม 17315
ม@@ 16742
ของ@@ 15953
การ@@ 15111
นี 15000
แต 14909
มี@@ 14795
อย 13629
จะ@@ 13119
ด 12511
าน@@ 12444
ว@@ 12324
ง 12065
ก@@ 11842
แล 11687
ให 11639
บ@@ 11457
นั 11266
มัน@@ 10702
อยู 10615
ใช 10599
งที 10349
ผม@@ 10301
ส@@ 10228
กับ@@ 9707
เรา@@ 9627
ความ@@ 9573
ๆ 9490
) 8895
( 8863
ร 8804
คน@@ 8758
ส 8673
ไป@@ 8356
าย@@ 8212
สิ 8136
ค 8060
ล 7969
คุณ@@ 7872
ล@@ 7796
อน@@ 7735
เพื 7613
ข 7584
ด@@ 7372
วย@@ 7312
ต@@ 7271
ทั 7228
ถ 7167
จาก@@ 7125
เข 6965
ย@@ 6904
ซึ 6819
ร@@ 6813
ผู 6779
ท@@ 6669
บ 6663
เรื 6424
ค@@ 6225
พ@@ 6131
จ@@ 6117
คือ@@ 6111
แ@@ 5997
เมื 5969
ฉัน@@ 5939
มา@@ 5938
ทาง@@ 5772
ท 5694
อ 5637
ทำ@@ 5635
ช 5531
ะ 5484
ม 5465
ย 5390
อย@@ 5376
ห@@ 5357
ำ@@ 5348
เล 5325
รู 5312
ตัว@@ 5300
หรือ@@ 5170
เห 5114
ถูก@@ 5091
หนึ 4983
สามารถ@@ 4939
สร 4930
วน@@ 4855
าง 4846
านี 4813
กัน@@ 4772
คือ 4742
ป@@ 4706
ดู@@ 4672
ช@@ 4640
โ@@ 4539
หน 4534
เหล 4485
ขึ 4423
ทำให 4386
เขา@@ 4370
ิ@@ 4321
พวกเขา@@ 4138
เกี 4078
นที 4074
ี 4066
เพราะ@@ 3974
ครับ 3932
านั 3907
ข@@ 3838
ผ 3800
ถึง@@ 3790
เริ 3786
าม@@ 3734
เชื 3663
ซ@@ 3657
าว@@ 3648
งาน@@ 3643
มาก 3619
ภาพ@@ 3598
วง@@ 3580
เท 3574
อม@@ 3550
ดี@@ 3529
ี@@ 3529
ฟ@@ 3471
ถ@@ 3426
อีก@@ 3421
วิ@@ 3336
กำลัง@@ 3326
ู@@ 3318
โดย@@ 3273
อน 3265
มาก@@ 3249
าร@@ 3231
นัก@@ 3209
ห 3207
ในการ@@ 3206
กว 3141
เปลี 3096
สำหรับ@@ 3080
นเ@@ 3054
บน@@ 3043
อร 3042
ป 3029
ะ@@ 3022
ไ@@ 3002
ลง@@ 2996
: 2990
หลาย@@ 2967
แบบ@@ 2967
ัน@@ 2965
ผล@@ 2961
องการ@@ 2952
เด 2908
ใหม 2897
แค 2880
เคย@@ 2864
พูด@@ 2858
อะไร@@ 2847
พวก@@ 2842
าก@@ 2836
กระ@@ 2834
ใจ@@ 2827
หา@@ 2812
เช 2809
เธอ@@ 2798
ดังนั 2785
รับ@@ 2781
าคุณ@@ 2780
เก@@ 2773
ติ@@ 2768
แม 2766
มันเป 2762
ศ@@ 2740
ีย@@ 2720
รา@@ 2712
เกิดขึ 2705
ชีวิต@@ 2700
จ 2700
อก@@ 2699
ประ@@ 2697
โลก@@ 2690
นำ@@ 2685
าย 2678
เลย 2670
าน 2664
อง 2632
ไว 2625
คนที 2602
ตั 2601
เ@@ 2595
วย 2594
เราจะ@@ 2593
มีความ@@ 2590
าร 2583
ยวกับ@@ 2581
าส@@ 2573
? 2545
หล@@ 2526
พวกเรา@@ 2513
สุด@@ 2509
ญ@@ 2506
บอก@@ 2493
สุด 2489
พื 2478
ไป 2471
กัน 2471
ิ 2462
ทำงาน@@ 2461
คน 2456
ยน@@ 2445
อื 2444
ปี 2427
ุ@@ 2413
คิด@@ 2411
าที 2397
กล 2397
เสียงหัวเราะ 2378
ตาม@@ 2366
ัก@@ 2365
อา@@ 2357
— 2327
ซ 2323
ตร@@ 2318
ตอนนี 2315
, 2315
สอง@@ 2304
ของเรา 2287
ุ 2276
เกิด@@ 2275
างที 2274
หน@@ 2265
อด@@ 2254
นต 2235
ัง@@ 2222
ๆ@@ 2221
ทุก@@ 2221
เล@@ 2214
ำ 2214
ธ@@ 2212
นแ@@ 2201
ออก@@ 2189
ชั 2185
จริง 2166
ฮ@@ 2162
แน 2153
"@@ 2146
ครั 2138
ามัน@@ 2136
" 2125
ยา@@ 2124
เวลา@@ 2123
คำ@@ 2119
เลย@@ 2110
แก 2095
วม@@ 2095
๊ 2089
เร@@ 2085
กร@@ 2080
ละ@@ 2078
ื 2073
เสีย@@ 2067
ปี@@ 2062
คร@@ 2052
เจ 2039
างไร 2035
ับ@@ 2023
พ 2021
เอา@@ 2019
มอง@@ 2019
ดี 2013
ั@@ 1998
ยัง@@ 1989
เอ@@ 1982
เครื 1981
อาจ@@ 1978
สึก@@ 1973
กล@@ 1972
เสียง@@ 1946
นการ@@ 1945
อัน@@ 1945
นิ@@ 1937
คล@@ 1937
กลุ 1933
เม@@ 1908
สม@@ 1905
แห 1905
คิดว 1888
ลอง@@ 1884
จะเป 1883
ั 1876
เราต 1874
เพิ 1860
ใหญ 1843
ฉ@@ 1828
อมูล@@ 1824
ยาก@@ 1824
มัน 1803
ระบบ@@ 1798
เมือง@@ 1782
นได 1775
นา@@ 1771
ผ@@ 1770
ชื 1770
งใน@@ 1768
คง@@ 1762
เจ@@ 1760
ลูก@@ 1749
จุด@@ 1749
เหมือน@@ 1738
เก 1723
มากกว 1715
าจะ@@ 1711
ิน@@ 1701
ถึง 1700
เพ@@ 1698
จึง@@ 1696
เค@@ 1692
เสียงปรบมือ 1692
พิ@@ 1689
สำคัญ@@ 1689
วัน@@ 1671
ติด@@ 1658
องนี 1658
ของการ@@ 1652
นก 1643
โลก 1639
กลับ@@ 1633
นเป 1627
ู 1626
อที 1625
ริ@@ 1624
นเรื 1622
ัน 1622
เพียง@@ 1621
พยายาม@@ 1621
นสิ 1616
เพราะว 1603
ยิ 1600
งนี 1598
นใน@@ 1581
เราได 1580
เงิน@@ 1577
ผมจะ@@ 1575
ัด@@ 1572
มือ@@ 1568
ใจ 1567
บอกว 1567
จำ@@ 1565
นว 1562
รูป@@ 1560
เด@@ 1553
พบ@@ 1549
โรค@@ 1543
ประเทศ@@ 1542
สาม@@ 1533
าใจ@@ 1532
ปล@@ 1531
เรามี@@ 1527
อบ@@ 1526
1@@ 1526
เราก 1517
เบ@@ 1504
ษ@@ 1500
ปัญหา@@ 1499
ตอน@@ 1497
พวกมัน@@ 1493
มา 1483
ณ@@ 1476
ฝ@@ 1476
ระหว 1473
รถ@@ 1473
เราไม 1465
เท@@ 1464
ระ@@ 1440
เนื 1439
สี@@ 1438
อส@@ 1429
รวม@@ 1422
การ 1419
คุณ 1412
จริง@@ 1410
เส@@ 1408
ผมก 1406
เข@@ 1405
ิน 1403
มันก 1400
เซ@@ 1399
เดิน@@ 1397
มีการ@@ 1391
ผิด@@ 1370
ษ 1369
ทร@@ 1363
มันไม 1360
เลือก@@ 1359
คุณจะ@@ 1356
ตา@@ 1355
อยาก@@ 1354
แบบนี 1353
เร 1350
จริงๆ 1347
เซลล 1347
ชาย@@ 1337
มาจาก@@ 1335
และการ@@ 1332
ของผม 1325
หมาย@@ 1323
ผม 1322
ีย 1313
ตรง@@ 1310
างๆ 1308
ที@@ 1301
อะไร 1295
ภ@@ 1287
นส 1284
เรา 1283
ทำไม@@ 1275
ชอบ@@ 1274
แสดง@@ 1270
งเป 1259
เต 1257
ความคิด@@ 1254
ิด@@ 1251
ผมไม 1248
เน@@ 1247
ทุกคน@@ 1247
ือ@@ 1246
หม@@ 1242
อาจจะ@@ 1240
ใส 1239
เอง 1237
ภาพ 1236
ามา@@ 1233
นอย 1231
ณ 1229
และ 1227
วิธี@@ 1227
สัก@@ 1227
าเรา@@ 1225
จน@@ 1223
รัก@@ 1221
งของ@@ 1221
เรียนรู 1218
กลายเป 1217
ฟ 1215
บาง@@ 1215
มั 1213
ใคร@@ 1207
นๆ 1203
วั@@ 1191
จัด@@ 1188
มที 1187
บรร@@ 1186
เว@@ 1183
ถาม@@ 1182
บท@@ 1171
สาร@@ 1170
วก 1169
ผมได 1168
ตก@@ 1168
อว 1168
วก@@ 1167
แตกต 1167
บริ@@ 1160
จำนวน@@ 1158
จากการ@@ 1157
ิก@@ 1156
ยง@@ 1155
คือการ@@ 1151
ไหน 1150
เคลื 1147
นของ@@ 1144
ควร@@ 1143
2@@ 1143
หญิง@@ 1139
ผมคิดว 1138
เปิด@@ 1135
ทำ 1133
หลัก@@ 1133
ตัวอย 1128
ใต 1124
แรง@@ 1122
ยว@@ 1120
เช@@ 1114
งหมด@@ 1111
มากขึ 1109
ฟัง@@ 1105
สูง@@ 1102
องที 1102
.@@ 1099
ปร@@ 1093
คุณก 1091
พอ@@ 1085
หลัง@@ 1083
อีก 1081
าล@@ 1080
มนุษย 1078
ปฏิ@@ 1077
อบ 1073
ดิฉัน@@ 1073
เราสามารถ@@ 1070
ัย@@ 1061
อิน@@ 1057
พล@@ 1054
พร 1054
ามี@@ 1053
อให 1052
ทำได 1052
โอ@@ 1050
สัตว 1050
ความเป 1050
าไป@@ 1048
ขนาด@@ 1048
ตัว 1046
าม 1045
ของเรา@@ 1045
ยม@@ 1042
ัง 1039
จะมี@@ 1038
าว 1036
เรากำลัง@@ 1036
ชีวิต 1035
จะได 1033
นะ 1030
เหมือนกับ@@ 1027
ือ 1026
ใด@@ 1026
าด@@ 1025
นด 1025
สา@@ 1021
ลง 1020
หรือ 1019
นอก@@ 1017
อั@@ 1017
ับ 1015
จะไม 1015
๋ 1014
แรก@@ 1011
นมา@@ 1010
เรียกว 1007
ศึกษา@@ 1002
ในช 1000
ลา@@ 996
สะ@@ 993
ขว@@ 991
หาย@@ 988
คล 984
คำถาม@@ 984
เปอร 982
3 982
นความ@@ 980
ฉะนั 979
วนใหญ 977
ราย@@ 975
ไหน@@ 974
นคือ@@ 970
ผลิต@@ 967
การที 965
นผู 965
กๆ 963
นไป@@ 962
จำเป 960
ของ 956
นไม 956
ของคุณ 956
พวกนี 954
คนอื 954
สื 953
ชิ 952
และความ@@ 950
หัว@@ 949
ชาว@@ 941
แส@@ 940
ิง@@ 938
อาหาร@@ 937
สมอง@@ 936
ซิ@@ 932
งาน 930
วี@@ 929
ปีที 929
ไปที 927
ตอนที 924
และนี 923
เรีย@@ 921
แข 915
าของ@@ 914
นอยู 914
หรือไม 913
ญา@@ 912
ตลอด@@ 910
เซ 910
ื@@ 908
ไหม 908
ตอบ@@ 907
ใน 904
อนที 903
กรรม@@ 902
เตอร 902
และใน@@ 901
ธรรม@@ 901
าะ@@ 900
ระดับ@@ 898
เขียน@@ 898
นะครับ 897
เย@@ 895
บางอย 895
ยุ@@ 894
มิ@@ 893
กี 891
ยนแปลง@@ 891
ยิน@@ 891
เหตุ@@ 887
ตัวเอง@@ 886
วิทยาศาสตร 886
าเป 884
งหมด 883
ไร 883
เหลือ@@ 881
เดียว 879
เรียน@@ 879
2 877
เลี 874
จิต@@ 874
หนังสือ@@ 873
เวล@@ 872
ตี@@ 872
ทำอะไร@@ 872
ิต@@ 870
จะต 870
งต 867
ดาว@@ 867
5 866
เส 865
จับ@@ 865
ุม@@ 864
บริษัท@@ 864
กลาง@@ 862
โรง@@ 860
เหล@@ 860
มต 860
ความรู 859
ทุกอย 858
งก 857
ปล 857
โร@@ 856
ใบ@@ 855
ดา@@ 854
โต 853
ัก 850
พลังงาน@@ 850
ิล@@ 848
ตร 847
องค 846
ขั 846
วัน 844
เหตุผล@@ 844
กับ 842
มันมี@@ 841
ของผม@@ 841
พัฒนา@@ 837
ุด@@ 836
นมา 835
แพทย 832
เรียก@@ 829
ทำการ@@ 829
รอบ@@ 828
ลด@@ 827
สั 825
ลำ@@ 825
อก 824
ไปยัง@@ 823
ชน@@ 823
และนั 823
ออกแบบ@@ 819
แท 819
างไร@@ 819
งแต 818
พูดว 816
รร@@ 815
สี 813
นคน@@ 813
างนั 812
ขอ@@ 812
คุณสามารถ@@ 810
ตัวเอง 809
พูดถึง@@ 809
ตื 809
จากนั 808
ทดลอง@@ 808
สู 807
ายที 807
S@@ 806
กับการ@@ 805
พวกเข@@ 802
ภูมิ@@ 801
เมือง 799
มากมาย 797
อล@@ 797
งหนึ 797
เรารู 796
เวลา 795
ฐาน@@ 794
ดิ@@ 793
อการ@@ 793
ทีนี 792
เป@@ 791
เทคโนโลยี@@ 791
ากล@@ 791
เขีย@@ 789
รัฐ@@ 788
นนี 787
-@@ 783
อายุ@@ 780
มี 779
ไซ@@ 778
ภาษา@@ 776
ฉัน 775
แม@@ 774
วน 773
ทัน@@ 773
เต@@ 768
เดียวกัน 768
กำ@@ 767
โอ 765
คาด@@ 764
อด 764
โด@@ 762
จัก@@ 761
รับการ@@ 760
ออกไป@@ 760
ากับ@@ 760
ดีที 757
แท@@ 756
พบว 756
เราม@@ 755
อิ@@ 754
หาก@@ 754
ในที 754
คุณต 754
รี@@ 753
สนใจ@@ 751
วาง@@ 750
ตัดสินใจ@@ 746
นไปได 746
ัย 744
ซื 744
เวลาที 741
เอง@@ 738
ดับ@@ 737
ใกล 736
แนว@@ 736
คะ 735
ปะ@@ 735
มันจะ@@ 735
สาย@@ 733
กฎ@@ 731
คุณเห 730
แผ@@ 728
สุดท 728
ศาสตร 728
แรก 727
วด@@ 726
ประโยชน 726
พิมพ 726
ทางการ@@ 725
ึ 725
แล@@ 724
แย 724
าการ@@ 723
ัว 720
สุข@@ 720
อความ@@ 720
วยการ@@ 719
หยุด@@ 719
และผม@@ 719
เน 718
คิด 718
1 718
อี@@ 716
ียง@@ 715
รักษา@@ 714
ภาย@@ 713
3@@ 711
สภาพ@@ 711
นาน@@ 709
ญ 708
พลัง@@ 708
คนหนึ 703
โล@@ 703
าผม@@ 703
10 703
ถือ@@ 703
รรม 702
โก@@ 700
นก@@ 699
และเมื 698
ตรงนี 697
ยก@@ 696
มากที 696
แสง@@ 696
ของคุณ@@ 696
ซี@@ 694
แบบ 693
งใหญ 692
โอกาส@@ 692
รูปแบบ@@ 691
เดินทาง@@ 689
จาก 689
าด 689
อม 688
5@@ 687
ประชา@@ 687
พวกคุณ@@ 687
หลังจาก@@ 686
สุ@@ 686
วิจัย@@ 686
ออกมา@@ 685
อนุ@@ 682
โน@@ 682
ลิ@@ 680
เฉ@@ 680
โต@@ 680
องราว@@ 679
างเช 677
อคุณ@@ 677
ตัด@@ 677
คว@@ 677
เขา 675
สน@@ 675
และสิ 674
ฉันก 673
เรือ@@ 670
สำคัญ 670
หาร@@ 669
19@@ 668
อไป 666
4 665
ประสบการณ 662
โน 662
ในห 661
ปรับ@@ 661
โครงการ@@ 661
มีใคร@@ 661
หร@@ 661
ตรวจ@@ 661
นนัก@@ 661
C@@ 660
เชิง@@ 659
คิดถึง@@ 658
งนั 658
ขับ@@ 658
ธ 657
ของเขา 657
รุ 653
ตาย@@ 653
ไม@@ 650
ธิ@@ 647
ของผู 647
จะทำ@@ 646
ยังไม 645
วิธีการ@@ 644
อยากจะ@@ 644
าท@@ 644
าศ@@ 644
เอ 642
พวกเขา 641
ออกไป 641
มากๆ 641
มน@@ 640
อะไรที 640
โปร@@ 639
สอน@@ 639
คุณไม 638
ดีกว 637
เฟ@@ 635
ประมาณ 633
อุ@@ 633
อนข 633
แบ@@ 633
นน@@ 632
จะทำให 630
แปล@@ 629
คอมพิวเตอร 629
นตัว@@ 628
ในเรื 628
ออกจาก@@ 627
ขอบคุณ@@ 626
หย@@ 626
แบ 625
ติ 624
อยๆ 623
นน 623
ฉันได 623
ภายใน@@ 622
ประมาณ@@ 621
ภาวะ@@ 619
มันได 619
ึ@@ 618
ยุค@@ 618
ิด 617
ลี 617
เอก@@ 615
ไปสู 615
จี@@ 614
อร@@ 614
คุย@@ 613
20 613
ฝ 612
ทรง@@ 611
ชัดเจ@@ 609
สิ@@ 609
แนวคิด@@ 608
คือสิ 607
ชีว@@ 607
โม@@ 607
ประกอบ@@ 607
คาร 606
ียด@@ 606
6 606
สังคม@@ 606
าล 605
ไข 605
จัดการ@@ 604
สู@@ 603
50 603
พา@@ 603
นึก@@ 602
นนั 599
พวกเขาก 599
ฉันไม 599
บุ@@ 599
ดัง@@ 597
บั@@ 597
แสดงให 596
บิน@@ 595
อธิบาย@@ 595
ตาม 594
เดียว@@ 594
ชี@@ 593
ของฉัน 593
แพ@@ 592
ไฟ@@ 591
ทุ@@ 590
ภาค@@ 589
เขาก 589
วิธีที 589
ไฟฟ 588
ควบคุม@@ 587
ไอ@@ 583
วนหนึ 582
ดู 581
8 581
ครึ 581
ึก 580
มีอยู 580
ดวง@@ 580
รั@@ 580
วันนี 577
ในปี 577
พัน@@ 577
มะเร 577
ในฐานะ@@ 576
แบบนั 576
ยังคง@@ 575
ัด 575
มัก@@ 574
ออกมา 573
รุ@@ 573
มขึ 573
หุ 573
หว@@ 573
นอน 572
คา@@ 571
ในโลก@@ 570
งเหล 569
ทาง 568
และไม 568
โครงสร 567
ตะวัน@@ 567
กิน@@ 566
แทนที 566
นกัน 565
4@@ 564
เทียบ@@ 564
จริ@@ 564
รว@@ 563
ดิน@@ 562
หรือเปล 562
นว@@ 561
ยังมี@@ 561
ชา@@ 560
เราจึง@@ 560
บางที@@ 559
หลาย 558
ประเทศ 558
และผมก 558
P@@ 558
เว 558
ทะ@@ 557
ของพวกเขา 555
ซับซ 555
คุณรู 555
สำ@@ 554
และถ 553
ึก@@ 552
สหรัฐ@@ 550
M@@ 550
ทิ 549
ชน 549
เสี 548
คุณได 548
อิส@@ 548
อายุ 547
ํ 545
างๆ@@ 544
ผมรู 544
9 544
ยม 543
กำลังจะ@@ 543
ยืน@@ 542
และก 540
กิ@@ 540
ไปใน@@ 539
ทะเล@@ 539
ชาติ 539
โบ@@ 538
ออก 538
วยความ@@ 538
นฐาน@@ 537
นะ@@ 537
างนี 537
เพียงแค 536
ขาย@@ 534
หก@@ 534
ระบ@@ 534
ธรรม 534
สอง 534
สัญ@@ 533
าค@@ 532
านมา 532
เห@@ 532
ุก@@ 532
ระยะ@@ 531
จริงแล 531
าก 531
งอยู 530
างขึ 530
รู@@ 530
วง 530
คำตอบ@@ 530
คู 529
นาที 528
ุง@@ 527
ขอบคุณครับ 527
ตอนนั 527
ยวข 525
องใช 525
นเต 524
ครอบครัว@@ 523
ูก 523
ัญ@@ 521
ผมอยาก@@ 521
าสนใจ@@ 521
คุ 521
สถานที 520
อีกครั 519
ละ 518
ตล@@ 518
สถา@@ 517
และที 516
นภาพ@@ 516
สาว@@ 516
คุ@@ 516
ักษ@@ 515
เหนือ@@ 514
สบ@@ 514
าระ@@ 514
ถูกต 514
แด@@ 513
เรายัง@@ 513
ัว@@ 512
7 512
จุ@@ 512
ฆ 511
ผล 511
ัส 511
แปลก@@ 511
นหนึ 510
บางคน@@ 510
วโลก 509
ประสาท@@ 508
ของความ@@ 506
ไปแล 506
กน 506
ทำอย 506
วาด@@ 506
ขอบ@@ 505
โทร@@ 505
อเรา@@ 504
หมายความว 503
เติบโต@@ 502
รรม@@ 502
การณ 501
สัปดาห 500
อเมริกา 500
างกาย@@ 500
เย 500
สนับสนุ@@ 499
และมี@@ 499
ใ@@ 499
นเอง 498
และมันก 498
าเรื 496
ดีขึ 496
ยาย@@ 496
ลล 496
มากมาย@@ 495
จน 495
ผิว@@ 494
ยังไ@@ 493
. 493
อาทิตย 493
ตุ 493
ปัจจุบัน 492
แบบที 491
ฉันจะ@@ 491
ยาน@@ 490
ระเบ@@ 490
B@@ 490
พันธุ 490
ขยาย@@ 489
จบ@@ 489
โจ@@ 489
หมาย 489
,000 488
ทุน@@ 488
อต 487
มีคน@@ 487
เกิน@@ 487
และเราก 487
าไปใน@@ 486
างน 485
สูญ@@ 485
ังค@@ 484
เงิน 483
ลักษณะ@@ 483
พิเศ@@ 483
กับความ@@ 482
างความ@@ 482
ชม@@ 481
และเป 481
มองเห 481
จักร@@ 480
แยก@@ 480
D@@ 480
นอน@@ 479
ทำงาน 478
ไข@@ 476
และมัน@@ 476
สง@@ 475
สัมพันธ 475
โค@@ 474
ามาก@@ 474
ูล@@ 472
ชาติ@@ 471
ธรรมชาติ 471
องของ@@ 471
นพบ@@ 471
ูก@@ 471
ไว@@ 471
เอาล 471
แอ@@ 471
งมี@@ 470
ชุด@@ 469
พวกเรา 469
ลึก@@ 467
องมือ@@ 467
หวัง@@ 467
ืน@@ 466
ฟิ@@ 466
ยวกับการ@@ 466
อวก@@ 466
ปีก 466
ผมว 466
♫ 466
ืน 465
าทึ 465
เกือบ@@ 465
องการ 464
สมบูรณ 463
พยา@@ 463
เดียวกัน@@ 462
ดูเหมือน@@ 462
พันล 462
ผมต 462
ธรรมชาติ@@ 462
วร 461
00 461
คุณจะเห 460
ดำ@@ 460
กรณี@@ 460
ไหม@@ 460
0@@ 459
ประเด 458
กลัว@@ 458
วยกัน 457
สังคม 457
างหนึ 455
ประวัติศาสตร 455
าใน@@ 455
นกับ@@ 455
ควรจะ@@ 455
อไป@@ 454
โดยไม 454
โรงเรียน@@ 453
มาเป 453
สูง 452
อะ@@ 451
อาการ@@ 451
L@@ 450
การใช 449
างสรรค 449
ขน@@ 449
ศึกษา 449
าไม 448
ตระหนัก@@ 448
ธุรกิจ@@ 447
เสื 447
ฎ@@ 447
ภา@@ 447
ทำสิ 447
นับ@@ 446
&apos; 446
เจอ@@ 446
ดูก@@ 446
างมาก 445
การเปลี 445
เดิม 442
T@@ 442
9@@ 441
ในแ@@ 441
อัตรา@@ 441
กิจ@@ 440
... 440
คาร@@ 439
ไปถึง@@ 439
ซี 438
ปัญหา 438
ทุกคน 437
ยนต 437
ปลูก@@ 436
นัก 435
ขนาดใหญ 434
เราใช 434
อเมริ@@ 434
าสิ 434
ศาส@@ 433
ฤ@@ 433
ศูนย 433
ีด@@ 433
หมู 432
ิง 432
หญิง 432
ในประเทศ@@ 432
กลับมา@@ 432
โซ@@ 432
าต 431
เขต@@ 431
บบ@@ 431
ียร 431
i@@ 431
ออ@@ 431
สำรวจ@@ 430
ดึง@@ 429
ธิ 429
ใด 428
อุปกรณ 427
ชนิด@@ 427
อารมณ 427
A@@ 427
30 426
คนนี 426
ตั@@ 426
บาล 426
เธ@@ 426
R@@ 426
พอ 426
วิ 425
20@@ 425
หัวเราะ 425
นแค 424
จินตนาการ@@ 424
กระบวนการ@@ 424
งความ@@ 424
เปรียบ@@ 423
งแวดล 422
ามันเป 422
วัด@@ 422
ฟัง 422
มาร 422
จริงๆแล 421
านการ@@ 421
าถึง@@ 421
วนที 421
จด@@ 421
จะถูก@@ 420
พวกเขาไม 419
เหร@@ 419
สุขภาพ@@ 419
ฐาน 418
โครง@@ 418
ตรงนั 418
สำเร 418
าใจ 417
โทรศัพท 417
นๆ@@ 416
กลง@@ 416
ปิด@@ 416
7@@ 416
กา@@ 416
เหตุการณ 416
หล 415
หลาก@@ 414
จะใช 414
เถ@@ 414
เหมือนกัน 414
รัฐบาล@@ 413
บางครั 412
ค.ศ. 412
แอฟริก@@ 412
ปกติ@@ 411
อผม@@ 411
เศ@@ 411
จรรย 411
าเขา@@ 411
สิน@@ 410
เราเห 410
ทางที 410
สมัย@@ 410
แอน@@ 410
งสอง@@ 409
ปฏิบัติ@@ 409
เดี 409
หนัก@@ 409
งได 408
นมัน@@ 408
กๆ@@ 407
มีอะไร@@ 407
ในสิ 407
ทรัพ@@ 406
ของเขา@@ 405
สิบ@@ 405
หละ 405
หลัง 404
ประสิทธิ@@ 404
เคราะห 404
พันธ@@ 404
วยให 404
ขณะที 403
แร@@ 403
วัต@@ 402
เหมาะ@@ 402
ตา 402
หวังว 402
สามารถ 401
อากาศ@@ 401
าจะเป 401
ของมัน 401
แสน@@ 401
รับรู 401
ตาย 401
เดิม@@ 400
ือง@@ 400
มือ 400
มั@@ 400
ผมจึง@@ 400
อาหาร 399
พร@@ 399
ยอด@@ 399
G@@ 399
อันที 398
เง@@ 398
างไ@@ 397
เยี 397
ทุกๆ@@ 396
นา 396
บุค@@ 396
ตรา@@ 396
ยอม@@ 396
แก@@ 396
อมูล 395
นจริง 395
อล 395
อนาคต@@ 394
เหย@@ 394
ความสำเร 393
แพร 393
I@@ 393
สถ@@ 393
กอง@@ 392
ของฉัน@@ 392
ไหมครับ 392
ายัง@@ 391
ดูว 391
สถานการณ 390
ายๆ 390
กับผู 389
เสียง 389
ชี 389
อค@@ 388
สุดใน@@ 388
ะครับ 388
a 388
มุ 387
กิจ 387
วัย@@ 387
ฝึก@@ 387
ครับ@@ 387
สิทธิ@@ 387
งมีชีวิต@@ 386
ลาด 386
าได 386
เฉพาะ@@ 384
นแบบ@@ 384
ิร 384
เดือน@@ 384
อมต 384
เกิดอะไรขึ 384
ทุกวันนี 384
พูด 384
200@@ 383
องกัน@@ 383
ึง@@ 382
หมายถึง@@ 382
นคือ 382
บัน@@ 382
จนถึง@@ 381
เปล 381
สาธารณ@@ 380
บริเวณ@@ 380
างกัน@@ 380
แผ 379
โย@@ 379
สำคัญที 379
ดัน@@ 379
งขึ 378
สัญญาณ@@ 378
ผมเป 378
ศ 378
ากำลัง@@ 378
ประหลาด@@ 377
จะสร 377
อนไหว@@ 377
ภัย@@ 377
ืด@@ 376
งแ@@ 376
เดีย@@ 376
มันคือ@@ 376
เดียวกับ@@ 376
ทาน@@ 376
จะให 375
เรียน 375
ปัญห@@ 375
แป@@ 374
ขาด@@ 374
ำแข 374
เคล@@ 374
นักวิทยาศาสตร 374
บันทึก@@ 373
งแรก@@ 373
รอง@@ 373
ัพ@@ 373
มหาวิทยาล@@ 373
สองสาม@@ 372
สัน@@ 372
นาย@@ 371
ผลกระทบ@@ 371
ทำลาย@@ 371
ครู@@ 371
เดือ@@ 371
ประช@@ 369
างหน 369
ดอลลาร 369
เลยว 369
จะเข 369
นจาก@@ 368
ประก@@ 368
อัล@@ 368
นครั 367
ัม@@ 367
มุม@@ 367
เกษ@@ 367
ียบ@@ 367
เผย@@ 366
ประชากร@@ 366
บัติ@@ 366
แหล 366
ตะ@@ 366
นข 366
ขา@@ 366
อาศัยอยู 365
รัส@@ 365
ของคน@@ 365
วยเหลือ@@ 365
6@@ 364
างยิ 364
สวยง@@ 364
นพ@@ 364
เทคโนโลยี 364
เคร@@ 363
ตามที 363
ลาย@@ 362
หละ@@ 362
นใจ@@ 361
เพล@@ 361
าพวกเขา@@ 361
ฆ@@ 361
คร 361
ลับ@@ 361
องมี@@ 361
อมา 360
มาร@@ 360
ประสบ@@ 360
ขณะ@@ 360
เกินไป 360
วล@@ 360
และผู 359
งหมดนี 359
ของมนุษย 359
ดนตรี 359
นใจ 359
ียง 358
งป@@ 358
ภัย 358
ยั 358
ภาษ@@ 358
หัส@@ 358
เศรษฐกิจ@@ 357
ผมอยากจะ@@ 357
ศต@@ 357
ทำไม 356
ยะ@@ 356
และเรา@@ 356
มากครับ 356
โก 355
าคน@@ 355
คืน@@ 355
ในขณะที 354
สมอง 354
าเราจะ@@ 354
ดง@@ 353
100 353
ิล 352
มุมมอง@@ 352
เศรษฐ@@ 352
ทุกๆ 352
นหา@@ 352
อดี@@ 352
โอเค 352
ฝัน@@ 352
ามา 351
าหมาย@@ 351
มาที 351
นร@@ 351
ทดสอบ@@ 351
พืช@@ 351
ิว@@ 350
เหมือ@@ 350
ปริ@@ 350
ทีม@@ 349
ปรากฏ@@ 349
กที 349
เตร@@ 349
กระทั 348
เธอ 348
สถาน@@ 348
คุณอาจ@@ 348
สำหรับการ@@ 348
อุตสา@@ 348
ไกล@@ 347
และฉัน@@ 347
อสาร@@ 347
นทาง@@ 346
ไปด 346
งข 346
ไร@@ 346
ภัณฑ 345
โดยเฉพาะ@@ 345
เทียม@@ 345
อสร 344
กับสิ 344
ศิล@@ 344
สึกว 344
วมมือ@@ 344
ฬ@@ 343
อมโย@@ 343
จะเห 343
ิบ@@ 343
งไป@@ 343
ิค@@ 342
นส@@ 342
กาย@@ 342
จร@@ 342
สงคราม@@ 342
หลังจากนั 342
วิทยา@@ 342
พวกนั 341
งานที 341
ดำเนิน@@ 340
ืม@@ 340
ศิลป@@ 340
เฮ@@ 339
มาน@@ 339
อะ 339
าศ 339
โดยใช 339
ยนแปลง 339
งใจ@@ 338
หนัง@@ 338
ความเข 338
ภู@@ 338
ละเอ@@ 337
กลับไป@@ 337
นิ 337
ปก@@ 337
ปัญ@@ 337
ฟอร 337
งการ@@ 336
เดือน 336
เติ@@ 336
อสู 336
องถ@@ 335
ดูแล@@ 335
% 335
ดาวเคราะห 335
จะสามารถ@@ 335
ษา 335
มุ@@ 334
ตลาด@@ 334
แถ@@ 334
ชิ@@ 334
อากาศ 334
เผชิญ@@ 334
TED 333
สั@@ 333
มห@@ 333
มีส 333
เรีย 332
พฤติกรรม@@ 332
อนาคต 332
a@@ 332
เลีย@@ 331
15 331
ทัศน 331
กระจาย@@ 331
าหาก@@ 331
คริส 331
พัก@@ 330
นล 330
นและ@@ 330
ณะ@@ 330
เลือด@@ 330
ดื 330
ตู@@ 329
จริงๆ@@ 329
นแล 328
าฉัน@@ 328
ยี@@ 328
ตก 328
าไป 327
ตำ@@ 327
เชี 326
เบื 326
e@@ 326
สุข 326
แซ@@ 325
นักเรียน@@ 325
F@@ 325
โชค@@ 324
ทีเดียว 324
เค 324
วันที 324
ตำแหน 324
วรรษที 323
รอย@@ 323
จะช 323
หมด@@ 323
ถึงความ@@ 323
ตัดสิน@@ 323
เสร 322
ภาพที 322
อาจเป 322
ฯ 322
งกว 321
นิว@@ 321
างรวดเร 321
ปุ 321
ตัน 321
งค 320
กลาง 320
วมกัน 320
ได@@ 320
ใคร 319
ทร 319
นอีก@@ 319
หัวใจ@@ 319
าความ@@ 319
คำว 319
อำนาจ@@ 319
0,000 318
วัฒนธรรม@@ 318
ฉันรู 318
อนหน 317
แนะ@@ 317
ในระดับ@@ 317
ึด@@ 316
าให 316
มันน 316
าการ 316
าผู 316
งไม 315
เกล@@ 315
ฝั 315
แทบ@@ 314
เครือข 314
อเมริก@@ 314
เผ@@ 314
หรอก 314
มไปด 313
ถัด@@ 313
นให 313
งแรก 313
ไปได 313
โดยการ@@ 313
อยากให 313
คำถามที 313
ของสิ 312
ยาว@@ 312
ทราบ@@ 312
งข@@ 312
เพลง@@ 312
วิดี@@ 311
ยวชา@@ 311
ดา 311
ยุโร@@ 311
ผมมี@@ 311
ผสม@@ 311
นเครื 311
างเป 310
ลักษณ 310
เรามา@@ 310
จู@@ 310
บา@@ 310
ถึงแม 310
เทอร 310
เสนอ@@ 309
เราทำ@@ 309
o@@ 309
โดด@@ 309
มหา@@ 309
บางที 309
8@@ 309
ปกป 309
ตอบสน@@ 309
าอย 308
ปกติ 308
วรร@@ 308
นห@@ 308
ชาย 308
กำหน@@ 307
รี 307
าไหร 307
ตัวต@@ 307
วโมง 306
รุนแร@@ 306
องทำ@@ 306
างสิ 305
พวกเขาได 304
H@@ 304
จอ@@ 304
ลิน@@ 304
อแม 303
N@@ 303
นมาก 302
กส 302
ยกตัวอย 302
เบอร 302
ชีพ@@ 301
ปริมาณ@@ 301
รั 301
นค@@ 301
นิวยอร 300
เหน@@ 300
านที 300
E@@ 300
แค@@ 300
คำนว@@ 300
างกัน 300
จะ 299
นิด 299
ปรา@@ 299
นเพียง@@ 299
วิชา@@ 299
จิ@@ 299
คุณอาจจะ@@ 299
เดีย 298
วิศวก@@ 298
มนุษย@@ 298
ียม@@ 298
โค 298
โปรแกร@@ 298
ความสามารถ@@ 297
โท@@ 297
คซี@@ 297
ปัจจุบัน@@ 296
พี 296
างจาก@@ 296
นาที@@ 296
พระ@@ 296
สังเกต@@ 296
กร 296
ทฤษฎี@@ 295
ยา 295
กด@@ 295
นยนต 295
ไต@@ 294
เขาได 294
วัง 294
ถุ@@ 294
หมด 293
จำนวนมาก 293
ชนะ@@ 293
สมา@@ 293
ารณ@@ 293
สนาม@@ 292
บันดาล@@ 292
รับ 292
เมล 292
ศึกษ@@ 292
โลกที 292
ยอมรับ@@ 292
นอนว 292
ทิ@@ 292
าส 291
ในวันนี 291
สงสัย@@ 291
ไหล@@ 290
ดนตรี@@ 290
โทษ@@ 290
สาม 290
ึง 289
วิทยา 289
โรงเรียน 289
นเด 288
วไป 288
เอาไว 288
เทีย@@ 288
าทาย@@ 288
ฉันคิดว 288
ทุก 288
ตรี@@ 287
นขึ 287
ุษ@@ 287
ผิด 287
ขอให 287
ผลัก@@ 287
ไลน 286
าสู 286
พวกเขามี@@ 286
ปัญหาที 286
ผลล@@ 286
ปาก@@ 286
รางวั@@ 286
อของ@@ 286
อไม 285
ประเภ@@ 285
ชุม@@ 285
มวล@@ 285
ยวกับ 285
บาล@@ 285
ในชีวิต@@ 285
กัง@@ 285
พัฒนา 284
ประดิษฐ 284
โป@@ 284
ครอบคร@@ 284
วิจ@@ 284
อีกด 284
ณา@@ 284
ฏ@@ 284
รัก 284
มาถึง@@ 284
อังกฤษ 284
เลือก 284
มหาสมุ@@ 284
มานี 283
ประจำ@@ 283
องจาก@@ 283
รายได 283
สัมผัส@@ 283
องนั 282
อะไรบางอย 282
ลาด@@ 282
เยอะ@@ 282
จำลอง@@ 282
ทุกสิ 281
เสมอ 281
สัม@@ 281
ยง 281
งหลาย@@ 280
เขาไม 280
ซึ@@ 280
สายพันธุ 280
&#91; 280
จีน 279
อาศัย@@ 279
ยอดเยี 279
มันทำให 279
บี@@ 279
u@@ 279
นิด@@ 279
คณิตศาสตร 279
ชุมชน@@ 278
กำเน@@ 278
ีก@@ 277
ฟุ@@ 277
สนใจ 277
วยกัน@@ 277
เสริ@@ 277
&#93; 277
ความสัมพันธ 276
บาย@@ 276
ในทาง@@ 276
ขัดแย 276
มาแล 275
ัส@@ 275
สนุ@@ 275
ทิศ@@ 275
นำมา@@ 275
เที 275
บางสิ 275
คลื 275
โมเลกุ@@ 275
วัสดุ@@ 274
แฟ@@ 274
ปลอด@@ 274
ขณะนี 274
เกม@@ 274
เศร 274
ถาม 274
หลายๆ@@ 273
ลงไป@@ 273
ปัจ@@ 273
ฉลาด@@ 272
คุณค 272
ฐ 272
ขอบคุณค 272
จักรว@@ 272
ศัก@@ 272
นึง@@ 272
อยกว 272
อันนี 272
เวอร 272
แผนที 271
นสี@@ 271
ตัวเลข@@ 271
พระเจ 271
มน 271
วว 271
อุป@@ 271
วม 271
ธิปไต@@ 271
จำกัด@@ 270
เม 270
องเป 270
ของมัน@@ 270
ศี@@ 270
ทดลอง 270
จนกระทั 269
ทศ@@ 269
ดิน 269
วที 269
ภาพนี 269
างก 269
อกับ@@ 269
สัน 269
ของเธอ 268
ยังเป 268
คะแ@@ 268
รุนแรง 268
คุณจะได 268
ลุ@@ 268
ผมกำลัง@@ 268
ดีเอ 268
ปลอดภัย@@ 267
นจริง@@ 267
บังค@@ 267
ปั@@ 265
ชัด@@ 265
สอบ@@ 261
ารู 258
12 258
60 257
เลข@@ 257
วดล 256
กลาย@@ 254
40 253
วัฒน@@ 253
ไห@@ 252
! 252
เสม@@ 251
วัฒ@@ 251
0 250
เสน@@ 250
กุ@@ 246
ดุ@@ 244
สิท@@ 244
ปรบมือ 243
ฮ 242
ตุ@@ 241
A 240
80 239
วโม@@ 235
นแร@@ 235
ธุร@@ 232
โช@@ 231
y@@ 230
ัศ@@ 230
ไล@@ 230
ดน@@ 230
O@@ 229
11 229
โคร@@ 228
ปราก@@ 227
วิท@@ 227
นาการ@@ 226
- 225
70 221
W@@ 221
กระจ@@ 221
วกับ@@ 218
สรร@@ 216
หนังส@@ 212
ยนแปล@@ 208
กฤ@@ 206
ษา@@ 206
มาย@@ 205
เลือ@@ 205
สาธ@@ 203
ทย 202
สวย@@ 198
บริษั@@ 198
แตก@@ 197
d@@ 197
al@@ 195
l@@ 195
ar@@ 194
มะ@@ 192
r@@ 191
โอก@@ 190
ญาณ@@ 189
ณี@@ 188
25 186
199@@ 185
วัติ@@ 183
เพรา@@ 183
♪ 183
m 182
ขัด@@ 182
ทรา@@ 181
อังกฤ@@ 181
อาร@@ 178
an@@ 178
กระบวน@@ 176
หาร 176
ประสา@@ 175
t@@ 174
g@@ 173
ทด@@ 173
คริ@@ 172
สัย@@ 171
,@@ 171
พันธ 169
พัฒ@@ 169
อนไห@@ 168
ราว@@ 167
้@@ 166
ณฑ 165
วรรษ@@ 163
สัง@@ 161
บู@@ 159
ควบคุ@@ 159
in@@ 154
สหร@@ 153
วัส@@ 152
200 152
s@@ 151
s 150
สังค@@ 149
ครอบ@@ 149
er@@ 148
กัด@@ 146
พื@@ 146
re@@ 144
เติบ@@ 144
ขนา@@ 142
en@@ 142
k 142
e 142
ตว 141
สงคร@@ 140
ri@@ 140
พั@@ 138
ลัง@@ 138
พยาย@@ 137
K@@ 137
เปล@@ 137
ัฐ@@ 136
หญ@@ 136
รวจ@@ 136
i 136
J@@ 136
เฉพ@@ 135
14 135
ตระ@@ 135
คอม@@ 135
ฐ@@ 134
หว 134
U@@ 134
b@@ 134
o 133
h@@ 133
x 133
คะ@@ 131
an 131
ประวัติ@@ 131
in 130
on@@ 129
สังเก@@ 129
อาศ@@ 128
” 128
or@@ 127
ภ 127
D 127
S 127
ประชาก@@ 126
วิธ@@ 126
18@@ 126
y 126
จินต@@ 126
p@@ 124
พฤติ@@ 124
ูน@@ 123
al 123
m@@ 122
ทัศ@@ 122
on 120
ro@@ 119
k@@ 116
/ 116
000 115
n@@ 114
ประโย@@ 114
C 113
บวน@@ 112
รษ@@ 111
en 111
t 111
อำนา@@ 110
ลอง 110
วิทยาล@@ 110
สัมผ@@ 109
อธิ@@ 109
“ 109
นวน@@ 107
om@@ 107
กระทบ@@ 107
v@@ 106
at@@ 105
T 104
อาย@@ 104
พฤ@@ 103
ฑ@@ 103
the 101
ol@@ 100
c@@ 100
el@@ 97
n 97
รวดเร 96
of 96
ริก@@ 95
อำ@@ 95
V@@ 95
์@@ 95
กรณ 95
ศัพท 94
li@@ 94
O 94
เกือ@@ 93
ประหล@@ 93
f@@ 93
ไหร 93
I 93
er 93
ฯ@@ 92
w@@ 91
เปร@@ 91
ษั@@ 90
ำลัง@@ 90
le@@ 90
The 89
g 89
พู@@ 88
l 88
R 88
op@@ 87
รณ 87
สำหร@@ 86
z@@ 86
ic@@ 85
os@@ 85
Ch@@ 84
สรรค 84
กระท@@ 84
es 83
ฐานะ@@ 83
ุร@@ 82
ค.ศ@@ 80
it@@ 80
แอฟ@@ 80
d 79
Y@@ 78
แกร@@ 78
อลล@@ 78
ชีวิ@@ 77
as@@ 77
ou@@ 77
ac@@ 76
TE@@ 76
ha@@ 74
x@@ 74
เมือ@@ 73
co@@ 73
บันท@@ 73
th@@ 71
st@@ 69
ti@@ 67
เภ@@ 67
หัวเรา@@ 65
"( 65
te@@ 64
c 64
​ 63
มาย 62
es@@ 62
เดิ@@ 62
ra@@ 61
ch@@ 61
di@@ 61
il@@ 61
ur@@ 60
ซับ@@ 60
จรร@@ 60
่@@ 60
is 59
ึกว 59
si@@ 59
วิด@@ 59
ap@@ 59
M 59
ir@@ 58
Al@@ 58
ec@@ 57
de 57
ูล 55
B 55
ter 55
de@@ 55
นเคร@@ 55
ve 54
ot@@ 54
am@@ 53
ni@@ 53
บัน 53
mp@@ 53
อาก@@ 53
et@@ 53
รวด@@ 53
as 52
เผชิ@@ 52
; 52
ปรบ@@ 51
ทฤษฎ@@ 51
เดียวก@@ 51
ศึก@@ 50
us 50
ฉ 50
hi@@ 49
ภาว@@ 49
งหม@@ 48
เนิน@@ 48
ให@@ 48
ฎ 48
ความว 48
ca@@ 48
ab@@ 47
vi@@ 47
it 47
ci@@ 47
at 47
ph@@ 47
p 47
อเม@@ 47
ation 47
In@@ 47
ma@@ 46
ค.@@ 46
ควบ@@ 46
?" 46
V 45
Ar@@ 45
ฬ 45
P 45
se@@ 44
lo@@ 44
E 44
Wor@@ 44
ยนแ@@ 44
la@@ 43
and 43
St@@ 43
ตรว@@ 43
X@@ 43
is@@ 42
L 42
Ma@@ 42
tu@@ 42
ือข 42
or 41
per@@ 41
ing 41
ฒ@@ 41
b 41
the@@ 40
..@@ 40
An@@ 40
ea@@ 40
w 39
im@@ 39
le 39
ัพท 39
ปริมา@@ 39
ne@@ 39
qu@@ 39
ะนั 38
te 38
ul@@ 38
ver@@ 37
h 37
ke 37
j@@ 36
ence 36
Re@@ 36
ag@@ 35
un@@ 35
ine 35
เหมา@@ 35
ld 34
)@@ 34
ry 34
our@@ 34
ard 33
el 33
เวณ@@ 33
bi@@ 33
DNA 33
st 33
se 32
ing@@ 32
et 32
ks 32
ฏ 32
sh@@ 32
Goo@@ 32
ter@@ 32
G 32
N 31
be@@ 31
tic 31
&quot;" 31
ce 31
th 30
ge 30
ton 30
ate 30
ad@@ 30
U 30
um@@ 30
ed 30
gle 30
Jo@@ 30
ar 29
Mar@@ 29
son 29
tr@@ 29
ory 29
คณ@@ 29
ds 29
be 29
ck 28
ยวก@@ 28
เทค@@ 28
u 28
H 28
Th@@ 28
sion 28
to@@ 28
0s 28
ia 28
and@@ 27
ly 27
ch 27
W 27
ste@@ 26
um 26
ev@@ 26
les 26
net 26
ภั@@ 26
อะไ@@ 26
man 26
uc@@ 26
low 26
Be@@ 26
he@@ 26
mi@@ 26
are 25
der 25
Z@@ 25
tion 25
con@@ 25
ber@@ 25
pe@@ 24
us@@ 24
me 24
ment 24
au@@ 24
ินต@@ 24
gen@@ 24
ir 24
z 24
ad 24
ลักษ@@ 24
_ 24
New 23
ru@@ 23
ta@@ 23
tive 23
me@@ 23
างวั@@ 23
my 23
ome 23
ay 23
En@@ 23
ational 23
fra@@ 23
ทฤษ@@ 22
cor@@ 22
Con@@ 22
ob@@ 22
ic 22
ound@@ 22
Is@@ 22
mon@@ 22
pre@@ 22
X 22
ประมา@@ 22
r 21
po@@ 21
mo@@ 21
sity 21
cal 21
= 21
รษฐ@@ 21
sy@@ 21
land 21
su@@ 21
&@@ 21
for 21
ong 21
ice 21
logy 21
em@@ 21
ari@@ 21
sp@@ 21
one 21
os 20
oun@@ 20
ve@@ 20
Y 20
ell@@ 20
ed@@ 20
ack 20
to 20
ite 20
ge@@ 20
ke@@ 20
no@@ 20
der@@ 20
ูนย 20
do@@ 20
am 20
oo@@ 19
ho@@ 19
ฌ@@ 19
ity 19
hard 19
ty 19
all 19
lan@@ 19
stitu@@ 19
ech@@ 19
gra@@ 19
ill@@ 18
fe@@ 18
od 18
par@@ 18
ดาล@@ 18
id 18
าสมุ@@ 18
dy 18
ace@@ 18
ary 18
พิวเตอร 18
ali@@ 18
ker 18
ff@@ 18
af@@ 18
ool 17
for@@ 17
ant 17
ill 17
sa@@ 17
Pe@@ 17
pro@@ 17
do 17
+ 17
pp@@ 17
F 17
dia 17
ey 17
Wh@@ 17
มพ 16
hy@@ 16
ther@@ 16
ers 16
ver 16
ger 16
ex@@ 16
ori@@ 16
lob@@ 16
est@@ 16
pl@@ 16
bo@@ 16
ear@@ 16
gh@@ 16
^ 16
ue 15
ent 15
ome@@ 15
book 15
ปดาห 15
ss 15
go 15
อะไรขึ 15
ore 15
anc@@ 15
age 15
ics 15
str@@ 15
ep 15
ance 15
can 15
tic@@ 15
fe 15
ons 15
NA 15
lar 14
ood 14
Q@@ 14
ฤษ@@ 14
ack@@ 14
ze 14
dr@@ 14
sc@@ 14
able 14
gr@@ 14
ist@@ 14
ell 14
ธิป@@ 14
rec@@ 14
fi@@ 14
ฏิ@@ 14
ject 14
super@@ 14
hu@@ 14
ark 14
ur 14
ไ 14
oc@@ 14
# 14
tre@@ 13
York 13
ot 13
wa@@ 13
ster 13
cle 13
gn@@ 13
har@@ 13
cell 13
gi@@ 13
cl@@ 13
ut@@ 13
ran@@ 13
bl@@ 13
key 13
ent@@ 13
cop@@ 13
id@@ 13
elli@@ 13
Au@@ 13
ai@@ 13
min@@ 13
วยอร 13
ํ@@ 13
als 12
ey@@ 12
chan@@ 12
re 12
ws 12
red 12
อัง@@ 12
ding 12
ead 12
ital 12
ans@@ 12
ect 12
rou@@ 12
ros@@ 12
ative 12
yp@@ 12
ree 12
ce@@ 12
ep@@ 12
ust 12
ful 12
int@@ 12
ts 11
tom@@ 11
ans 11
In 11
tion@@ 11
fu@@ 11
we@@ 11
rop@@ 11
ire 11
car@@ 11
ow 11
gu@@ 11
v 11
bio@@ 11
f 11
ograp@@ 11
ms 11
est 11
ber 11
ens 11
tra@@ 11
by 11
use 11
cu@@ 11
U.@@ 11
wi@@ 11
ort 11
คณิต@@ 11
bu@@ 11
ach@@ 11
ble 10
dom 10
fer@@ 10
Q 10
ft 10
inter@@ 10
fish 10
ss@@ 10
ree@@ 10
man@@ 10
ight 10
nd 10
sh 10
ga@@ 10
iz@@ 10
ting 10
ness 10
ach 10
pi@@ 10
ated 10
tiz@@ 10
K 10
acy 10
tri@@ 10
bor@@ 10
of@@ 10
าะห 10
ace 10
cr@@ 10
ser@@ 10
gn 10
day 10
wor@@ 9
ath 9
try 9
ord 9
ture 9
all@@ 9
ape 9
go@@ 9
den 9
ward 9
ning 9
struc@@ 9
pa@@ 9
." 9
วิศ@@ 9
br@@ 9
ฺ@@ 9
ging 9
aw@@ 9
ประดิษ@@ 9
ang@@ 9
art 9
dge 9
mul@@ 9
pr@@ 9
อุต@@ 8
iness 8
ins 8
om 8
ner 8
duc@@ 8
pri@@ 8
eri@@ 8
tle 8
dri@@ 8
ใ 8
dis@@ 8
Nor@@ 8
mu@@ 8
war@@ 8
pol@@ 8
mar@@ 8
ering 8
ban@@ 8
ten@@ 8
sk@@ 8
ฒ 8
enti@@ 8
du@@ 8
not@@ 8
vir@@ 8
ele@@ 8
You 8
แหน 8
ith 8
king 8
ization 8
It 8
sch@@ 8
Inter@@ 8
illi@@ 8
imp@@ 8
ouse 8
ating 8
water 8
ise 7
logical 7
App@@ 7
My 7
โลย@@ 7
lic@@ 7
so@@ 7
inf@@ 7
ys 7
il 7
ties 7
ist 7
que 7
มณ 7
tor 7
fac@@ 7
back 7
anci@@ 7
serv@@ 7
ular 7
our 7
เทคโน@@ 7
sub@@ 7
col@@ 7
ale 7
rea@@ 7
ven@@ 7
ini@@ 7
ves 7
wit@@ 7
wer 7
ัญ 7
time 7
stre@@ 7
cy@@ 7
สามาร@@ 7
row 7
ó@@ 7
mer@@ 7
mat@@ 7
ole 7
tun@@ 7
ind 7
sti@@ 7
One 7
gs 7
top 7
ris@@ 6
up@@ 6
cha@@ 6
ost 6
ron@@ 6
e-@@ 6
ature 6
medi@@ 6
spec@@ 6
$ 6
mem@@ 6
cul@@ 6
ne 6
sive 6
line 6
hon@@ 6
off@@ 6
comp@@ 6
ors 6
bra@@ 6
va@@ 6
att@@ 6
end@@ 6
hel@@ 6
gin@@ 6
ings 6
เ 6
ling 6
allen@@ 6
United 6
dro@@ 6
sic@@ 6
ca 6
stry 6
ff 6
friend 6
ati@@ 6
ery 6
บูรณ 6
ough 6
asy 6
ure 6
American 6
Z 6
pos@@ 6
well 6
ses 6
uni@@ 6
ety 6
ous 6
á@@ 6
very@@ 6
vo@@ 6
than 6
osp@@ 6
her 6
act 6
da@@ 6
fa@@ 6
ei@@ 6
where 6
sted 6
national 6
usi@@ 6
We 6
work 6
tual 6
nat@@ 6
Un@@ 6
per 6
ose 6
elec@@ 6
off 6
ders 5
gre@@ 5
cra@@ 5
out@@ 5
micro@@ 5
cre@@ 5
ase 5
outh 5
tical 5
model 5
eng@@ 5
com@@ 5
emp@@ 5
source 5
science 5
sho@@ 5
dd@@ 5
ther 5
social 5
pla@@ 5
sm@@ 5
enc@@ 5
tions 5
ank 5
bur@@ 5
ices 5
fun@@ 5
ki@@ 5
ters 5
logi@@ 5
pot@@ 5
bro@@ 5
y-@@ 5
els 5
@ 5
ies 5
sta@@ 5
ism 5
ns 5
up 5
ps 5
del 5
ich 5
run@@ 5
eff@@ 5
อลลาร 5
ับสนุ@@ 5
ates 5
cks 5
din@@ 5
fl@@ 5
field 5
star@@ 5
org@@ 5
f-@@ 5
aps 5
cess@@ 5
bri@@ 5
led 5
ort@@ 5
che@@ 5
J 5
ck@@ 5
ving 5
lation 5
gh 5
ater 5
ats 5
ฌ 5
ima@@ 5
lim@@ 5
ast 5
เทคโนโลย@@ 5
ide@@ 5
you 5
system 5
car 5
ney 5
ug@@ 5
por@@ 5
how 5
ssi@@ 4
pu@@ 4
order 4
condi@@ 4
form 4
phot@@ 4
bar@@ 4
den@@ 4
ba@@ 4
Africa 4
black 4
gar@@ 4
und@@ 4
pas@@ 4
Eu@@ 4
out 4
wn 4
view 4
Earth 4
Amer@@ 4
sen@@ 4
old 4
olution 4
ones 4
wh@@ 4
cer@@ 4
mm@@ 4
na@@ 4
mic 4
tation 4
ink 4
ene@@ 4
ดาห 4
air 4
public 4
thin@@ 4
shi@@ 4
grap@@ 4
loo@@ 4
over@@ 4
learning 4
inv@@ 4
war 4
app@@ 4
flo@@ 4
way 4
ols 4
room 4
fir@@ 4
light 4
evi@@ 4
ection 4
city 4
stri@@ 4
kes 4
í@@ 4
her@@ 4
ely 4
val@@ 4
ded 4
~ 4
face 4
sel@@ 4
aper 4
ted 4
ential 4
America 4
é@@ 4
stic 4
ability 4
flu@@ 4
search 4
ิตย 4
being 4
ved 4
gl@@ 4
fo@@ 4
int 4
What 4
very 4
net@@ 4
vel@@ 4
cri@@ 4
cos@@ 4
If 4
trac@@ 4
lar@@ 4
coun@@ 4
d-@@ 4
read@@ 4
cy 4
let 4
gro@@ 4
hor@@ 4
here 4
ten 4
อาท@@ 4
put 4
ght 3
radi@@ 3
tw@@ 3
pic@@ 3
tur@@ 3
ets 3
kill@@ 3
ju@@ 3
dic@@ 3
lit@@ 3
sequ@@ 3
Now 3
list@@ 3
ening 3
tin@@ 3
supp@@ 3
sha@@ 3
him 3
now 3
spe@@ 3
ฺ 3
mis@@ 3
stor@@ 3
engine@@ 3
machine 3
non@@ 3
olec@@ 3
mple 3
cur@@ 3
box 3
tter 3
tal@@ 3
t-@@ 3
&#93@@ 3
;" 3
Yor@@ 3
sts 3
bli@@ 3
Ear@@ 3
squ@@ 3
fri@@ 3
® 3
sol@@ 3
less 3
open 3
wards 3
ned 3
cation 3
ear 3
… 3
des 3
bot@@ 3
over 3
thers 3
ner@@ 3
ple 3
human 3
sist@@ 3
behavi@@ 3
big 3
ote 3
cla@@ 3
mor@@ 3
aff@@ 3
vity 3
works 3
bit 3
trans@@ 3
working 3
ö@@ 3
anti@@ 3
care 3
ship 3
ult 3
cells 3
Eng@@ 3
wer@@ 3
hol@@ 3
self-@@ 3
right 3
q@@ 3
neur@@ 3
under@@ 3
dren 3
prin@@ 3
nam@@ 3
ality 3
my@@ 3
fron@@ 3
ประเท@@ 3
point 3
action 3
ew 3
bed 3
high 3
fied 3
any@@ 3
ective 3
are@@ 3
ize 3
word 3
™ 3
gy 3
equ@@ 3
sur@@ 3
sound 3
ury 3
ked 3
read 3
was@@ 3
share 3
pres@@ 3
é 3
ments 3
viron@@ 3
mes@@ 3
ges 3
good 3
ls 3
sit@@ 3
wr@@ 3
ese 3
anal@@ 3
cir@@ 3
its 3
op 3
house 3
ฃ 2
inst@@ 2
saw 2
pt 2
ç@@ 2
ici@@ 2
ird 2
gets 2
world 2
fic 2
People 2
talk 2
shar@@ 2
won 2
twe@@ 2
ess@@ 2
olu@@ 2
cal@@ 2
– 2
tici@@ 2
ate@@ 2
with 2
dre@@ 2
augh@@ 2
middle 2
dep@@ 2
prof@@ 2
nor@@ 2
dise@@ 2
ases 2
dra@@ 2
more 2
get 2
fin@@ 2
even 2
No 2
your 2
gir@@ 2
kers 2
no 2
bers 2
mach@@ 2
uring 2
pat@@ 2
ghts 2
dent 2
tim@@ 2
any 2
thy 2
ching 2
yourself 2
lea@@ 2
three 2
cate 2
power 2
ll 2
tics 2
reality 2
data 2
lot 2
อนาค@@ 2
doc@@ 2
โมเล@@ 2
phy@@ 2
first 2
cen@@ 2
ending 2
cho@@ 2
whe@@ 2
elling 2
plan@@ 2
ots 2
ere 2
lish 2
ined 2
ining 2
will 2
ound 2
sed 2
ces 2
acc@@ 2
tional 2
walk 2
onal 2
soci@@ 2
each 2
oper@@ 2
connec@@ 2
สำค@@ 2
wan@@ 2
tran@@ 2
ition 2
cess 2
í 2
inst 2
ours 2
can@@ 2
had 2
problem 2
econom@@ 2
if 2
oti@@ 2
มนุษ@@ 2
solu@@ 2
there 2
so 2
men@@ 2
country 2
this 2
sul@@ 2
lon@@ 2
ut 2
duce 2
ince 2
usic 2
ould 2
All 2
res 2
ized 2
unch 2
tures 2
energy 2
mic@@ 2
ปัจจุ@@ 2
cept 2
ying 2
other 2
econ@@ 2
ations 2
tech@@ 2
language 2
conf@@ 2
music 2
natural 2
some@@ 2
mind 2
speci@@ 2
cep@@ 2
ã@@ 2
ama@@ 2
* 2
esp@@ 2
tis@@ 2
bility 2
"B@@ 2
ü@@ 2
พิว@@ 2
med 2
nec@@ 2
archit@@ 2
anything 2
And 1
wed 1
fiel@@ 1
​@@ 1
second 1
mal 1
say 1
vely 1
contin@@ 1
ental 1
\ 1
company 1
oce@@ 1
hear@@ 1
exp@@ 1
cated 1
vari@@ 1
front 1
future 1
companies 1
technology 1
last 1
great 1
sign@@ 1
♫@@ 1
space 1
fil@@ 1
utes 1
แ 1
That 1
life 1
jo@@ 1
£ 1
ordin@@ 1
heart 1
thous@@ 1
we 1
regi@@ 1
mil@@ 1
ths 1
ou 1
wal@@ 1
sible 1
char@@ 1
opp@@ 1
² 1
ready 1
far 1
illion 1
ish 1
respon@@ 1
form@@ 1
run 1
gether 1
long 1
ybe 1
ดนตร@@ 1
climate 1
change 1
contro@@ 1
green 1
ally 1
thing 1
move@@ 1
gener@@ 1
fel@@ 1
&apos;@@ 1
experience 1
compu@@ 1
based 1
political 1
reli@@ 1
reas@@ 1
going 1
conver@@ 1
heal@@ 1
"M@@ 1
ants 1
why 1
ous@@ 1
direc@@ 1
course 1
cent@@ 1
tain@@ 1
research 1
disease 1
pers@@ 1
physi@@ 1
prot@@ 1
scienti@@ 1
So 1
that 1
forma@@ 1
syste@@ 1
formation 1
Chin@@ 1
test 1
è@@ 1
into 1
ines 1
global 1
j 1
Well 1
desi@@ 1
inc@@ 1
using 1
dec@@ 1
differ@@ 1
knowle@@ 1
—@@ 1
jects 1
left 1
about 1
ells 1
matter 1
he 1
night 1
difference 1
gine 1
rom 1
vern@@ 1
wat@@ 1
mark@@ 1
ideas 1
sting 1
ged 1
sli@@ 1
clim@@ 1
tty 1
thinking 1
¥ 1
not 1
dol@@ 1
ago 1
identi@@ 1
cou@@ 1
tain 1
ess 1
head 1
hop@@ 1
cap@@ 1
dies 1
zing 1
environ@@ 1
far@@ 1
mal@@ 1
from 1
dat@@ 1
progra@@ 1
sing 1
side 1
They 1
real 1
scale 1
common 1
power@@ 1
electri@@ 1
recogn@@ 1
name 1
deca@@ 1
fore@@ 1
happy 1
ener@@ 1
show 1
love 1
come 1
buil@@ 1
sure 1
end 1
dru@@ 1
down 1
extre@@ 1
things 1
takes 1
dence 1
tly 1
comple@@ 1
arch@@ 1
ฅ@@ 1
wee@@ 1
fic@@ 1
!@@ 1
¿ 1
bly 1
ited 1
deli@@ 1
ๅ 1
%@@ 1
news 1
iting 1
igh@@ 1
publi@@ 1
tru@@ 1
mous 1
How 1
mean 1
live 1
media 1
ประดิ@@ 1
ì 1
couple 1
aga@@ 1
diff@@ 1
learned 1
help@@ 1
body 1
poli@@ 1
provi@@ 1
govern@@ 1
market 1
cancer 1
nex@@ 1
ected 1
story 1
member 1
see 1
grou@@ 1
hal@@ 1
ways 1
liter@@ 1
ssed 1
rest 1
mental 1
father 1
universe 1
rela@@ 1
smar@@ 1
project 1
kin@@ 1
ched 1
ฑ 1
born 1
year@@ 1
ues 1
ild 1
Here 1
Let 1
allo@@ 1
challen@@ 1
‘ 1
’ 1
edu@@ 1
pati@@ 1
looking 1
tors 1
ground 1
photograp@@ 1
table 1
uses 1
kno@@ 1
business 1
colle@@ 1
ents 1
fore 1
tting 1
eci@@ 1
ased 1
inno@@ 1
don 1
ext 1
systems 1
appro@@ 1
cour@@ 1
ฃ@@ 1
ulation 1
num@@ 1
lost 1
kly 1
ends 1
vel 1
real@@ 1
