,
.
."
the
να
to
a
of
και
το
and
&quot;
that
in
είναι
I
που
is
η
it
you
&apos;s
we
τα
ο
για
την
από
με
του
σε
this
ή
της
ένα
θα
—
αυτό
on
ότι
τη
was
οι
δεν
ed
are
τους
στο
τ@@
μ@@
for
ι@@
κ@@
α
)
es
μια
have
αν@@
τον
δ@@
π@@
σ@@
ες
:
an
e@@
μου
m@@
ing
they
γ@@
αν
χ@@
re@@
d@@
ρ@@
with
s@@
ο@@
p@@
in@@
ν@@
b@@
ική
can
at
"And
ει
λ@@
(
μας
what
as
ία
στην
&apos;t
-@@
be
φ@@
τις
έ@@
β@@
θ@@
And
about
f@@
t@@
i@@
ά
all
"@@
ικό
or
h@@
;
ά@@
των
one
g@@
στ@@
ω@@
ές
o@@
ό
ί@@
ουν
not
ε@@
ήταν
a@@
&apos;
n@@
ό@@
st@@
l@@
α@@
c@@
al
do
an@@
my
ια
ικά
s
r@@
ω
y
there
&apos;re
ους
en@@
Και
ουμε
?
πολύ
S@@
like
ερ@@
e
Μ@@
u@@
δι@@
from
people
ε
our
σας
so
me
υ@@
εξ@@
ar@@
but
ξ@@
ac@@
αρ@@
on@@
άν@@
just
προ@@
απ@@
"Και
li@@
ή@@
η@@
ων
επ@@
very
ώ@@
de@@
er@@
αλλά
out
w@@
όταν
στη
M@@
ας
εις
al@@
v@@
ύ@@
ών
ι
ρο@@
ιο
"So
ης
εν@@
ασ@@
us
di@@
t
by
ος
πως
Σ@@
ατ@@
y@@
τι
αλ@@
αυτή
if
these
ου@@
νο@@
ly
he
le@@
ής
them
Κ@@
απο@@
ακ@@
up
more
Π@@
παρ@@
αφ@@
or@@
ιστ@@
going
it@@
το@@
συν@@
er
It
know
ation
when
τρ@@
ει@@
had
ts
ro@@
έχει
at@@
ευ@@
άλ@@
C@@
ικ@@
were
tion
ίας
ri@@
as@@
because
εύ@@
μα
see
ate
their
αγ@@
ελ@@
άσ@@
think
ζ@@
ετε
con@@
So
how
ισ@@
ent
εί
get
ού@@
σαν
who
ως
μία
un@@
πο@@
k@@
B@@
ικές
αυτά
P@@
your
Α@@
would
ers
D@@
ση
ίες
which
κρ@@
A@@
πιο
m
ψ@@
time
στον
ti@@
ιν@@
πλ@@
ντ@@
really
άρ@@
αμε
εκ@@
κατ@@
vi@@
δο@@
όρ@@
τι@@
here
ορ@@
στα
&apos;ve
o
ός
way
αστ@@
«
k
&apos;m
We
n
κάτι
has
en
επι@@
where
then
μπ@@
1@@
actually
world
T@@
Ε@@
»
Τ@@
ex@@
αμ@@
el@@
se@@
don
some
"I
?"
προσ@@
υπ@@
ρι@@
th@@
όπως
λο@@
The
into
έχουν
years
os@@
ώ
om@@
ετ@@
will
now
d
ar
ra@@
ί
ad@@
μόνο
z@@
εδώ
sp@@
εται
Laughter
ity
ting
other
things
ου
έχουμε
μετ@@
είς
αί@@
πρέπει
go
χρόνια
είτε
sh@@
could
σκ@@
αι@@
me@@
able
μο@@
βρ@@
ένας
want
ιά
μπορεί
G@@
εία
em@@
make
per@@
ν
been
Η
ητ@@
λη@@
ma@@
am@@
ally
"But
Είναι
h
έλ@@
H@@
us@@
ικής
ch@@
αρχ@@
Δεν
κι
Το
lo@@
Αυτό
;"
δε@@
κο@@
ap@@
λογ@@
♫
ec@@
su@@
right
"(
εια
But
ς
ότητα
F@@
qu@@
es@@
O@@
τη@@
said
p
περ@@
ματα
ol@@
Ν@@
ρα
ul@@
Γέλια
op@@
N@@
E@@
ab@@
il@@
mo@@
έρ@@
ter@@
ur@@
Γ@@
than
ούν
ματ@@
l
μά@@
κόσμο
εφ@@
ιο@@
εί@@
something
κλ@@
much
ήσεις
si@@
no
στις
ds
ag@@
ous
ούμε
τ
ωρ@@
2@@
first
W@@
μέσα
L@@
de
ot@@
ήσουμε
έν@@
pro@@
thing
im@@
ήσει
αδ@@
χρησιμοποι@@
λοιπόν
πράγματα
έναν
έτσι
ic@@
age
those
two
σα
σι@@
also
"It
par@@
work
ποι@@
όν@@
αντ@@
άνθρωποι
for@@
R@@
This
ηση
καθ@@
εσ@@
"Now
κάθε
καλ@@
υπο@@
γραφ@@
little
ks
ou@@
όλα
est
th
ve
she
I@@
back
ice
her
"The
look
δημιουργ@@
only
κάνει
όσ@@
ίν@@
τόσο
got
γιατί
χρ@@
x@@
υπάρχει
αβ@@
tr@@
J@@
δύο
over
"We
ated
αυτές
You
ted
πώς
most
his
co@@
fi@@
.@@
te@@
τώρα
life
even
κάνουμε
many
day
ne@@
μένα
"Π@@
πι@@
ώς
say
Αλλά
ter
ci@@
um@@
le
need
περι@@
ίσ@@
its
pre@@
to@@
επειδή
μπορούμε
ic
tra@@
ine
ence
σου
Β@@
take
sc@@
ικών
Δ@@
did
Applause
-
str@@
εργ@@
πρ@@
Ο@@
"Σ@@
κά@@
lot
19@@
μα@@
end
They
mar@@
new
όχι
"Έτσι
ηγ@@
εκεί
Λ@@
δρ@@
ding
"Α@@
όλ@@
πραγματικά
αλλ@@
μένο
άς
bo@@
be@@
μετά
ωση
se
kind
"Μ@@
come
"Ε@@
pl@@
tions
αξ@@
ιτ@@
around
"In
τρόπο
κιν@@
gi@@
λ
όπου
έφ@@
i
we@@
j@@
good
Χειροκρότημα
εγ@@
sa@@
cl@@
κτ@@
et
ύ
ολ@@
every
red
ήματα
μένη
is@@
through
use
τε
οποίο
ού
ονται
είχε
ανθρώπους
πολ@@
εμ@@
g
έσ@@
king
fe@@
"Αλλά
ver@@
αζ@@
hi@@
ήρ@@
ant
bi@@
different
συ@@
same
άγ@@
am
car@@
πάνω
x
3@@
θε@@
ved
ance
ents
ον@@
ζωή
down
υν@@
gre@@
That
Ο
κάνουν
ίζει
being
υγ@@
πριν
c
έκ@@
5@@
br@@
ies
αση
μη@@
"Το
K@@
Θα
&apos;ll
ite
ons
ha@@
Έ@@
10
οποία
ob@@
"Η
ωτ@@
μέ@@
pe@@
Φ@@
ir@@
ful
What
ge
ical
st
ary
ήσω
όμως
doing
στους
αθ@@
sion
ect
Ό@@
any
put
ating
Χ@@
αντι@@
ακόμα
τσ@@
called
γεν@@
στη@@
inter@@
ημ@@
lic@@
έψ@@
sts
όλοι
Ι@@
ill@@
οντας
ans
λέ@@
πραγματικότητα
τυ@@
"
αυ@@
ations
ων@@
τύ@@
ty
Ά@@
είο
νος
tic
όμ@@
άξ@@
υπάρχουν
κατά
κ
!
ch
wor@@
κολ@@
"Αυτό
own
έπ@@
ms
παιδιά
"A@@
λού@@
επίσης
ph@@
ke@@
θη@@
κου@@
ever
απ
la@@
tri@@
&apos;d
ικού
όλο
ώστε
ties
old
percent
au@@
fa@@
μαζί
gu@@
ίδια
συμ@@
όσο
ta@@
A
and@@
αχ@@
ded
μη
ρού@@
three
ενός
μαι
po@@
"This
ρί@@
απλά
ving
ύν@@
50
made
pres@@
ώντας
ιλ@@
ves
4@@
ύρ@@
bu@@
ment
σης
"You
the@@
als
human
cre@@
πάρ@@
τες
χρόνο
προς
00
ειδ@@
ον
φορά
tell
ψη
bl@@
ών@@
5
τότε
enti@@
well
πολλά
σήμερα
body
tive
ατε
χαρ@@
year
είμαι
let
com@@
id
why
Οι
στρ@@
καν@@
μπορούν
Y@@
ws
ev@@
today
der
φτ@@
ήσουν
used
ανο@@
sur@@
fin@@
ose
άζ@@
ρ
λι@@
Thank
find
"S@@
cho@@
inv@@
ιδέα
ni@@
ver
άλλο
περίπου
όμαστε
idea
tu@@
ad
ικός
fact
ποτέ
ερ
ιστορία
dis@@
λος
change
ημα
ούς
ess@@
υ
didn
μέρος
w
"If
πά@@
ίζουν
προσπαθ@@
Ρ@@
εντ@@
do@@
started
είμαστε
our@@
tre@@
περισσότερο
υτ@@
rec@@
άζει
"Τ@@
pri@@
talk
V@@
τος
uc@@
Έτσι
κα
έχω
gh@@
άσεις
σχ@@
ings
ps
min@@
σο@@
θυ@@
μον@@
θεί
great
είπε
b
so@@
μελ@@
ικοί
ακτ@@
0@@
low
μπορείτε
ίδιο
μιλ@@
ce
μή@@
παν@@
oc@@
υσ@@
"O@@
πίσω
gen@@
ίζ@@
άδ@@
μέρα
σ
ικούς
ότ@@
ked
There
κοινων@@
αυτούς
ent@@
sho@@
ge@@
έχ@@
no@@
story
after
sol@@
ay
ble
wing
νου
παράδειγμα
cr@@
ig@@
άει
2
ηθ@@
άσει
άμε
μό
should
άβ@@
went
tic@@
κάνω
τού@@
before
μι@@
fl@@
big
course
ing@@
4
αντί@@
ke
νται
"Αν
δε
μ
pr@@
ίσως
ters
ατο@@
he@@
φέρ@@
wr@@
still
better
him
ning
less
στιγμή
"They
νού@@
never
might
ρος
περί@@
εάν
πάντα
last
μπο@@
δυνατ@@
φων@@
7@@
ago
έβ@@
λίγο
όν
important
εβ@@
πρό@@
φορές
wi@@
φορ@@
comp@@
"Είναι
came
γι
&quot;"
γκ@@
together
εγώ
πρόβλημα
ίδα
cor@@
μο
ροφ@@
υλ@@
άμ@@
give
ηλ@@
ten@@
χτ@@
place
system
σχεδι@@
oun@@
ely
ors
does
8
ήγ@@
part
off
δείτε
thought
problem
il
μέχρι
νομ@@
cri@@
bit
He
res@@
λόγ@@
6@@
wh@@
απλ@@
τρο@@
20
γράφ@@
ιακ@@
another
next
πτ@@
gr@@
τερ@@
women
brain
3
δικ@@
μή
ακού@@
τί@@
θρ@@
συμβαίνει
ξη
βι@@
ακόμη
βγ@@
σκεφτ@@
ast
που@@
βασ@@
άλλ@@
each
few
ιών
Τζ@@
"Ο
αναπ@@
ματος
Τι
found
wa@@
μέν@@
εθ@@
ικαν@@
ώσει
δουλειά
"Well
start
man
θέ@@
tly
καν
λοι
ying
30
είδ@@
...
είται
πω
νέ@@
είν@@
φαντ@@
σύστημα
μηχαν@@
fac@@
dic@@
exp@@
comm@@
data
ακριβώς
all@@
Now
ali@@
κάποια
ευτ@@
9
ώσεις
είχαν
άφ@@
9@@
ue
πρώτη
ργ@@
"Τώρα
eff@@
πο
"Δεν
χωρίς
"Κ@@
γον@@
between
θετ@@
des@@
γραμ@@
show
ins
ut@@
again
μερ@@
πατ@@
μένες
ουλ@@
sy@@
ρούμε
ευχαριστώ
ίσουμε
έρα
έπρεπε
είχα
children
man@@
"Ό@@
act
technology
δυν@@
ιζ@@
est@@
καρ@@
ισμό
Ήταν
ήσαμε
καλά
re
νονται
νέα
example
ste@@
εισ@@
"Όταν
αυτο@@
ass@@
αρκετά
υρ@@
φρ@@
ήμουν
σύν@@
try
ru@@
πί@@
too
μην
id@@
εκτ@@
using
gra@@
ταξ@@
φυσ@@
20@@
Σας
6
πρόσ@@
αυτός
Αυτή
question
wanted
συνεχ@@
r
ure
looking
λέγ@@
έχετε
ger
ξεκιν@@
cap@@
κάτω
"M@@
ality
αυτού
ain
άθ@@
αναλ@@
καθώς
ness
information
ory
άζουν
point
γνωρ@@
ven
200@@
αίνουν
κύ@@
ay@@
der@@
ότητες
mon@@
έγ@@
ησης
ειρ@@
μένοι
How
7
πηγ@@
ost
gener@@
στε
spe@@
sort
φτι@@
οποί@@
σημαίνει
όγ@@
away
μένος
done
understand
mean
διαφορετ@@
αυτ@@
uni@@
μεγάλη
αγορ@@
πιθαν@@
λα
doesn
ear@@
ίσει
les
water
Th@@
χωρ@@
ίου
αία
χρον@@
πράγμα
may
ότητας
έδ@@
μεταξύ
&#91;
long
ates
ati@@
live
λύ@@
pa@@
ισα
ιδι@@
♪
Γιατί
βλ@@
Τα
,"
person
&#93;
πολλές
ach
ore
produc@@
ημερ@@
έλεγ@@
.000
γυναίκες
Εί@@
ασία
βαθ@@
real
ησε
άλλη
love
ement
σπίτι
όλες
σημ@@
go@@
ce@@
light
οργαν@@
εμπ@@
line
1
believe
U@@
ήθελα
γίνει
ζωής
κρατ@@
μεγάλ@@
κοιν@@
"Για
μός
λέει
always
ser@@
θηκε
δούμε
mat@@
βολ@@
ome
συγ@@
sk@@
πετ@@
enc@@
βλέπετε
ist@@
οδ@@
any@@
plan@@
ίζουμε
oo@@
φύ@@
book
εχ@@
face
τελ@@
int@@
παί@@
f
πάν@@
μακ@@
Wh@@
άκ@@
μιας
εκατομμύρια
μπορείς
χο@@
θέλω
"Έ@@
άλλα
εων
πήγ@@
βοηθ@@
ass
νομίζω
million
Έχ@@
um
ther@@
αυτόν
"Δ@@
school
σημαντ@@
pic@@
είας
θε
por@@
Αμερ@@
el
δια@@
means
μπορούσε
οδηγ@@
σημαντικό
call
αίν@@
ζω@@
Μπορ@@
εταιρ@@
δίν@@
prot@@
όλη
γίνεται
took
τυχ@@
γι@@
"When
ερα
μικρ@@
ληρ@@
Ch@@
αίνει
αρκ@@
%
ήσετε
"Οι
τον@@
ίζεται
times
bre@@
8@@
φω@@
αριθ@@
έκανε
ειας
κανείς
form
φυλ@@
working
κυ@@
χή
TED
ίκ@@
διαφ@@
ici@@
trans@@
τεχνολογία
room
anc@@
power
,000
hum@@
Ή@@
κα@@
μπορώ
eng@@
πολιτ@@
μού
ry
ution
ones
ακολουθ@@
cu@@
sig@@
υπερ@@
βλέπ@@
πραγματ@@
res
ίδ@@
sub@@
ative
βαρ@@
νοι
"Th@@
wal@@
country
ώσ@@
μορφ@@
θέλ@@
sup@@
είσαι
δυ@@
παλ@@
et@@
είδος
ood
βιο@@
ang@@
λειτουργ@@
whole
four
θερ@@
gro@@
μάθ@@
coll@@
ep@@
διακ@@
ουσι@@
ύπ@@
από@@
gs
ήσ@@
δήποτε
ουρ@@
create
trying
βο@@
αίο
comes
χειρ@@
έξω
cur@@
"T@@
άσουμε
έντ@@
ase
παι@@
lim@@
χρει@@
feel
ειες
e-@@
ιού
άν
λίγ@@
άχ@@
εκατό
λο
star@@
off@@
δεδομένα
ell@@
help
όμενο
ard
land
home
maybe
ently
ask
ανθρώπιν@@
everything
ight
become
κοιτ@@
λοκ@@
expl@@
θαν@@
καταστ@@
ήν@@
οικονομ@@
όλους
thinking
πρόκειται
συμβ@@
λά
άπ@@
ill
dri@@
πρώ@@
ώσουμε
χο
read
"Θα
gg@@
develop@@
col@@
val@@
ther
σχετικά
ιος
κάποιο
βάλ@@
υφ@@
fol@@
logi@@
προσωπ@@
bor@@
χρειάζεται
loc@@
money
δημο@@
εν
αυτήν
ήξ@@
επαν@@
μεγάλο
ασκ@@
sec@@
ευθ@@
S
ust
γύρω
λί@@
number
sing
ώνει
lives
"Εί@@
ζή@@
ics
έ
making
μές
κό@@
wat@@
possible
ίων
πρω@@
second
iting
app@@
πόσο
χώρα
Let
ands
Well
ong
πρώτο
wed
100
tal@@
συστ@@
social
ιμ@@
άρχ@@
τηρ@@
ξέρετε
best
γρ@@
mis@@
ρο
Πρ@@
πέ@@
end@@
mor@@
πιστεύω
self
διαβ@@
design
συγκεκρι@@
εγκέφαλ@@
εικόνα
ήριο
διά@@
άστ@@
ζητ@@
ωμα
son
μέσ@@
είρ@@
small
γλ@@
15
κυρ@@
fu@@
μό@@
παίρν@@
μισ@@
έχεις
φιλ@@
κάποιος
future
σύ@@
μεν@@
enough
tiv@@
γνώ@@
τρόπος
τεχνολογ@@
καταλάβ@@
dge
food
"There
"That
σχεδόν
εδ@@
dre@@
αιτ@@
κόσμος
ίζω
pi@@
ίλ@@
εντρ@@
qui@@
left
happened
sense
ess
ήλ@@
ell
"He
har@@
μάτων
Υ@@
ιδ@@
set
ηματ@@
νε@@
ath
ηρ@@
μικρό
υμ@@
παγκόσ@@
quite
respon@@
saw
ak
getting
τούν
άξουμε
form@@
θηκαν
ποί@@
φαν@@
μοι@@
talking
ώσω
beg@@
θέμα
κακ@@
θεωρ@@
Here
ir
επιλογ@@
ital
κι@@
kids
αύ@@
περισσότερα
μαθη@@
hard
φόρ@@
τηση
ways
μερικές
realiz@@
iz@@
θεση
κομμάτι
εμάς
ομαι
πιστεύ@@
ήμα
ϊ@@
"Γ@@
high@@
μυ@@
τια
πό
living
cer@@
είες
dec@@
εαυτό
ot
led
φυσικά
είστε
φαίνεται
art
ανθρώπων
Κά@@
κάνεις
onal
χν@@
αιν@@
ack
interesting
tor
side
sit@@
επιχειρ@@
έμ@@
βλέπουμε
told
war@@
Υπάρχουν
"E@@
οποι@@
ices
ia
av@@
ύψ@@
φι@@
In@@
νύ@@
wee@@
όδ@@
σει
καμ@@
επιτρ@@
ff@@
οπτ@@
δουλεύ@@
without
care
mag@@
struc@@
ήκαμε
ικο@@
τοις
up@@
υση
συγκ@@
jo@@
ιατρ@@
ίδι
κατασκευ@@
ene@@
"Β@@
tur@@
mem@@
across
κορ@@
men
five
ese
υχ@@
ously
ght
δί@@
τοπ@@
πόλ@@
No
tics
suc@@
cont@@
though
experience
bro@@
space
αστικά
ισμός
pretty
ran@@
lin@@
imag@@
ται
ιπ@@
ωσης
αγγ@@
είχαμε
Πώς
fic
άκι
τέλος
te
coun@@
μπορ@@
αίσ@@
ner
Υπάρχει
νερό
καινο@@
ην
ped
ύς
ομάδα
scienti@@
makes
πλέον
αζόμαστε
sure
coming
bot@@
hand
τές
καλό
συμπ@@
ουσ@@
ah
cells
asked
ξέρ@@
κεφ@@
New
ber@@
ίκτυο
άση
Αν@@
"Έχ@@
ήματος
νι@@
σεις
such
sen@@
ηλικ@@
case
seen
ship
countries
όσα
cen@@
"Λοιπόν
ain@@
μερικά
μαθ@@
Why
μόλις
θούν
τελευταία
comple@@
γίν@@
else
Πολ@@
παγ@@
έξ@@
science
Τώρα
πιστ@@
ητό
ατα
ote
άω
σημείο
family
ism
rop@@
ward
δεκαετ@@
διαδ@@
σκέφ@@
παιχν@@
happens
όμε@@
dd@@
tical
ace
ster
οί
ειν@@
αυτοί
λένε
phys@@
days
δεύτερ@@
ίως
pos@@
simple
els
ld
young
απλώς
stre@@
νες
υψ@@
speci@@
energy
cul@@
anything
οικογέν@@
"Πρ@@
νοντας
half
car
tw@@
play
ξε
μετρ@@
συλ@@
περιο@@
ability
words
city
Δι@@
says
μέλλον
μος
moment
ζ
,@@
αστικό
char@@
ences
στηκε
att@@
dra@@
single
poli@@
ίζονται
happen
τέτο@@
αποτελ@@
ols
ned
imp@@
Ας
τημα
μοιρ@@
ically
κες
mind
δευτ@@
building
κάποιον
ικότητα
ασίας
play@@
ve@@
τίποτα
νό@@
cam@@
40
"Οπότε
ίδι@@
ολόκ@@
stri@@
chang@@
ωσε
ήθηκε
καλύτερα
παρα@@
ψηφ@@
ηθεί
Πο@@
probably
νευ@@
αισθ@@
ca@@
nor@@
du@@
"What
Επ@@
are@@
εμείς
having
ασε
acy
όκ@@
αντιμετωπ@@
ιση
bas@@
hel@@
ξανά
ental
σώμα
είπ@@
evol@@
ture
sm@@
ούτε
ωπ@@
ίδες
γκ
ανακ@@
learn
π
ώρα
δύσκολο
τρεις
ις
wn
move
χώρες
10@@
είπα
ματικά
ταν
health
Κο@@
δείξω
ker
θεσ@@
Πρέπει
gir@@
Μπ@@
τρία
over@@
μέρ@@
οπο@@
ωστ@@
ότερα
"B@@
Ναι
ροσ@@
μού@@
per
ειδή
process
ome@@
Κι
head
τέσσ@@
almost
έα
κάνετε
connec@@
later
χάρ@@
organiz@@
ήμ@@
ling
παράγ@@
picture
ected
sum@@
tures
παιδί
μούς
συνεργ@@
works
όμουν
Αυτ@@
"F@@
θέση
ber
while
sim@@
ens
δική
εκείν@@
"Στην
duc@@
επικ@@
tional
σπ@@
ari@@
ήκ@@
δες
δηλ@@
serv@@
lar@@
οικο@@
πληροφορ@@
αιρ@@
εσαι
γν@@
ψε
οικονο@@
tion@@
ώνουν
έζ@@
Να
εγκεφ@@
έγινε
τηγ@@
vol@@
doc@@
fore@@
ιν
μαζ@@
aff@@
επιστ@@
fe
Μπο@@
δοκι@@
ments
ited
sive
ισμού
τρα
rel@@
Ω@@
μέσω
ank
άνε
κίν@@
Earth
computer
εφτ@@
bad
ερευν@@
γε@@
ντ
φίλ@@
direc@@
looked
top
με@@
ωτερ@@
ατο
υπολογιστ@@
des
60
build
ευρ@@
ελπ@@
άδες
cle@@
ώματα
αρμο@@
ς@@
κάν@@
arti@@
disco@@
billion
λόγος
reason
οδο
τού
tru@@
sh
σκοτ@@
κόσμου
turn
ects
inside
προστ@@
ασθεν@@
εσάς
ενδιαφέρον
order
ow
goes
αγρ@@
prin@@
άζουμε
μικ@@
ην@@
υπηρ@@
stuff
σουμε
όμορφ@@
ήρια
ήδη
γυναίκα
ερο@@
progra@@
κύτταρα
ghts
διδ@@
bers
αλήθεια
συμπερι@@
έκανα
τέλ@@
υπήρχε
history
dr@@
"Αυτή
δεύ@@
αυτοκίνη@@
ησα
sed
cess
mother
ave
answer
συνδ@@
μένου
άτομα
United
ισκ@@
government
myself
άλλους
σχέση
An@@
vo@@
anding
far
matter
yet
ily
dep@@
ili@@
ses
both
χα
συχνά
προβλήματα
music
ετά
deci@@
dollars
sions
remember
πρωτ@@
μπορούσαμε
high
public
αγαπ@@
cha@@
τρί@@
"Κι
όχ@@
εργαλ@@
nothing
τεράστ@@
Α
δικό
fil@@
cra@@
πληροφορίες
stor@@
chall@@
often
ότερο
πάθ@@
saying
ρον@@
μέρες
ιου
ουσία
αλλαγή
Ευχαριστώ
ori@@
άρι
ασφαλ@@
amazing
αφέρ@@
πόλη
action
όντ@@
μενο
Οπότε
whether
ακή
αστείτε
"Τα
80
ket
μεγ@@
εθν@@
ριζ@@
ερν@@
ίγ@@
aliz@@
inc@@
καταλ@@
ξέρω
έρχεται
ought
όβ@@
ώρ@@
πέντε
δύναμη
ξαν@@
exc@@
wrong
pati@@
cep@@
child
ele@@
ερώτηση
είδους
ven@@
ενέργεια
άλλον
εκείνη
fun@@
word
ately
εύω
Ζ@@
guy
os
DNA
κάπως
γρήγορα
αφορά
ότερ@@
"Φ@@
ach@@
αυτών
ξεκίνη@@
ages
within
σφ@@
κάποι@@
ed@@
ίζετε
άξει
global
shi@@
κομ@@
ery
fam@@
ίσω
ape
υκ@@
conf@@
μαστε
vel@@
χές
ns
her@@
πού
μαν@@
αξιο@@
άλλες
ασα
ναι
χορ@@
τεχν@@
ασης
ησ@@
καλύτερ@@
πάλι
"For
hund@@
μενα
ρου
πολλοί
ασμό
κλη@@
basically
ick@@
dies
διαδικασία
problems
συνειδητο@@
looks
U.@@
ick
χώρο
αισθη@@
αίρ@@
typ@@
clu@@
friends
stu@@
materi@@
She
planet
true
πάρα
αναγν@@
mil@@
ειλ@@
piece
out@@
άρια
ined
video
σαμε
oper@@
wit@@
"As
ιω@@
πάει
Βρ@@
ίσουν
βί@@
ίνα
σχολ@@
incredi@@
διαφορετικά
emp@@
ise
St@@
fre@@
dle
tici@@
desig@@
"Σε
άτες
ησαν
ούσε
έργ@@
ενώ
tim@@
Εδώ
ταχ@@
keep
επτ@@
μικρο@@
κάποιες
open
contin@@
τοι@@
Ξ@@
πλανήτη
δεξ@@
heard
μένων
society
already
ξεχ@@
μπορούσα
bly
once
imagine
τροφ@@
επίπεδο
logy
igh@@
pain@@
Θε@@
ering
αυξ@@
εστε
ξ
τούμε
οφ@@
μέλ@@
"I@@
στοιχ@@
ep
νταν
project
θηκα
ομιλ@@
oti@@
beautiful
ερωτ@@
someone
12
όνο
lead@@
δει
χιλιάδες
μασταν
education
ut
μεγαλύτερ@@
ισε
States
acc@@
"C@@
ist
βρίσκ@@
τελικά
Ντ@@
αγωγ@@
Νομίζω
ort
οι@@
έπει
μέρη
"Με
ίσαμε
εστ@@
hope
ανάμεσα
"Because
αλλαγ@@
θεραπ@@
φο@@
flo@@
ous@@
φωτογραφία
συνήθ@@
ματική
level
βιβλ@@
σελ@@
αποκαλ@@
ft
issu@@
ρούν
πορ@@
ίσεις
ases
exactly
δυο
vir@@
βίντεο
εξελ@@
ανακαλ@@
δείξ@@
Mus@@
happening
τητα
night
species
χέρι
bio@@
περισσότερ@@
My
woman
port
ήθ@@
ατρ@@
ούνται
βελ@@
άσουν
σύγ@@
dom
κε
ounds
business
"Αυτ@@
cop@@
άσω
0s
not@@
community
ετικά
περιβάλλον
mid@@
εξηγ@@
τρι@@
nature
under@@
εκπαίδε@@
ideas
σωστ@@
ast@@
India
εμφαν@@
D
Θέλω
allo@@
underst@@
σίγου@@
fra@@
created
αρέσει
μπροστά
κλί@@
ented
ive
ars
ώσουν
ενεργ@@
dev@@
spec@@
χημ@@
duce
πυρ@@
aw@@
group
εση
σπουδ@@
V
Because
learned
μένως
ανά
λει@@
stitu@@
λέω
fully
βιβλίο
απάντηση
"L@@
εζ@@
study
posi@@
καρκ@@
pers@@
αρχή
εποχή
job
κατάσταση
sti@@
συντ@@
months
φωτογραφ@@
six
fic@@
against
"&quot;
ψυχ@@
wasn
σχολείο
until
χρό@@
όμεν@@
stories
Africa
wonder@@
τησε
τελευτ@@
ls
βρίσκεται
taking
power@@
bring
ult
υπέρο@@
ενθ@@
af@@
ικτ@@
gets
σταθ@@
περίπτωση
since
view
Pe@@
εξαιρ@@
σταματ@@
ping
τησα
ces
παραγωγ@@
incre@@
μάτια
ful@@
individu@@
ential
όνη
ευτυχ@@
ορισ@@
τοπο@@
control
dig@@
ξης
ion
μεγαλύτερο
λου
ss
λες
επικοιν@@
έτ@@
ten
στι@@
ξει
win@@
θέλουμε
ots
σχετ@@
bri@@
"Μπορ@@
κοινό
εύει
πότε
phone
decided
μαγ@@
became
αδή
τερα
κοσ@@
K
προκαλ@@
news
Ar@@
must
διάρκεια
δω@@
solu@@
αίσθηση
μοντέλ@@
εργαστ@@
name
experim@@
κατανο@@
επιτυχ@@
jects
everyone
tors
research
ple
επί@@
ρωτ@@
viol@@
άζονται
αποτέλεσμα
cancer
έρχ@@
ιμο
στόχ@@
osp@@
couple
μικρή
αυτής
under
ective
shed
σσ@@
hear
κίνη@@
γεγονός
ήθελ@@
υψηλ@@
completely
cess@@
μάζ@@
κη
ουσα
ur
παθ@@
clos@@
γράμ@@
house
These
consi@@
ark
κοντά
μιλήσω
σωστά
νόμ@@
kers
prof@@
loo@@
ωθεί
γυρ@@
αγων@@
isn
λιγότερο
έτες
cat@@
ανθρώ@@
table
appe@@
large
demo@@
ημο@@
άνει
άξη
μοι
M
τηκα
λε@@
stop
tation
τέ@@
kinds
Είμαι
χρήματα
εβδομάδ@@
ale
πος
tle
στοιχεία
μεγαλύτερη
διά
"Εάν
Re@@
πέρ@@
αναρ@@
μουσική
σύμπ@@
πια
ton
μεγαλ@@
απάν@@
ching
ζουν
ογ@@
καταλαβ@@
λέξη
itself
ject
σκέψ@@
ourselves
Αν
καλύτερο
ματι
απολ@@
συμβεί
ish
Με
περιοχή
ινή
"H@@
φί@@
everybody
περισσότεροι
μουσ@@
μητέρα
Η@@
ular
hy@@
hours
λάθος
huge
some@@
ξεκ@@
state
bra@@
logical
provi@@
ind
μυαλό
worked
ace@@
αληθ@@
ουργ@@
tran@@
νέο
σία
knew
inst@@
ys
language
ιδιαί@@
bir@@
tun@@
μήνες
πληρ@@
ules
καιρό
χρειάζ@@
ειτα
έντρο
built
tual
Θ@@
students
καταφέρ@@
ines
Αρ@@
βά@@
ree
δικαι@@
cle
σημασία
παρακ@@
διο
κο
είδη
μπορούσαν
Internet
πρότ@@
rather
ελέγ@@
Ένα
έσεις
ples
βάση
κάναμε
τέτοιο
ματο@@
questions
dru@@
αργότερα
cir@@
One
sometimes
u
μει@@
particular
sli@@
Google
καλή
πάμε
κερ@@
places
thre@@
έκαναν
άτων
’
περισσότερες
ποιος
ασχ@@
πλα
ιστορ@@
heart
ool
λογία
πόρ@@
ήρα
ll
techno@@
ευση
che@@
αντί
φυτ@@
δύσ@@
εμπειρία
νευρ@@
πήρ@@
adv@@
κοιτάξ@@
bed
τί
11
uses
others
τρόπους
national
ήχ@@
sound
εκατο@@
elling
ιδέες
ets
χαμ@@
themselves
νιώθ@@
pu@@
arly
reli@@
Al@@
ηματο@@
αλλάξει
σειρά
front
wer
έξι
cept
αναπτύ@@
ώρες
ωθ@@
stra@@
αζε
βασικά
πληθυσ@@
disease
αντικεί@@
turns
share
"Επ@@
Is@@
ίδρ@@
έρας
Ξέρ@@
ονομάζεται
Αυτός
διατ@@
mi@@
ched
υπόλο@@
learning
run
ake
ord
tom@@
πρώτα
kno@@
appro@@
πεθ@@
δολάρια
century
behavi@@
changed
αρρ@@
ουν@@
ιό
ant@@
χώρ@@
δρόμο
past
δυσ@@
ground
επιστήμ@@
hor@@
America
ισχυρ@@
σκέφτο@@
συνέχεια
ξέρουμε
στρατ@@
ονταν
έστ@@
φως
προϊ@@
πειρ@@
teach@@
λό@@
ection
pol@@
interest@@
universe
ανό
γνωστ@@
least
"N@@
ple@@
κορί@@
fish
αμβάν@@
συσκευ@@
net@@
illions
ανάγ@@
equ@@
self-@@
λέπ@@
foc@@
πλήρ@@
ey
Παρ@@
Ηνω@@
90
ιστορίες
αϊ@@
ότητ@@
mov@@
έρο@@
gl@@
οργ@@
ads
vered
company
όνια
αρι@@
becom@@
γενν@@
αινε
thousands
αλληλ@@
καλλιτ@@
κοινωνία
meas@@
ωνία
όλου
ερε
υμα
York
nam@@
ΗΠΑ
American
outh
νας
fund@@
Ινδία
anci@@
εκπληκτ@@
opport@@
ροπ@@
Ίσως
άτε
εντελώς
ouldn
entire
assion
Έχουμε
Εντάξει
σκοπ@@
ιες
διαθ@@
παρά@@
machine
gave
διάφορ@@
outside
οντ@@
animals
Για
key
τέχν@@
μακρ@@
amoun@@
βρή@@
ju@@
aper
αιώνα
λούν
men@@
γνωρίζουμε
ual
row
)"
ώνεται
electr@@
Eu@@
ris@@
όλων
Μουσ@@
sil@@
μαστ@@
άτομο
25
war
yp@@
fiel@@
70
0,000
άντρ@@
όνες
along
on-@@
δείχνει
instead
Όχι
ποια
happy
παραδ@@
natural
πόλεις
conver@@
πολλ@@
China
pul@@
vari@@
structure
έφτ@@
tain@@
τραγ@@
ink
test
ινο@@
ομάδ@@
ιπτ@@
mic@@
environment
Αφρική
τό@@
φύση
ακα
communic@@
sible
άλι
Ξέρετε
σώ@@
jour@@
patter@@
ide@@
cities
γράψ@@
eyes
arch@@
όντως
πόδ@@
Gre@@
θέσ@@
άχν@@
κυβ@@
όνο@@
"D@@
διαφορά
shar@@
κατάλ@@
οστ@@
συνέβη
άτ@@
σκο@@
ινό
"Ά@@
πρόσφ@@
πλευρά
δελ@@
ordin@@
bar@@
ιγ@@
elec@@
όρια
ening
πει
ενδιαφέρ@@
see@@
μοί
God
γαλ@@
won
ner@@
ατού@@
model
tually
game
βαση
εικόνες
ext
λογική
grap@@
bab@@
επιστήμη
sel@@
turned
pot@@
λευ@@
dent
"Κά@@
difference
μακριά
πολλούς
known
ροτ@@
νούν
cell
taken
ακό
beli@@
δρα@@
culture
πράγ@@
far@@
ανάπτυξη
ούσαν
διότι
δημόσ@@
εσε
φαγ@@
kay
ώπ@@
Λοιπόν
liter@@
άλου
C
dience
επιστημον@@
ey@@
ποίηση
ga@@
somebody
fer@@
sor@@
εύουν
seeing
oce@@
kill@@
dro@@
ροι
wards
air@@
lots
φτιάχν@@
Ιν@@
εκτός
"A
ail@@
bac@@
father
οποίες
γί@@
ech@@
ator
γλώσσα
έσει
dy
couldn
σωματ@@
ύλ@@
Στ@@
economic
needed
assi@@
ντας
ανθρωπ@@
κάλ@@
ζωντ@@
sequ@@
difficult
επιστήμον@@
έδει@@
παρουσι@@
ινά
ki@@
rest
early
ισχύ@@
behind
ώνες
lig@@
takes
Αυ@@
"W@@
είου
Con@@
ats
ues
πολιτισ@@
τρό@@
θημα
ιστο@@
εξέλ@@
black
mul@@
ωκε@@
έθ@@
cy@@
εγγ@@
άντα
υπό@@
list@@
t-@@
λαμβάν@@
φοιτη@@
έρευνα
θέλουν
Ευρ@@
αίνουμε
άσταση
έρθ@@
διαχ@@
πούμε
αρκετ@@
num@@
given
versity
ither
pt
bility
ποτε
απίστευτ@@
ισμούς
μακα
mess@@
άνθρωπος
ησι@@
photograp@@
friend
P
θέλετε
βιομηχαν@@
tin@@
μοιάζει
ζώα
χέρια
longer
kes
tou@@
ΐ@@
spi@@
γρα@@
μετακ@@
διο@@
compan@@
στηρ@@
indu@@
απο
αποφάσ@@
maj@@
ρυθ@@
mus@@
ήστε
αντικ@@
chan@@
know@@
χη
ho@@
ητές
καταν@@
"Wh@@
διπλ@@
δεδομένων
ταινία
repres@@
νικά
αρπ@@
thy
ψα
ίο
ze
18@@
parents
εικο@@
αριστερ@@
Χρ@@
δη
μάτι@@
έργο
ωσα
θέσεις
tis@@
image
θυμ@@
ature
scale
felt
"One
feel@@
σκην@@
φάρ@@
neur@@
στα@@
figure
ανακάλ@@
If
innov@@
ήσεων
ρα@@
άζεται
Χρει@@
επο@@
Καν@@
grand@@
ελευθερ@@
υπολογιστή
σύνη
Αγ@@
engine@@
καταπ@@
ομ@@
νωρ@@
σες
finally
dist@@
διαλ@@
perhaps
based
ισαν
αστική
ευκαιρία
bur@@
άξεις
books
περιλ@@
scre@@
σύμ@@
y-@@
sted
πουλ@@
δισεκατομμύρια
political
"Όμως
θαλ@@
ανησυχ@@
είλ@@
νοώ
free
ich
close
είσ@@
cal@@
ώνουμε
παρατηρ@@
third
All
παρά
λόγο
reas@@
resi@@
ύχ@@
χα@@
εκεί@@
consci@@
μετατρ@@
Σε
compu@@
easy
πα@@
Le@@
ατολ@@
μά
growth
κόκ@@
stry
size
minutes
χώ@@
unch
αποτελεσ@@
κυβέρνηση
recog@@
χρήση
ση@@
regi@@
T
ηλεκτ@@
άζω
media
τοί
σχέδιο
λοντ@@
local
τηλε@@
πολιτική
επηρε@@
prac@@
στημα
posed
Γη
λειτουργεί
population
καλύτερη
needs
beginning
τηλ@@
ετών
colle@@
επόμενη
ζει
αστεί
μικρά
θηση
sha@@
ότερη
μών
cannot
tice
ηλεκτρ@@
καθαρ@@
abor@@
τελει@@
μουν
μορφή
επιφάν@@
possi@@
μέγ@@
τως
απαντ@@
ric@@
ιστεί
πρόγραμμα
εμά@@
κλι@@
βαλ@@
In
ize
ρομπότ
ίσης
otion
gar@@
certain
ετρ@@
guys
surpri@@
systems
εκτικά
εμένα
αποφασ@@
φοβ@@
λέξεις
τομα
bacter@@
τηκε
ανοι@@
what@@
διαφορετικές
λεπτά
tem@@
ενέργ@@
χής
air
πίν@@
simply
ποι
during
year@@
ικανο@@
fo@@
Γου@@
αια
μένους
άκρ@@
economy
νεύ@@
ater
trac@@
ίρ@@
ming
ουλάχιστον
medi@@
βρίσκονται
ποσο@@
δημοκρατ@@
verage
ιστές
πεδ@@
έας
άνω
run@@
Right
ασμα
εστι@@
ειρο@@
civi@@
ταρ@@
Okay
ook
έξυπ@@
ήμερα
Eng@@
relation@@
αμα
τσι
ational
τισ@@
ere
every@@
διαδικ@@
nec@@
od
δώ
πλη@@
poin@@
read@@
Ή
υπήρχ@@
αγν@@
δία
ασθ@@
ύτερ@@
ople
ye@@
δεί@@
ωματ@@
στιγ@@
ητο@@
ερώ@@
ειά
wer@@
ασφ@@
μως
συνέβ@@
heal@@
!@@
ems
αφορ@@
Z@@
αισ@@
αποφ@@
O
vers@@
eci@@
δρόμ@@
tain
exam@@
κόσ@@
illi@@
partic@@
ονομάζ@@
θ
tely
/
αι
αμβ@@
ώνα
hear@@
om
ότε
happ@@
soci@@
λέξ@@
κολο
ήθεια
βλέ@@
wan@@
experi@@
organ@@
iness
oss
όνα
eri@@
και@@
ans@@
stud@@
ound
κομμά@@
άνθρω@@
ίστ@@
ζώ@@
μπορού@@
δύ@@
γυν@@
ιατί
υπολογ@@
thr@@
δος
ανα
νερ@@
ells
παιδ@@
όμα
Θέλ@@
econom@@
ause
eas@@
pop@@
εικ@@
Ε
φάν@@
ken
δισ@@
κει@@
ποτ@@
πους
εκατομμύρ@@
άψ@@
lear@@
μητ@@
τω
anim@@
lan@@
vel
Υπ@@
hop@@
differ@@
ακριβ@@
δή@@
δολ@@
λιγότερ@@
΄
Μ
πραγ@@
op
δουλ@@
lon@@
R
απίστ@@
δείχν@@
my@@
z
fr@@
grou@@
ends
ιατ@@
άνθρ@@
ord@@
000
thers
Γέλ@@
λεπτ@@
γμα
Σ
εμπειρ@@
χιλι@@
bus@@
org@@
φ
όμενη
very@@
ρυ@@
χι
..@@
πού@@
rst
too@@
publi@@
mom@@
tech@@
είχ@@
ενδιαφέρο@@
mer@@
B
ισσ@@
ile
Π
χαριστ@@
TE@@
Ί@@
fore
dol@@
stem
can@@
βλη@@
ονο@@
contro@@
ταιν@@
ϋ@@
plac@@
buil@@
ίνη@@
ograp@@
επίπεδ@@
ole
ys@@
ths
ρν@@
Ap@@
ready
sear@@
socie@@
G
ψη@@
ably
secon@@
ευν@@
Κ
sch@@
ough
govern@@
mach@@
aughter
E
προβλ@@
εκατομμ@@
ϊ
βλέπου@@
whe@@
Americ@@
Q@@
ότη@@
und@@
of@@
Un@@
ama@@
ince
zing
environ@@
κύτταρ@@
άρκ@@
μερα
piec@@
import@@
fri@@
gh
exper@@
σχεδ@@
έρν@@
call@@
Αφρ@@
γέν@@
ωγ@@
πρεπε
Chin@@
διαφορ@@
thous@@
»@@
δημι@@
ould
χρή@@
ισχ@@
minut@@
κάποιο@@
κε@@
X@@
educ@@
ίς
έχν@@
μορ@@
sing@@
ays
verse
mation
aps
uring
augh@@
dia
ine@@
άχιστ@@
ανθρ@@
φωτο@@
Afric@@
phot@@
ural
υπήρ@@
ανάπτυ@@
won@@
σπί@@
rom
cent@@
ινε
gy
ντε@@
lob@@
thin@@
νω@@
εγκ@@
πλευρ@@
ulation
ησιμοποι@@
resear@@
γύρ@@
eve
αίνεται
κάπο@@
ακολου@@
ouse
econ@@
devel@@
Τ
tter
δεδο@@
hu@@
infor@@
L
dat@@
πολι@@
cou@@
lit@@
pat@@
ησιμο@@
γραμμα
net
βρίσκο@@
γεγον@@
cour@@
ours
resp@@
όμη
divi@@
λον
ντάξει
dise@@
En@@
stead
was@@
beau@@
kin@@
δημ@@
ίκτυ@@
H
$
καιρ@@
β
ευκαιρ@@
Ω
πλανή@@
Χειρο@@
ντεο
ird
N
γλώσ@@
ame
όλις
αντιμετ@@
·
chil@@
άμεσα
&apos;@@
κοντ@@
δομάδ@@
relati@@
quot@@
fel@@
εδι@@
tting
γρήγορ@@
μηχ@@
ply
μοντ@@
περιβάλ@@
συνέχ@@
glob@@
ιλι@@
λάθ@@
χ
ury
boo@@
μμ@@
άμε@@
δείχ@@
fron@@
ατό
log@@
ασκευ@@
Ψ@@
συχν@@
cog@@
ώθ@@
δύναμ@@
βιβλί@@
Γ
ff
nee@@
Β
hal@@
remem@@
cent
nd
αριστ@@
ίγου@@
ληλ@@
πλαν@@
Ι
υπάρχ@@
επε
πρόκει@@
τεχ@@
thou@@
illion
ήν
nat@@
q
F
fig@@
σχέ@@
ριά
κυβέρν@@
dn
twe@@
vide@@
ility
ne
πλέ@@
πληκτ@@
μυαλ@@
ener@@
J
επιστή@@
σειρ@@
youn@@
pub@@
δύν@@
άδει@@
♫@@
ενδιαφ@@
Ευ@@
έρευ@@
μεταξ@@
W
Yor@@
συχ@@
κρότημα
langu@@
ησυχ@@
συνειδ@@
0
haps
έντε
ιδέ@@
πληθ@@
Χ
έκαν@@
v
&@@
Ρ
Inter@@
ϋ
ακρι@@
ποτα
γυναί@@
prob@@
ew
X
νολογ@@
dren
vern@@
NA
f-@@
tries
επηρ@@
επικο@@
Ύ@@
εκρι@@
=
sci@@
ques@@
Υ
Y
παράδει@@
Ώ@@
:@@
diff@@
é@@
port@@
ισσότερ@@
é
Ό
παίδε@@
acr@@
inno@@
άτο@@
–
πτωση
inning
Λο@@
U
ancer
tty
μάδ@@
stems
μπροστ@@
Ear@@
τουργ@@
may@@
diffic@@
beauti@@
ένε
δ
Νομ@@
εκτρ@@
ou
+
Ν
Q
Λ
^
til
αποτέλ@@
στοι@@
proble@@
del
uch
—@@
“
σκευ@@
έσσ@@
ελώς
―
q@@
ανάπ@@
á@@
¨
them@@
selves
ημον@@
έφαλ@@
‘
with@@
Z
χέρ@@
bec@@
beh@@
commun@@
fric@@
ima@@
Goog@@
”
λιτ@@
φοι@@
è@@
Δ
ΐ
γρήγ@@
gether
Φ
γ
Goo@@
wom@@
​
άρκεια
ροφορ@@
βλί@@
♪@@
@
esn
κύτ@@
μπό@@
viron@@
Ζ
actly
εσμα
´
som@@
᾽
·
δεκα@@
χαριστώ
−
grow@@
μέχρ@@
beha@@
ó@@
tween
γότερ@@
ã@@
πουδ@@
plause
κρότη@@
í@@
meric@@
apos@@
&#93@@
#
ainst
ö@@
άνθρωπο@@
βρίσ@@
λλά
βλημα
ΗΠ@@
ñ@@
ó
μπότ
Ϊ@@
εγον@@
nex@@
σως
j
dollar@@
´
ç@@
dividu@@
…
è
á
˙
·@@

”@@
πολλο@@
µ@@
อ@@
£
ουλάχιστ@@
Θ
ü@@
*
¾
ø@@
Υπάρχ@@
;
Ἐ@@
่
°
ร
ΰ@@
à
ā@@
happen@@
%@@
ä@@
γότερα
ï@@
ě@@
ἀ@@
Ψ
ψ
ī@@
ὀ@@
²
∇
ανθρώπ@@
΅
{
ακολ@@
Ϊ
Ἠ
Ξ
ῦ
ย
û@@
ë@@
ευθερ@@
ē
Å@@
Ç@@
ê@@
€
ย@@
Č@@
¨@@
™
î@@
Ί
∙
¼
ύ@@
$@@
º@@
©
š@@
•
®
―@@
&#@@
Ἀ@@
ὐ
–@@
ù
ī
ἐ@@
ἰ@@

῾@@
ὀ
½
ï
