, 114589
the 75511
. 50858
." 50232
to 47815
a 45137
of 44872
and 41103
that 34665
in 30311
I 28884
is 26018
it 24217
&quot; 23722
you 23409
&apos;s 21692
we 21173
this 15857
on 12580
was 12235
ed 11849
are 11684
for 11122
es 10505
have 10369
an 9999
they 9852
m@@ 9852
ing 9826
e@@ 9780
re@@ 9402
with 9314
d@@ 9275
s@@ 9112
can 8947
p@@ 8896
in@@ 8878
b@@ 8856
at 8847
"And 8843
what 8495
as 8459
— 8440
&apos;t 8391
be 8182
And 8058
about 8045
f@@ 7999
t@@ 7844
all 7827
or 7716
h@@ 7504
i@@ 7477
one 7438
g@@ 7256
not 7051
o@@ 6910
a@@ 6775
n@@ 6732
st@@ 6725
do 6661
al 6636
c@@ 6636
my 6624
l@@ 6581
an@@ 6574
there 6415
&apos;re 6381
s 6357
r@@ 6346
y 6341
en@@ 6224
-@@ 6181
like 6075
? 6072
from 5926
e 5924
people 5898
our 5746
u@@ 5726
so 5709
me 5660
S@@ 5395
ar@@ 5345
but 5328
) 5321
ac@@ 5249
just 5237
on@@ 5202
li@@ 5104
very 5033
de@@ 4982
out 4947
er@@ 4919
: 4916
w@@ 4878
"So 4783
v@@ 4782
al@@ 4767
by 4697
us 4690
di@@ 4682
t 4610
if 4606
these 4593
ly 4511
y@@ 4503
he 4483
them 4450
le@@ 4429
more 4376
up 4365
M@@ 4282
going 4249
know 4216
It 4214
when 4205
ation 4196
or@@ 4184
er 4170
it@@ 4169
( 4166
had 4126
ts 4105
were 4048
ro@@ 4038
tion 4034
at@@ 4007
because 3985
ri@@ 3981
as@@ 3974
see 3960
ate 3936
their 3934
think 3901
So 3874
con@@ 3872
how 3865
ent 3832
get 3793
who 3765
un@@ 3679
your 3670
would 3661
ers 3633
which 3621
time 3572
C@@ 3559
k@@ 3553
m 3516
ti@@ 3511
really 3483
here 3434
vi@@ 3431
&apos;ve 3418
way 3381
&apos;m 3353
We 3336
B@@ 3325
k 3297
has 3260
n 3259
D@@ 3223
where 3218
then 3209
actually 3204
world 3189
en 3181
A@@ 3151
ex@@ 3126
o 3122
P@@ 3111
se@@ 3088
don 3081
some 3071
"I 3068
el@@ 3056
?" 3038
th@@ 2997
into 2990
years 2978
The 2957
will 2914
now 2905
os@@ 2897
d 2853
om@@ 2852
ar 2839
ra@@ 2838
sp@@ 2815
Laughter 2812
ad@@ 2810
ting 2794
other 2793
things 2779
ity 2774
z@@ 2773
"@@ 2711
could 2687
go 2681
able 2679
sh@@ 2670
me@@ 2667
want 2653
T@@ 2626
make 2619
been 2615
em@@ 2607
per@@ 2601
ally 2574
"But 2572
us@@ 2532
am@@ 2528
ma@@ 2519
h 2518
ch@@ 2487
su@@ 2478
right 2477
But 2470
lo@@ 2458
ap@@ 2452
ec@@ 2452
said 2447
qu@@ 2441
es@@ 2412
p 2403
G@@ 2384
mo@@ 2367
ul@@ 2367
than 2366
op@@ 2359
ter@@ 2347
ab@@ 2345
something 2336
much 2331
ol@@ 2326
ur@@ 2322
no 2320
ous 2309
si@@ 2309
ds 2306
l 2297
il@@ 2293
first 2284
ag@@ 2282
thing 2269
pro@@ 2268
H@@ 2263
de 2246
ot@@ 2224
those 2209
age 2207
two 2203
also 2192
"It 2186
im@@ 2185
par@@ 2176
work 2174
O@@ 2166
ic@@ 2162
for@@ 2141
This 2133
N@@ 2133
"Now 2126
little 2099
F@@ 2082
E@@ 2075
ks 2069
est 2067
th 2064
she 2064
back 2063
her 2054
ice 2050
"The 2047
W@@ 2045
ve 2044
look 2043
only 2036
L@@ 2022
got 2012
over 1992
ou@@ 1991
"We 1990
ated 1979
tr@@ 1968
ted 1968
You 1967
most 1957
his 1956
even 1941
many 1939
fi@@ 1938
life 1938
day 1931
x@@ 1928
te@@ 1917
say 1915
co@@ 1912
ne@@ 1911
need 1875
ci@@ 1874
J@@ 1871
um@@ 1865
pre@@ 1864
its 1857
le 1856
tra@@ 1855
ic 1852
R@@ 1841
take 1840
to@@ 1839
ence 1836
ine 1834
did 1821
sc@@ 1811
Applause 1811
str@@ 1775
lot 1774
end 1772
They 1765
new 1764
ter 1750
mar@@ 1747
ding 1746
kind 1720
come 1718
be@@ 1716
se 1715
bo@@ 1712
tions 1711
pl@@ 1696
around 1687
"In 1686
gi@@ 1668
good 1644
we@@ 1642
sa@@ 1635
cl@@ 1629
every 1629
I@@ 1626
j@@ 1623
through 1621
red 1620
is@@ 1608
use 1605
et 1594
fe@@ 1574
different 1573
ant 1569
king 1568
same 1567
1@@ 1563
bi@@ 1561
ver@@ 1558
car@@ 1551
ved 1546
ents 1543
ance 1541
am 1541
down 1539
gre@@ 1537
That 1535
g 1532
hi@@ 1530
being 1523
br@@ 1496
i 1496
ies 1493
&apos;ll 1483
ons 1475
ite 1474
c 1463
ha@@ 1459
x 1456
ob@@ 1455
ful 1446
What 1441
st 1433
ical 1433
ge 1430
ary 1429
doing 1425
sion 1419
ect 1415
ir@@ 1415
any 1415
put 1414
ating 1411
pe@@ 1408
called 1406
inter@@ 1398
sts 1393
lic@@ 1377
ans 1372
ations 1369
ill@@ 1369
; 1368
ty 1361
tic 1350
K@@ 1346
wor@@ 1344
own 1343
ch 1334
ms 1332
"( 1326
ke@@ 1318
ph@@ 1317
ever 1314
la@@ 1313
"A@@ 1312
tri@@ 1311
&apos;d 1311
ties 1302
percent 1302
♫ 1299
fa@@ 1298
old 1298
au@@ 1293
ded 1284
gu@@ 1281
ta@@ 1275
and@@ 1271
three 1267
"This 1261
ving 1259
made 1257
po@@ 1253
pres@@ 1252
ves 1249
ment 1243
"You 1243
human 1241
als 1241
cre@@ 1238
bu@@ 1238
tell 1233
the@@ 1230
bl@@ 1221
well 1216
body 1214
enti@@ 1214
tive 1211
year 1211
let 1208
why 1206
today 1199
com@@ 1199
ev@@ 1193
used 1191
ose 1188
der 1187
sur@@ 1187
fin@@ 1186
Thank 1186
ws 1185
find 1185
id 1183
cho@@ 1181
"S@@ 1180
inv@@ 1178
idea 1177
ver 1170
fact 1170
ni@@ 1162
dis@@ 1161
change 1159
ad 1150
didn 1149
ess@@ 1147
"If 1139
tu@@ 1137
2@@ 1131
started 1129
w 1120
pri@@ 1117
our@@ 1117
rec@@ 1117
talk 1115
tre@@ 1108
do@@ 1104
ings 1104
great 1103
A 1102
gh@@ 1101
ps 1100
uc@@ 1099
min@@ 1098
so@@ 1093
low 1092
Y@@ 1085
"O@@ 1080
ce 1079
There 1075
ked 1074
b 1073
gen@@ 1069
sho@@ 1067
ent@@ 1066
oc@@ 1062
after 1060
story 1060
sol@@ 1058
wing 1057
no@@ 1055
should 1048
ge@@ 1048
cr@@ 1047
ble 1045
went 1042
ig@@ 1037
before 1037
big 1035
fl@@ 1035
course 1034
tic@@ 1028
pr@@ 1026
ay 1025
still 1021
ters 1021
him 1020
better 1020
ning 1019
wr@@ 1018
less 1018
"They 1017
never 1015
might 1015
ing@@ 1015
he@@ 1013
last 1010
ago 1007
important 1005
comp@@ 1003
came 1001
together 998
ke 998
V@@ 994
wi@@ 994
give 991
ten@@ 988
place 988
system 986
cor@@ 985
ely 983
ors 982
does 982
part 977
off 975
problem 974
thought 974
oun@@ 973
He 967
bit 966
wh@@ 965
cri@@ 964
res@@ 961
another 959
next 957
women 954
gr@@ 953
brain 950
few 939
found 936
wa@@ 936
ast 935
each 934
19@@ 933
"Well 929
start 929
ying 927
tly 926
man 921
fac@@ 912
il 912
exp@@ 911
comm@@ 909
Now 907
dic@@ 906
data 906
ali@@ 899
eff@@ 898
ue 897
all@@ 893
between 892
show 889
again 889
ins 888
des@@ 886
sy@@ 886
technology 880
children 880
act 879
man@@ 878
ut@@ 877
example 873
est@@ 869
ste@@ 865
try 862
too 860
using 859
ru@@ 857
ass@@ 856
re 853
gra@@ 852
question 849
wanted 848
looking 847
&apos; 845
id@@ 843
ality 842
ain 840
information 838
ger 836
ure 835
point 835
cap@@ 834
ness 834
ory 832
ven 830
How 829
der@@ 827
gener@@ 827
spe@@ 826
sort 826
mon@@ 825
"M@@ 822
away 822
understand 820
mean 820
done 819
uni@@ 819
ost 818
3@@ 816
doesn 814
ay@@ 811
water 809
r 807
5@@ 804
may 802
ear@@ 802
long 797
les 797
ates 796
live 795
ati@@ 793
Th@@ 793
person 789
pa@@ 788
produc@@ 787
real 780
ach 780
ement 777
love 777
10 774
ore 772
light 772
believe 771
ce@@ 767
go@@ 766
always 763
mat@@ 762
line 758
any@@ 757
ome 757
ser@@ 756
enc@@ 755
plan@@ 754
sk@@ 752
ist@@ 750
int@@ 749
face 747
.@@ 745
million 741
oo@@ 740
school 738
ther@@ 736
f 736
means 735
call 733
por@@ 732
prot@@ 730
took 729
Wh@@ 729
"When 727
ass 724
um 723
times 722
bre@@ 720
form 717
working 716
trans@@ 715
ici@@ 713
room 712
anc@@ 710
pic@@ 709
power 709
hum@@ 709
el 708
eng@@ 707
ution 707
sig@@ 705
res 703
cu@@ 703
sub@@ 702
"Th@@ 700
country 699
ones 698
sup@@ 698
ative 696
ry 696
wal@@ 694
four 694
whole 694
gro@@ 693
coll@@ 692
trying 686
create 686
comes 685
ood 685
gs 685
ang@@ 684
cur@@ 684
Ch@@ 683
&quot;" 682
ase 682
lim@@ 680
et@@ 680
feel 678
ep@@ 678
star@@ 671
help 671
home 670
ently 669
ask 669
maybe 669
everything 668
become 668
off@@ 667
expl@@ 666
ell@@ 665
thinking 663
U@@ 663
ard 661
ight 661
read 659
land 659
develop@@ 657
dri@@ 657
val@@ 656
"T@@ 656
ther 654
,000 654
e-@@ 654
gg@@ 653
fol@@ 653
ill 653
logi@@ 652
money 651
col@@ 651
bor@@ 650
loc@@ 649
sec@@ 648
ust 645
number 645
sing 643
lives 642
making 641
book 638
second 637
possible 637
iting 636
Let 635
ands 635
Well 634
wed 633
app@@ 633
social 632
wat@@ 631
tal@@ 630
ong 629
best 628
mis@@ 628
4@@ 627
ics 626
self 626
mor@@ 625
design 619
small 618
future 616
enough 615
"There 613
tiv@@ 613
"That 613
food 613
end@@ 612
00 612
dge 611
fu@@ 609
left 609
happened 608
ess 608
sense 608
dre@@ 607
"He 607
pi@@ 606
qui@@ 605
ath 604
quite 603
respon@@ 603
set 602
saw 602
har@@ 601
getting 601
talking 599
50 599
form@@ 598
beg@@ 598
son 597
kids 596
Here 596
! 594
ways 593
hard 592
ak 592
realiz@@ 592
ital 590
ell 590
cer@@ 587
iz@@ 587
living 587
high@@ 587
dec@@ 585
led 585
onal 582
ir 582
interesting 581
sit@@ 579
told 579
tor 579
side 577
ices 577
war@@ 577
care 573
without 573
struc@@ 572
art 572
wee@@ 571
mag@@ 571
ack 570
ot 569
"E@@ 569
av@@ 568
across 568
ia 568
mem@@ 568
ese 567
five 567
ene@@ 567
men 567
jo@@ 566
ght 565
ously 565
up@@ 564
tur@@ 564
cont@@ 563
suc@@ 563
though 563
No 562
experience 562
ff@@ 561
pretty 560
space 560
imag@@ 559
lin@@ 558
tics 556
bro@@ 556
coun@@ 554
ped 554
fic 554
scienti@@ 553
coming 552
makes 552
sure 552
ner 551
hand 551
bot@@ 550
asked 550
cells 550
ah 549
7@@ 548
such 547
sen@@ 547
countries 546
seen 546
case 546
ship 545
Why 545
te 544
comple@@ 544
cen@@ 544
else 543
science 542
family 540
ain@@ 540
ism 540
ote 539
happens 539
ward 538
tical 538
ran@@ 536
phys@@ 536
days 536
simple 535
stre@@ 534
dd@@ 534
young 534
rop@@ 534
pos@@ 534
speci@@ 533
In@@ 532
anything 532
energy 532
els 531
half 531
ber@@ 530
ability 528
tw@@ 528
says 528
words 528
play 527
ace 526
city 526
cul@@ 526
moment 526
ences 525
car 525
happen 524
dra@@ 524
single 524
ld 524
poli@@ 523
ster 523
ols 523
att@@ 523
ned 523
char@@ 522
imp@@ 521
ically 521
mind 521
building 520
New 518
cam@@ 517
5 516
stri@@ 516
probably 513
"What 512
play@@ 511
having 511
nor@@ 511
are@@ 511
ve@@ 511
chang@@ 510
6@@ 510
acy 509
ental 509
sm@@ 509
bas@@ 509
move 508
learn 508
ca@@ 508
evol@@ 508
hel@@ 508
wn 507
health 506
gir@@ 503
du@@ 503
ture 503
process 501
connec@@ 501
almost 501
later 500
organiz@@ 500
over@@ 500
head 500
picture 499
ected 499
sum@@ 499
tures 498
ling 497
ome@@ 496
works 495
ber 495
while 495
sim@@ 495
"F@@ 495
per 494
tional 493
ari@@ 493
duc@@ 493
serv@@ 492
"B@@ 491
lar@@ 491
tion@@ 491
fore@@ 489
vol@@ 489
doc@@ 489
ker 488
aff@@ 488
ments 487
ited 487
rel@@ 485
computer 485
bad 484
sive 484
direc@@ 483
9@@ 483
looked 483
20 482
top 482
ens 482
build 481
fe 481
cle@@ 480
disco@@ 479
reason 478
tru@@ 478
billion 478
ank 478
inside 477
turn 477
ects 477
arti@@ 476
goes 475
order 475
sh 474
stuff 474
prin@@ 473
progra@@ 472
bers 471
des 471
history 470
ghts 470
0@@ 470
sed 469
cess 469
mother 469
answer 469
ow 468
Earth 468
2 467
government 467
ave 467
United 467
myself 467
far 466
matter 466
dr@@ 466
ily 465
anding 465
yet 465
vo@@ 465
both 464
ses 464
music 464
remember 463
dollars 463
deci@@ 463
sions 463
ili@@ 463
public 462
cha@@ 462
high 462
8 461
nothing 461
fil@@ 460
4 460
often 459
saying 459
chall@@ 459
amazing 458
cra@@ 457
action 457
whether 457
stor@@ 457
ori@@ 456
ket 456
inc@@ 455
aliz@@ 455
ought 454
dep@@ 453
cep@@ 452
wrong 452
exc@@ 452
child 451
ately 449
ven@@ 449
word 449
guy 449
pati@@ 449
fun@@ 448
within 447
ages 447
20@@ 447
global 446
ele@@ 446
30 446
fam@@ 445
conf@@ 444
shi@@ 444
vel@@ 444
ns 443
os 443
ach@@ 442
hund@@ 441
"For 441
&#91; 440
An@@ 440
ery 440
ape 440
basically 440
problems 439
looks 439
her@@ 439
dies 439
friends 438
clu@@ 438
typ@@ 438
9 437
planet 437
U.@@ 437
materi@@ 437
She 437
true 437
ined 436
mil@@ 436
&#93; 436
stu@@ 436
oper@@ 435
out@@ 434
"As 434
ick 434
incredi@@ 433
piece 433
emp@@ 432
tici@@ 432
fre@@ 431
desig@@ 431
video 431
tim@@ 430
ick@@ 430
ise 430
open 429
contin@@ 429
keep 429
dle 428
society 427
already 427
ed@@ 427
once 427
heard 427
imagine 427
pain@@ 426
ering 425
bly 425
logy 425
200@@ 424
"I@@ 423
oti@@ 422
igh@@ 422
S 422
beautiful 422
lead@@ 421
someone 421
acc@@ 420
"C@@ 420
ort 419
States 419
education 419
hope 418
"Because 418
ist 417
project 417
level 416
flo@@ 416
ous@@ 416
issu@@ 415
ases 415
ut 415
exactly 414
happening 413
ep 413
night 413
species 413
bio@@ 413
vir@@ 413
woman 412
business 411
Mus@@ 411
community 411
not@@ 411
0s 411
My 410
ounds 410
3 410
ideas 410
under@@ 410
mid@@ 409
ast@@ 409
allo@@ 409
underst@@ 408
dom 408
ented 408
port 408
India 408
created 408
nature 408
ft 408
spec@@ 407
dev@@ 407
duce 407
fra@@ 406
group 405
Because 405
learned 405
ive 404
fully 404
stitu@@ 403
cop@@ 403
pers@@ 402
job 402
study 402
posi@@ 402
months 401
fic@@ 400
until 400
against 400
sti@@ 400
wasn 400
"L@@ 400
six 400
aw@@ 400
Africa 399
wonder@@ 399
stories 399
taking 398
ult 398
bring 398
ars 398
since 397
power@@ 397
ful@@ 396
ces 396
incre@@ 396
gets 396
individu@@ 395
ential 395
8@@ 395
ls 395
control 395
ping 395
dig@@ 395
ss 393
ion 393
ten 393
6 392
decided 392
view 392
St@@ 392
must 391
news 391
became 391
solu@@ 390
win@@ 390
Pe@@ 389
name 389
experim@@ 389
tors 388
everyone 388
research 388
viol@@ 387
cancer 387
hear 386
couple 386
shed 386
jects 386
osp@@ 386
under 386
cess@@ 385
completely 385
ective 385
phone 384
clos@@ 383
consi@@ 383
These 383
house 383
ur 382
bri@@ 382
large 381
loo@@ 381
appe@@ 381
isn 381
prof@@ 380
demo@@ 380
7 380
kers 379
stop 379
kinds 379
ark 378
af@@ 378
table 377
ching 376
tation 376
ots 376
tle 375
itself 375
ourselves 375
everybody 374
ish 374
"H@@ 373
huge 373
some@@ 373
hours 373
ale 373
hy@@ 372
logical 372
provi@@ 372
ular 372
worked 372
state 371
tran@@ 371
ton 371
bra@@ 370
knew 370
bir@@ 370
cat@@ 370
language 370
ules 369
inst@@ 369
built 369
tual 368
students 368
ines 367
ys 367
ject 367
ind 367
rather 366
tun@@ 366
ples 365
K 365
questions 365
sometimes 364
cir@@ 364
particular 364
dru@@ 364
places 363
cle 363
thre@@ 363
sli@@ 362
heart 362
techno@@ 361
others 360
ree 360
sound 360
One 360
bed 360
uses 360
adv@@ 360
reli@@ 359
national 359
arly 359
elling 359
themselves 359
che@@ 359
front 358
cept 357
ll 357
stra@@ 356
turns 356
disease 356
Ar@@ 356
ched 355
share 355
learning 355
ets 354
appro@@ 354
century 354
pu@@ 354
kno@@ 353
tom@@ 353
Re@@ 353
past 353
changed 353
mi@@ 353
behavi@@ 353
Internet 353
Is@@ 352
hor@@ 352
wer 352
ant@@ 351
ground 351
interest@@ 350
America 350
run 350
pol@@ 350
teach@@ 350
universe 350
ection 349
least 349
fish 349
"N@@ 348
illions 348
foc@@ 347
ake 347
self-@@ 347
mov@@ 346
ool 346
net@@ 346
vered 346
equ@@ 346
meas@@ 345
thousands 345
company 345
becom@@ 345
TED 345
ord 344
nam@@ 344
gl@@ 344
♪ 344
ads 343
fund@@ 343
ple 343
opport@@ 343
outh 342
ouldn 342
gave 342
entire 342
machine 342
ple@@ 342
assion 342
outside 341
animals 341
ual 340
1 339
electr@@ 339
ju@@ 339
American 339
ris@@ 339
men@@ 339
anci@@ 338
row 338
Eu@@ 338
amoun@@ 338
sil@@ 338
ey 338
along 337
fiel@@ 337
aper 337
war 337
instead 337
Al@@ 337
on-@@ 336
happy 336
China 336
structure 336
natural 336
pul@@ 336
vari@@ 336
conver@@ 336
key 335
mic@@ 335
environment 335
communic@@ 334
test 334
tain@@ 334
ink 334
sible 334
jour@@ 334
arch@@ 333
eyes 333
patter@@ 333
cities 332
shar@@ 332
ide@@ 331
ordin@@ 331
won 330
see@@ 330
u 330
tually 329
game 329
ext 329
Gre@@ 329
God 329
model 329
ner@@ 329
pot@@ 328
turned 328
elec@@ 328
dent 328
ening 328
sel@@ 327
bar@@ 327
cell 327
taken 327
grap@@ 327
known 327
difference 327
culture 327
beli@@ 326
far@@ 326
bab@@ 326
kay 326
seeing 325
somebody 325
sor@@ 325
dience 325
liter@@ 325
York 324
fer@@ 324
oce@@ 324
wards 323
lots 323
air@@ 323
kill@@ 323
bac@@ 322
father 322
ail@@ 321
couldn 321
yp@@ 321
ator 321
economic 320
difficult 320
sequ@@ 320
"A 320
needed 320
takes 319
behind 319
rest 319
lig@@ 319
early 319
wit@@ 319
assi@@ 319
mul@@ 318
"W@@ 318
ey@@ 318
"D@@ 317
list@@ 317
ech@@ 317
ats 316
black 316
ues 316
ither 315
given 315
num@@ 315
bility 315
versity 315
mess@@ 314
ga@@ 314
photograp@@ 314
compan@@ 313
tou@@ 313
longer 313
100 313
tin@@ 313
maj@@ 312
t-@@ 312
indu@@ 312
spi@@ 312
mus@@ 312
know@@ 311
dro@@ 311
cy@@ 311
chan@@ 311
pt 311
repres@@ 310
"Wh@@ 310
parents 309
kes 309
thy 308
scale 308
image 308
"One 307
ze 307
felt 307
feel@@ 307
friend 307
neur@@ 307
figure 307
innov@@ 306
0,000 306
engine@@ 306
ature 306
grand@@ 306
perhaps 305
finally 305
scre@@ 305
books 305
tis@@ 305
political 304
dist@@ 304
based 304
Con@@ 304
sted 304
reas@@ 303
third 303
dy 303
close 303
15 303
bur@@ 303
free 303
If 302
cal@@ 302
consci@@ 302
easy 301
ich 301
compu@@ 301
All 301
y-@@ 301
resi@@ 301
minutes 300
stry 300
size 300
growth 300
recog@@ 300
regi@@ 300
local 299
prac@@ 298
population 298
beginning 298
posed 298
media 298
needs 298
colle@@ 298
cannot 297
M 297
tice 297
abor@@ 296
possi@@ 296
surpri@@ 295
guys 295
certain 295
systems 295
ric@@ 295
unch 294
bacter@@ 294
during 293
simply 293
gar@@ 293
what@@ 293
year@@ 293
ize 292
air 292
tem@@ 292
economy 292
run@@ 291
fo@@ 291
ming 291
verage 291
ho@@ 291
medi@@ 290
Right 290
civi@@ 290
trac@@ 290
relation@@ 290
Okay 290
ater 289
ki@@ 288
Eng@@ 288
ere 287
ook 287
every@@ 286
nec@@ 285
otion 285
read@@ 284
poin@@ 283
In 283
’ 281
sha@@ 280
ople 278
ye@@ 276
D 274
V 273
heal@@ 271
ems 270
10@@ 270
P 269
exam@@ 265
vers@@ 265
ational 265
od 264
ace@@ 264
"&quot; 263
partic@@ 263
tain 261
tely 261
illi@@ 260
wer@@ 258
soci@@ 257
hear@@ 257
om 256
... 256
happ@@ 255
wan@@ 255
experi@@ 253
organ@@ 253
Le@@ 251
eri@@ 249
stud@@ 248
oss 247
40 246
iness 244
eci@@ 243
ound 241
econom@@ 240
ans@@ 240
ause 239
pop@@ 239
ells 239
eas@@ 238
Z@@ 237
thr@@ 236
lear@@ 233
ken 232
anim@@ 232
vel 231
differ@@ 230
hop@@ 230
lan@@ 226
" 225
DNA 224
T 223
lon@@ 223
grou@@ 220
ends 220
fr@@ 220
thers 217
my@@ 217
12 217
bus@@ 214
very@@ 213
C 210
rst 209
too@@ 209
mom@@ 207
publi@@ 207
tech@@ 206
ord@@ 206
11 205
org@@ 204
mer@@ 203
op 202
60 202
ile 200
fore 199
z 199
dol@@ 198
stem 198
can@@ 196
contro@@ 195
plac@@ 193
buil@@ 193
ths 190
ready 189
socie@@ 188
sear@@ 188
80 186
ys@@ 185
ole 184
secon@@ 183
ably 183
,@@ 182
Google 182
govern@@ 179
ough 179
mach@@ 178
aughter 177
Americ@@ 175
whe@@ 174
B 174
und@@ 174
ince 173
)" 173
zing 172
ograp@@ 172
environ@@ 171
sch@@ 171
import@@ 169
ama@@ 169
piec@@ 169
fri@@ 168
exper@@ 167
call@@ 166
thous@@ 165
Chin@@ 165
ould 164
O 163
Q@@ 163
gh 163
Un@@ 163
minut@@ 162
18@@ 161
R 160
25 159
educ@@ 159
sing@@ 157
ays 157
verse 155
uring 155
augh@@ 155
ine@@ 155
aps 155
Afric@@ 152
mation 152
phot@@ 152
won@@ 149
ural 149
rom 147
gy 145
G 145
eve 142
resear@@ 142
thin@@ 142
ulation 141
devel@@ 140
Ap@@ 139
econ@@ 139
infor@@ 137
90 137
cent@@ 137
E 137
of@@ 137
tter 137
cou@@ 136
ouse 135
dat@@ 134
TE@@ 134
lit@@ 134
pat@@ 133
hu@@ 133
cour@@ 131
resp@@ 130
ours 130
lob@@ 129
divi@@ 129
70 128
dise@@ 128
stead 127
beau@@ 126
kin@@ 126
was@@ 125
/ 124
net 119
dia 119
ird 118
chil@@ 116
En@@ 116
quot@@ 115
relati@@ 115
ame 115
fel@@ 114
tting 114
X@@ 114
ply 113
glob@@ 112
ury 110
..@@ 110
!@@ 109
fron@@ 106
boo@@ 106
log@@ 103
cog@@ 103
&apos;@@ 102
ff 95
cent 94
hal@@ 94
remem@@ 94
L 93
nee@@ 93
thou@@ 89
nat@@ 87
illion 86
fig@@ 86
dn 86
nd 84
$ 84
q 84
ility 82
vide@@ 81
ne 79
ener@@ 78
N 77
pub@@ 77
youn@@ 77
twe@@ 76
- 74
H 73
langu@@ 66
000 65
haps 64
W 64
F 63
Yor@@ 60
Inter@@ 55
prob@@ 53
vern@@ 50
v 50
f-@@ 49
tries 49
J 46
dren 45
sci@@ 44
ew 44
ques@@ 44
," 42
diff@@ 41
♫@@ 37
inno@@ 37
X 37
port@@ 37
é@@ 37
&@@ 36
inning 36
acr@@ 36
é 35
Y 35
ancer 34
stems 34
may@@ 33
Ear@@ 33
tty 33
beauti@@ 33
diffic@@ 33
ou 32
til 31
proble@@ 30
uch 28
U 27
0 27
q@@ 26
del 25
them@@ 25
á@@ 25
selves 24
with@@ 23
beh@@ 23
NA 23
fric@@ 22
bec@@ 22
ima@@ 22
commun@@ 22
Q 20
Goog@@ 20
gether 19
wom@@ 19
Goo@@ 19
Z 17
= 17
viron@@ 16
+ 16
è@@ 16
^ 16
esn 16
actly 14
grow@@ 13
beha@@ 12
som@@ 12
tween 12
plause 11
ã@@ 11
í@@ 11
ó@@ 11
apos@@ 10
meric@@ 10
ainst 9
@ 8
♪@@ 8
ñ@@ 7
—@@ 7
ö@@ 7
nex@@ 6
ó 6
j 5
dollar@@ 5
á 4
dividu@@ 4
# 4
ç@@ 4
% 4
&#93@@ 4
;" 4
อ@@ 4
ø@@ 3
ü@@ 3
happen@@ 2
ā@@ 2
£ 2
è 2
ร 2
่ 2
ù 1
ī 1
∇ 1
τ 1
² 1
ä@@ 1
û@@ 1
ě@@ 1
ī@@ 1
ë@@ 1
* 1
– 1
Č@@ 1
ï@@ 1
ē 1
Å@@ 1
Ç@@ 1
à 1
ê@@ 1
:@@ 1
ย@@ 1
ย 1
ï 1
