,
็
the
."
to
a
.
thi
of
&quot;
and
n
that
n@@
in
I
ng@@
w
it
is
า@@
dai
lae@@
า
you
we
on
&apos;s
pe
k
o
t
ong@@
nai@@
mai
kan@@
khong@@
this
าng@@
m@@
mi@@
tae
)
w@@
s
(
ni
lae
cha@@
na
o@@
a@@
t@@
an
man@@
was
ma@@
k@@
for
an@@
are
p@@
not
at
kh
s@@
have
on@@
e@@
chai
b@@
they
—
kham@@
d
th
d@@
kap@@
ng
hai
ngthi
with
phom@@
re@@
yu
can
na@@
ti@@
"And
i@@
pai@@
or
en@@
ing
f@@
chak@@
&apos;t
y@@
y
sue
in@@
ta@@
:
ed
khue
si
at@@
what
he
m
?
ra@@
be
as
about
es
it@@
u@@
khe
khun@@
ch
ok@@
thuk@@
all
And
rao@@
la@@
pheื
าn@@
l@@
l
one
chan@@
do
di@@
r
my
ch@@
er
-@@
ri@@
so
th@@
people
p
our
&apos;re
c@@
there
like
tha
reื
om@@
g@@
tham@@
from
e
ap@@
op@@
S@@
าng
phu
me
le
meื
si@@
i
khon@@
li@@
r@@
h
khue@@
er@@
าy@@
rue@@
ru
but
ang@@
kh@@
ot
de@@
ak@@
just
ue
son
st@@
ph@@
very
am@@
tu@@
out
C@@
de
che
et@@
these
se
by
un@@
if
"@@
thang@@
ai@@
ro@@
nak@@
mak@@
h@@
tam@@
them
mak
more
b
ers
en
du@@
"So
ta
pa@@
kan
ha@@
when
ni@@
ot@@
up
ok
us
con@@
kha@@
had
sa@@
ar@@
าni
ik@@
v@@
no
because
rap@@
know
how
their
going
thamhai
ำ@@
or@@
khnap
khae
see
su@@
le@@
were
samant@@
phenaะ@@
ly
ph
think
It
wo@@
your
os@@
would
get
tn@@
So
who
really
B@@
keี
A@@
tai
ngan@@
M@@
P@@
kn@@
nue
nam@@
al@@
nai
ac@@
time
which
al
&apos;ve
don
ะ
nu@@
pai
way
el@@
thueng@@
wai
ong
hel
nti
se@@
tai@@
ongkan@@
long@@
reิ
where
world
sp@@
pi@@
&apos;m
man
then
bon@@
nok@@
won@@
ma
no@@
pna@@
ai
cheื
mae
has
into
าna
here
kamnang@@
We
tion
pha@@
"I
D@@
nt@@
chning
to@@
some
ce
ent
ex@@
will
naikan@@
?"
lai@@
phuakkao@@
anai@@
vi@@
im@@
khao@@
et
mo@@
eng
actually
ci@@
other
years
ang
ti
samnap@@
T@@
now
u
st
ka@@
baeb@@
ne@@
me@@
co@@
re
wi@@
peli
want
Laughter
yang@@
could
lo@@
things
ru@@
dangna
wong@@
for@@
E@@
sta@@
manpe
ve
go
been
than
khon
ds
The
ol@@
"But
as@@
fi@@
make
thoe@@
sam@@
yokap@@
H@@
wo
ts
ad@@
kam@@
z@@
song@@
do@@
those
G@@
าkhun@@
ity
sut
kon
chai@@
te@@
"
phue
pn@@
mai@@
il@@
khit@@
doi@@
ent@@
tua@@
But
nat@@
W@@
loei
right
something
said
much
ant@@
sianguano
khnti
san@@
pre@@
da@@
lu@@
pi
nok
bok@@
red
kna@@
tra@@
าngthi
F@@
raocha@@
koetkhue
pan@@
rat@@
than@@
ko
mu@@
khongrao
bi@@
first
ous
ation
khn@@
sh@@
khoei@@
O@@
"It
aim
bo@@
two
wit@@
ue@@
1@@
also
"We
em@@
lok@@
phut@@
sak@@
work
thing
most
mun@@
knap@@
nan@@
nap@@
day
ke
even
N@@
cho@@
life
back
many
kae
lot
ss
look
ge
we@@
2@@
L@@
ou@@
cha
mikham@@
"The
need
าman@@
be@@
suek@@
over
bu@@
cu@@
sut@@
ons
I@@
yon@@
R@@
kherue
only
าngrai
"Now
ant
wena@@
di
This
าy
little
าn
tions
phap@@
ec@@
iti@@
got
าthi
op
able
ut@@
uk@@
ver@@
c
koet@@
his
tonni
mong@@
take
tan@@
Applause
nae
khitw
ao@@
าw@@
yi
wat@@
tit@@
ting
pp@@
ding
eng@@
cham@@
he@@
pat@@
ck
she
You
siang@@
ag@@
pheิ
new
thamngan@@
wan@@
phuaknao@@
chiit@@
say
fe@@
g
ek@@
mue@@
ble
าcha@@
around
rapp@@
pu@@
phi@@
khna
its
ate
chueng@@
tn
ngni
am
luk@@
did
makokw
raot
ry
loei@@
phit@@
nkan@@
ongni
phuak@@
chut@@
ying
gi@@
tat@@
come
mit@@
the@@
te
oe@@
sc@@
ab@@
"In
different
hi@@
siangpnpmue
ls
use
rok@@
ndai
ev@@
pap@@
phuakka@@
so@@
They
every
ar
raow
nsi
through
x@@
per@@
end
mat@@
com@@
nait@@
ba@@
witi@@
her
f
thi@@
phiang@@
kind
phn@@
good
hae
ment
phenaะw
.@@
าm@@
npe
wom@@
pla@@
down
any
ngnai@@
bokw
ne
same
wa@@
nreื
ted
sti@@
"(
yak@@
ter@@
ine
lok
chi
chue
cal
3@@
mueang@@
ep@@
pro@@
sin@@
lar
being
chop@@
eื
om
khu@@
bang@@
phon@@
khongkan@@
les
ser@@
rao
po@@
raodai
kant@@
own
ect
That
ak
enti@@
chat@@
ks
&apos;ll
oen
10
manmai
ob@@
J@@
put
A
ke@@
au@@
fu@@
kha
ton@@
3
K@@
raomai
aiy
mon@@
ongthi
ence
ruam@@
mank
rup@@
ght
5
chi@@
gra@@
What
ded
non
tue
percent
sai
pl@@
doing
19@@
phuakman@@
ae@@
ely
tan
called
phop@@
phuakna@@
samkan@@
made
khat@@
inter@@
emuen@@
klu
wor@@
change
2
sat
let
ngpe
selol
ter
ents
nnai@@
chape
sat@@
find
khuncha@@
kt@@
thn@@
pnatet@@
tak@@
pe@@
khai
baebni
ved
year
water
chning@@
ngok
ol
ngot
ling
ves
gh@@
su
ur@@
tell
khongphom
kanthi
nae@@
ำ
phomcha@@
j@@
three
;
cre@@
lak@@
&apos;d
ina
chon@@
mot
yong@@
well
matak@@
led
uan@@
tam
mikan@@
ua@@
ver
raok
pu
rai@@
phon
ngoen@@
gen@@
ying@@
non@@
"You
started
min@@
low
"This
phaiาm@@
might
&apos;
won
phom
anai
long
neื
Thank
der
atta@@
ever
pit@@
top@@
ose
sai@@
sts
today
fang@@
didn
bangoi
pri@@
fact
makkhue
taekt
ao
ngkhong@@
khain@@
oyu
human
paen@@
50
ing@@
sen@@
nik@@
"O@@
noy
qu@@
sit@@
20
doen@@
why
ona@@
ki@@
ans
khun
lng@@
phommai
khelue
after
"A@@
yin@@
khu
laekan@@
raomi@@
tham
together
tap@@
raeng@@
lic@@
nma@@
is@@
pho@@
4@@
knat@@
x
khamtam@@
rop@@
problem
าchai@@
rot@@
5@@
od
hu@@
ss@@
laer@@
laekham@@
should
ten@@
chamnuan@@
important
est
ki
idea
sion
khai@@
tnng@@
ated
ms
rue
before
"If
ic@@
uek@@
better
ini
story
int@@
kit@@
phomkhitw
ning
sh
wok
eni@@
great
mthi
pos@@
pana@@
never
oi@@
khunk
ngkan@@
tuan@@
ite
last
went
ors
found
body
V@@
tic
thamdai
comp@@
inv@@
lue@@
oi
tri@@
gu@@
ori@@
still
part
pr@@
phomdai
phomk
car@@
ngmt@@
nokwam@@
raosamant@@
4
off
ngan
pon@@
okw
big
"They
ins
bit
yom@@
ะ@@
,000
ap
kin@@
ago
1
smong@@
ps
ena@@
pti@@
ck@@
anthi
ty
าngn
thought
give
ati@@
ities
chat
kho@@
chana
khna@@
less
ut
start
ae
There
few
lang@@
pon
nakhnap
place
chakkan@@
another
bat@@
el
sm@@
ia
khuekan@@
าpai@@
khi@@
knaipe
naich
ets
used
khongkhun
tuao
ad
ge@@
him
chadai
wonaiy
phen@@
each
tua
ran@@
talk
course
ful
question
nmai
too
pnata@@
paithi
fin@@
sure
"S@@
npu
kap
fac@@
old
ratap@@
brain
thukkn@@
tun@@
any@@
par@@
ku@@
khan@@
ked
oen@@
poen
tre@@
ditan@@
next
khampe
als
20@@
phaet
lan@@
che@@
up@@
king
came
thueng
saetng@@
khong
phuakni
laeni
9
ses
emuenkap@@
rong@@
thammai@@
mar@@
col@@
nak
khuan@@
ating
example
does
der@@
kon@@
system
khamkhit@@
"Well
7@@
nop@@
dai@@
khongrao@@
♫
top
chit@@
nat
tr@@
phu@@
champe
res
wai@@
าrao@@
nkhue@@
wokan@@
looking
sa
cor@@
yo@@
chami@@
phot@@
makmai
pap
nang@@
witasattn
ally
show
ow
noyu
oei
tin@@
nng@@
ngmt
ban@@
age
ther@@
nit@@
nma
7
between
again
ssion
lai
ations
mean
not@@
pithi
naiti
understand
ld
doesn
ow@@
chamai
wang@@
phai@@
spap@@
onthi
rak@@
thukoi
oet@@
nm@@
live
dit@@
gre@@
point
mnut
ruemai
love
rec@@
ssi@@
raokamnang@@
sur@@
cs
khongphom@@
chatham@@
medi@@
women
Now
aen@@
khamru
ho@@
khnat@@
yonpaenng@@
าpe
tive
lueak@@
light
tt@@
onal
prot@@
sha@@
chninglae
chan
manmi@@
าngna
30
done
He
U@@
oei@@
ach
riakw
0@@
ik
lin@@
laena
son@@
khian@@
ngtae
sk@@
data
help
ving
rai
ngk
makthi
"When
ore
omi@@
lam@@
6@@
rianru
phutw
khonue
kn
fai@@
knang@@
ral
ngnue
raek@@
าphm@@
yangmai
dri@@
paiyang@@
rou@@
stre@@
bri@@
ini@@
ll
าma@@
200@@
bot@@
wanted
theknonoiี@@
nni
thuk
phuttueng@@
men
men@@
How
mu
kai@@
supp@@
oun@@
sy@@
bni@@
away
trans@@
dang@@
npai@@
kapkan@@
nokong@@
knu@@
believe
poet@@
ther
bre@@
don@@
using
phnangngan@@
akan@@
khnue
nan
call
technology
school
yut@@
8
tuaeng@@
may
cally
ve@@
try
thamanai@@
trying
naithan@@
produc@@
yu@@
children
sung@@
wh@@
wan
person
eli
phnit@@
line
cap@@
room
ine@@
din@@
city
sig@@
6
knnm@@
าkan@@
sue@@
mt
har@@
nakt@@
chak
hai@@
mb@@
thu@@
feel
low@@
working
ju@@
knai@@
phan@@
leี
mp@@
าngte
thini
exp@@
tueng@@
ness
rac@@
tonti
thai
khunt
npaidai
sia@@
!
thon@@
าkhong@@
always
chu@@
ws
real
rate
pnat@@
maybe
us@@
phuakkun@@
chakna
means
ุ@@
khonngkan@@
run@@
information
100
ya
nte
phimph
khunhe
tru@@
&quot;"
choe@@
okpaep@@
pen@@
ory
star@@
form
chap@@
stan@@
dis@@
land
sec@@
times
stu@@
ngna
country
khongkhun@@
thinking
bnitat@@
&#91;
ngs
saeng@@
diao
mueang
pak@@
ya@@
kain
create
sap@@
mi
million
&#93;
laenai@@
wenathi
laemeื
fe
small
sutth
ars
bai@@
everything
okpai@@
ition
ngain
yae
okma@@
oti@@
number
whole
tue@@
raoru
"T@@
dre@@
yuk@@
teon
raek
laeth
cra@@
pnayochon
nal
ies
took
laesi
oke
rian@@
become
respon@@
khap@@
tnot@@
0,000
best
8@@
ana
money
sub@@
ster
pnap@@
khongkhao
khunsamant@@
phak@@
making
ngo@@
home
thae
...
"W@@
da
nm
fa@@
kar@@
thangkan@@
far
ard
naeokit@@
angk@@
energy
yuen@@
nna
tho@@
inf@@
comes
chank
khit
hel@@
ain
future
Let
space
possible
phnang@@
khao
song
chathamhai
rang@@
tor
ga@@
raom@@
kat@@
tna@@
ance
Th@@
wanni
าw
ently
khongphu
act
bae
anaithi
ze
nuat@@
countries
khittueng@@
lar@@
oc@@
lap@@
sort
tuk@@
cal@@
าchai
rapkan@@
mikam@@
mikhain@@
pnatpkaron
show@@
stic
TED
khunmai
bra@@
rit@@
chom@@
set
Y@@
four
okpai
laephom@@
ome
under@@
S
social
pait@@
side
science
dec@@
sattn
cla@@
met@@
pm@@
khomphioteon
cells
read
tattintai@@
high@@
ty@@
onkh
getting
ic
left
15
enough
nnak@@
tal@@
raop@@
nt
tly
enue@@
"There
tuaeng
ste@@
book
mandai
khonnue
00
chandai
second
nthan@@
gener@@
sun
tal
phuakkao
kids
naih
ir
ways
lot@@
ton
wen@@
9@@
ship
gg@@
fore@@
win@@
ected
raos@@
ี
li
days
phopw
quite
go@@
plan@@
bt@@
told
choeng@@
raok@@
food
าngkan@@
riak@@
ca@@
pnaman
five
stri@@
"That
naireื
ture
khaok
des
naiton@@
case
khuesi
diko
witithi
duang@@
bon
ali@@
ruppaep@@
ective
ื
ask
ce@@
naipi
happened
without
ill
doentang@@
oper@@
pretty
chiit
lives
miyu
khongchan
ned
cer@@
chanmai
"H@@
ments
hard
thamkan@@
yi@@
khop@@
ess@@
ces
living
elue@@
Well
chin@@
ary
ruepen
thun@@
karon
kot
yangkng@@
ens
sma@@
power
witikan@@
phata@@
athi
saw
bin@@
diaokan
sun@@
probably
hand
ona
ced
okat@@
put@@
across
khundai
nuek@@
that@@
ere
laerao@@
wonnue
ort
ber@@
sense
ase
khnu@@
pnaman@@
tnngni
phuakkaok
"M@@
kot@@
loe@@
okma
ongkan
build
nkan
ously
later
mancha@@
seี
saetnghai
yangmi@@
wot@@
pnakt@@
baebna
nghel
yuak
khunru
dithi
talking
nokn@@
experience
khamtn@@
phatna@@
art
nor@@
"He
care
coming
mkue
laemai
khongphuakkao
seen
asked
khonngson
pnak@@
family
Ch@@
itu@@
rop
าmi@@
wn
struc@@
os
app@@
while
tha@@
phant
half
gs
khen@@
itai@@
raochueng@@
ueng@@
paisu
learn
eff@@
"B@@
sed
cam@@
ell
works
head
aiุ@@
samkan
nopb@@
almost
mare
laephomk
interesting
public
iting
าr
ั@@
ants
าkap@@
phae
oั@@
fil@@
painai@@
dao@@
stra@@
saps
moment
nton@@
tape
speci@@
"E@@
wal@@
ongchai
ner
anything
np@@
um
laek
nong@@
cl@@
าmai
simple
imp@@
ven
Earth
stap@@
makmai@@
though
shed
bangti@@
picture
kong@@
nati@@
happen
aep@@
id@@
shi@@
kho
fo@@
inside
ming
mot@@
buk@@
dra@@
"What
diao@@
nakt
thue@@
over@@
phiangkhae
chatkan@@
ape
building
sing
stanthi
words
est@@
such
thaenthi
pnatet
ongrao@@
าngra@@
pnot@@
าngni
nap
ection
าngkue
thnap@@
ul@@
arti@@
sel@@
problems
health
laethi
าnma
cy
pik
ka
khongkham@@
disco@@
makes
billion
thot@@
khopkunkhnap
ast
jo@@
young
san
cle
kno@@
pt
phomru
mind
ute
nop
dollars
af@@
face
thamnai@@
av@@
wi
months
someone
stuff
med
single
play
happens
wokham@@
else
nailok@@
war@@
reason
oา@@
design
nati
etupn@@
ye
mit
nnue
matter
deci@@
ences
ined
planet
els
ghts
cancer
nakan@@
ank
phaen@@
ssed
ye@@
pnakop@@
าngt
project
bio@@
"N@@
often
wlok
าythi
laeman@@
car
nman@@
tures
anti@@
tle
mue
nangtue@@
high
ani
table
tip@@
cks
tueng
move
die
ster@@
du
nation
nothing
teach@@
chao@@
desig@@
conn@@
thamo
maikamw
whether
"C@@
pan
12
kantuekta@@
chant@@
ative
satan@@
having
answer
laemank
develop@@
bility
rok
turn
process
khuen@@
"As
40
faif
tia@@
yon
myself
าngrai@@
says
community
ith
duc@@
rongrian@@
ement
already
ges
qui@@
rela@@
khet@@
laeraok
order
thoe
pailae
wrong
"For
aeng@@
paid
nta
Why
ability
looked
knnm
thukt
bly
khuer@@
saen@@
khar
oktak@@
sampant
nam
laepe
ngdai
baebthi
tnong@@
eี
าsntai@@
nais@@
pattupan
mikh
mati@@
ongkhong@@
fre@@
yet
าngkai@@
าreื
pho
aol
ped
luek@@
ones
chahai
remember
kapkham@@
sangkm@@
New
sto@@
ris@@
okamnang@@
kanchai
ek
ear@@
atit
kai
exi@@
lit@@
pok@@
ys
าthue
incre@@
wena
meni@@
60
phanl
wattu@@
laera@@
contin@@
tin
imagine
ken@@
wos@@
phainai@@
ngoyu
tel@@
opai@@
lies
pin@@
าngkham@@
sn@@
ten
Ma@@
wokan
lu
K
learned
amazing
"Because
late
disease
goes
mape
nchning
phuaknao
d-@@
ngon
khunchahe
logy
wr@@
e-@@
hope
la
othi
dikhue
tat
nature
bad
chnit@@
chok@@
logi@@
pn
tors
11
ron@@
cent@@
suai@@
mic@@
sentt@@
zed
cial
diti@@
doimai
gest
kit
♪
mt@@
D
าngnue
exc@@
fic
ngcha@@
yaek@@
ns
khnopkhnu@@
both
mikhon@@
าngmak
fan@@
ases
open
าsi
organiz@@
uak@@
chen@@
pnaatisattn
าngsankh
pk@@
cul@@
ongchak@@
ched
pain@@
ings
ena
Ri@@
nain@@
global
phomw
dent
students
far@@
dic@@
Re@@
fic@@
once
aan@@
snu@@
true
pnatu@@
pnate
koen@@
pen
ring
nkap@@
ngam@@
tain@@
ko@@
าph@@
ote
ssing
group
ler
mun
business
ering
pana
mon
vel@@
thamsi
United
kang@@
ongmue@@
thukkn
lly
khnap@@
ics
han@@
ach@@
against
looks
mathi
In@@
khot@@
wasn
yue@@
species
hu
individu@@
oet
study
keep
tipai@@
direc@@
ikokra
job
language
phomt
dies
cou@@
yeี
sntai
anti
kanpeli
heard
decided
friends
kamnangta@@
word
langtak@@
experim@@
0s
vice
Li@@
lead@@
chn@@
within
beautiful
chachai
khnataiy
pati@@
tation
bor@@
eti@@
karot
kthi
"Th@@
oklu
ngoen
per
monghe
phantu
nuan@@
out@@
pot@@
doem
dueng@@
control
due
research
ny@@
fully
six
government
test
paep
raochai
ros@@
animals
ourselves
ft
khongman
built
khe@@
can@@
ngwaetl
ikot
isn
าs@@
nkhae
saying
sometimes
places
kantam@@
piece
thaep@@
den@@
laemi@@
าchan@@
"P@@
saman@@
boen
ntni
ama@@
phuakkaomai
mos@@
าmanpe
าpainai@@
kueap@@
list@@
khuanta@@
tithi
khamtop@@
mor@@
sions
wot
history
child
ngo
angthi
bring
dge
culture
ra
kil@@
education
nia
tati
bangkhna
ngsong@@
basically
kh.t.
vac@@
cau@@
uaro
questions
ser
wonthi
phaen
bae@@
samre
duean@@
lea@@
thre@@
mag@@
turns
oepto@@
akcha@@
chintnakan@@
thonsapt
share
ig@@
ram@@
mer
ir@@
raohe
sng@@
ake
nchak@@
dan@@
80
ngkham@@
maikhnap
sli@@
tm@@
kapphu
phone
phumi@@
ngp@@
ntn@@
learning
phomak@@
khunat@@
khnathi
under
oni
sung
ideas
stankaron
fish
npaph@@
cy@@
tar@@
าthueng@@
ects
cell
blo@@
าngk
dar@@
pic@@
าchape
ngt@@
until
int
ola
ay
dam@@
some@@
ueak@@
chathuk@@
val@@
dence
mea@@
stop
mianai@@
kue
stories
themselves
det@@
her@@
clear
view
exactly
cel@@
sm
completely
seื
jects
sapdah
thit@@
dom
ery
phe
soci@@
couple
became
thunkit@@
ela
stance
created
bangkn@@
sia
level
nkhue
run
ching
npa@@
eli@@
heart
sive
sntai@@
khongchan@@
pnit@@
fang
deี
yokapkan@@
chepaะ@@
pnuk@@
gets
colle@@
Africa
T
national
bro@@
worked
mother
cr@@
appro@@
าnai@@
yun@@
ngm@@
thnnmtati
reality
emaะ@@
known
าd
"I@@
States
thel
guy
ynt
indu@@
uni@@
happening
ground
taking
house
ited
fer@@
sted
etu@@
khopkun@@
hy@@
evi@@
ner@@
society
mis
knew
parti@@
itive
coll@@
kham
company
doc@@
naipnatet@@
pnatitti@@
thukanni
spa@@
khuapkhum@@
ratpan@@
itai
spi@@
logical
khui@@
khaen@@
าth@@
ff@@
solu@@
khamtning@@
cities
tonna
computer
vered
thousands
raotham@@
environment
rapru
hours
hear
rakta@@
phnak@@
muen@@
vation
provi@@
nthang@@
chason
physi@@
clos@@
changed
wing
ำkhae
nathi
everyone
ur
She
chntueng@@
state
sound
spe@@
universe
,@@
ven@@
ome@@
These
Because
inti@@
osamant@@
instead
itself
huge
woman
bnit@@
news
ngraek@@
count@@
que@@
nha@@
nu
No
nnm@@
ration
bec@@
maoิ@@
songsam@@
sutnai@@
nchai@@
yok@@
khamtamant@@
yan@@
okra
front
ptipati@@
dy
rob@@
tnngna
prin@@
ters
nun@@
ital
ell@@
sae@@
khain
paidai
cept
okap@@
daokhenaะ
name
sses
าt
ders
าm
mann
laechan@@
night
tuk
nakwitasattn
khenaะ
thak@@
bed
must
ngmai
khongmnut
laephu
khonng@@
onwai@@
tual
ari@@
ware
den
diaokap@@
phompe
trac@@
radi@@
theknonoiี
companies
chach
25
tually
fl@@
model
t-@@
tati@@
chakhe
าngi
70
ffi@@
akat@@
duemuen@@
somebody
stry
ple
nokra
happy
based
khongkhao@@
kinds
others
tap
ngop@@
ots
entire
199@@
wha@@
mer@@
paenk@@
sol@@
V
ounds
consi@@
ngmtni
shing
por@@
phap
ree
kaen@@
past
าnkan@@
sting
along
difficult
pnatat@@
ngkue
prop@@
Internet
machai
depen@@
sukpap@@
ism
allow@@
ind
sombunn
owai
miti@@
dd@@
tamti
bantuek@@
wangw
knatp@@
video
engine@@
aromn
thamngan
omet@@
elec@@
figure
olved
neur@@
emuenkan
ngmitiit@@
khonni
omes
knatha
ket@@
gave
tae@@
ject
laen@@
America
thy
lakt@@
key
mankhue@@
lation
couldn
ngok@@
mummong@@
scienti@@
samkanthi
pkti@@
systems
pit
pol@@
see@@
naikhnathi
upokron
thammai
oko
tu
bl@@
%
sing@@
easy
row
neng
chon
mul@@
American
nakta@@
ess
bit@@
nk@@
tain
tem@@
าraocha@@
ani@@
khoe@@
yed
dot
ping
sannan@@
tiv@@
communic@@
Al@@
pa
wards
baeb
since
woelue@@
smong
My
od@@
recor@@
thim@@
suekw
music
inclu@@
tnuat@@
paithueng@@
bal@@
npm@@
kay
bab@@
olution
stuan@@
large
Ar@@
kapsi
nom@@
laktn
tik@@
matueng@@
yo
doitepaะ@@
rather
kankh
chasamant@@
everybody
"A
rely
of@@
naisi
cli@@
One
าkhao@@
M
doichai
yonpaenng
ential
given
sangkm
structure
khons
ues
cht@@
resi@@
conver@@
equ@@
sor@@
ntthi
thrit@@
size
doit@@
tur@@
image
onon
onghai
าmai@@
chahe
tuat@@
suk@@
cing
nue@@
ran
nik
loeiw
air
oru
pnatakn@@
rap
Here
bok
hon@@
care@@
thiap@@
าak@@
nlae
khongsi
sof@@
raot@@
rest
ented
snapsnun@@
natural
focu@@
stru@@
Nor@@
yong
ongtham@@
cle@@
chang@@
rt@@
vari@@
thatn
phuakna
aiุ
maitueng@@
dly
thnnmtati@@
phetin@@
outh
nmue@@
ami@@
etukaron
าthai@@
finally
bnien@@
difference
ene@@
sitti@@
knua@@
onue
thnnm@@
ates
hua@@
kanni
าnn
era
tnong
fa
lots
phut
khris
wommue@@
Au@@
phi
B
bun@@
ening
maik@@
tanai@@
ext
early
regi@@
ongmi@@
koenpai
yktuao
turned
least
าdai
wanti
cheี
sent
phuakkaodai
walk
mem@@
igh@@
dr@@
action
าpai
yourself
naknian@@
tattin@@
deli@@
particular
team
DNA
mal
cine
scale
nopwok@@
econom@@
nate
bir@@
field
ey
ples
raeng
outside
wong
khenuekh
omen@@
fit
super@@
ining
าth
"D@@
offi@@
nakan
chot@@
cei@@
activ@@
าngkan
cles
let@@
pnanat@@
าngruatre
demo@@
าphu
emoti@@
free
wil@@
yom
anni
ntua@@
oะ@@
mpaid
nemuen@@
wng@@
ep
ngraek
าkhn@@
bel@@
cir@@
kun
sho@@
nmak
าwn
าngchak@@
cep@@
rele@@
sources
ical
simply
fami@@
electri@@
succe@@
"One
ost
chanru
tnanak@@
York
takes
behind
due@@
expla@@
friend
oms
viol@@
China
inno@@
nthi
ael
taken
wmong
langtakna
off@@
jour@@
thttop@@
eyes
relation@@
during
Gre@@
siang
patients
opti@@
bil@@
char@@
compa@@
rot
nn
wpai
kat
duean
tally
thitiao
ntn
flo@@
chemi@@
naina
oyor
iz@@
makta@@
realized
atpe
Mi@@
ngmi@@
ngankhong@@
main
pur@@
survi@@
beื
eople
C
week
minutes
il
tao@@
าngpe
doi
lang
ataiyu
telling
khnopkhnua@@
grow
knapuankan@@
sis
uro@@
bangti
ri
thaen@@
bac@@
าkham@@
cos@@
aliz@@
ntni@@
died
self
ima@@
yomnap@@
Is@@
akhai
tit
surpri@@
suekta@@
naithang@@
าhair
phomchueng@@
thuengmae
phaenthi
khongman@@
wak@@
needed
suan@@
pnan@@
ngai@@
nim@@
inst@@
population
bur@@
are@@
predic@@
grou@@
mum@@
weeks
gue@@
certain
eth@@
rd
atai@@
khamtamthi
laekh
ide@@
mn@@
wok@@
phit
ี@@
yue
Le@@
reas@@
bar@@
nanai@@
taen@@
inc@@
nono
born
ita
Eng@@
kamno@@
our@@
kanpe
ature
fol@@
full
sit
chamnuanmak
cont@@
war
ngpai@@
phaoะ@@
quickly
mic
cat@@
fuek@@
solve
kanw
laend
extre@@
nairatap@@
speak
wt
madu@@
third
win
taant@@
adv@@
ste
khi
uekta@@
An@@
nonot
great@@
seeing
wioั@@
spend
sam
aot@@
bi
parents
itam@@
hor@@
snat@@
risk
media
aff@@
าhai
ika
chanam@@
chant
akat
map
doem@@
chin
าngsi
middle
In
sot@@
maj@@
naim
self-@@
century
pkti
R
chancha@@
ries
powerful
mat
seon
ered
cannot
ines
khaodai
thangtangk@@
stai@@
chumchn@@
ita@@
xi@@
ero
200
din
tak
ale
ngokw
political
reli@@
close
hol@@
cri@@
oni@@
าkh@@
cur@@
ice
felt
plo@@
-
ink
nphiang@@
speak@@
"F@@
guys
ha
naka
rian
work@@
aman@@
amount
dru@@
nueng@@
If
phtm@@
sent@@
ecting
Lo@@
chankhitw
khunkh
knni@@
inspi@@
sible
mok
messa@@
situ@@
yuet@@
ngpm@@
Wor@@
lost
esti@@
khamsampant
knang
site
kna
semo
ron
bangsi
cost
lt@@
pay
obvi@@
id
kian@@
scientists
าma
yangngai
khnnai@@
ponkaen@@
practi@@
conv@@
khaomai
perhaps
theี
yokap
poor
ิ
parts
thu
sang@@
pattupan@@
stud@@
kanttnong@@
ngai
าk
laio
mental
ef@@
yot@@
hands
challenge
archit@@
kok@@
aring
hain@@
poli@@
sci@@
father
machine
cars
wik@@
าnkn
saiphantu
common
rat
began
panathi
taetng@@
tang@@
thukti
met
18@@
wow
sngknam@@
climate
koetanaikhue
phet@@
tou@@
khnitsattn
seven
male
pas@@
thae@@
naipe
leave
sngsai@@
chakoetkhue
chae
longer
taithi
yangpe
list
source
luk
follow@@
dig@@
damnoen@@
mankhue
ongpe
transp@@
nchning@@
sequ@@
angkrit
manthamhai
terms
noti@@
lokthi
every@@
fla@@
ro
anal@@
samant
shar@@
phnat@@
O
matmu@@
needs
mani
moving
either
tried
que
heal@@
karor
human@@
khatyae
market
amnat@@
numbers
antly
smar@@
mnut@@
mel@@
phat@@
naena@@
ches
chiwitoyu
phomakcha@@
chim@@
duw
fundamen@@
y-@@
fied
leg@@
ssive
nianru
khunkamnang@@
humans
ath
khopkunkh
cop@@
anima@@
possi@@
ational
thoek
diaokan@@
malae
rongrian
ety
physical
าngkhong@@
differ@@
patient
nian@@
spent
pantan@@
images
samnapkan@@
phantu@@
khamw
khnani
khel
sug@@
thangot
keon
laet
scre@@
wop@@
box
ngam
sot
atna@@
ney
descri@@
giving
All
ber
green
khongthoe
ed@@
black
defin@@
14
phruetiknnm@@
าngmai
khohai
alone
eon
doikan@@
curr@@
read@@
open@@
ningthi
dat@@
pnatan@@
laktna@@
wnaiั@@
pes
mil@@
pnatitt
knappai@@
khongkhon@@
mni
laedai
olu@@
10@@
fas@@
larly
vil@@
phomkamnang@@
politi@@
ope@@
pue
dience
wouldn
beg@@
net@@
500
yotyeี
tail@@
mipn@@
manag@@
pang@@
attention
ast@@
wituak@@
phe@@
preci@@
func@@
paitha
naiwanni
าsu
my@@
nec@@
ths
changes
chonknatha
likely
khunchadai
blood
lnai
wraok
incredible
wonderful
mini@@
thamkam@@
thang
phain@@
"These
phuet@@
thek@@
ocean
iap@@
omyong@@
tom
yao@@
90
material
khngta@@
network
sangk@@
ncha@@
appe@@
scho@@
rus
lish
nga
sual
noktak@@
beginning
itueng
phuakkaot
tok@@
sen
fue@@
oem@@
าphuakkao@@
entially
writ@@
books
seems
nbaeb@@
khunatta@@
but@@
requi@@
sitting
movi@@
yonpaen@@
thiam@@
nao@@
Music
surface
kantuekta
bas@@
mate
access
pnapp@@
laenae
tuak@@
utta@@
feeling
perf@@
stor@@
G
ongna
menika
quality
nueak@@
cient
nkherue
sation
dunae@@
hundreds
step
าyk
grand@@
ograph@@
ories
bene@@
ana@@
ads
"She
want@@
khuant@@
khunmi@@
ace@@
siati@@
movement
los@@
knowledge
area
Yeah
raoreิ
watntnnm@@
าww
raoriak@@
ongn
tuanek@@
environ@@
labo@@
khamt@@
atu@@
zy
back@@
absol@@
proce@@
netu@@
rongpap@@
bin
Jo@@
penipti@@
naichiit@@
waetl
Su@@
lab
lated
ngta
ongkap@@
deal
ngchai@@
produce
าngraik
gone
woen
ols
areas
ffer@@
knatai@@
khuekham@@
versity
forward
local
khaope
rst
behavior
bam@@
gram@@
sangket@@
interested
simi@@
developed
profe@@
complex
plant
vel
ุ
npheื
rated
univer@@
millions
patna@@
Goog@@
phnache
sudd@@
fear
khnu
"My
realize
snam@@
ikar@@
manthuk@@
wpmk
theory
Yes
tamaen
phuakkaomi@@
gla@@
ward
wlok@@
rev@@
kettn@@
year-@@
paper
sand
opportunity
yeื
nde
ace
ny
pres@@
range
phutku@@
Oh
pros@@
knua
nkue
munthi
coura@@
ger
ongth@@
blue
value
vices
tever
ngpan@@
eight
death
paep@@
phapni
eri@@
sum@@
oy
experi@@
understanding
osed
khan
khongmai
phoma@@
ah
U.S@@
chamdai
write
z
ิ@@
average
loc@@
rong
khoeidai
Z@@
wmong@@
raoson
poetp@@
าta@@
raidai
misi
personal
ฤdu@@
eg@@
patter@@
result
gar@@
impro@@
pniman@@
economic
าthammai@@
emer@@
tun
16
nin@@
ongle
literally
fri@@
nphi@@
saetu@@
growing
eluek@@
voice
tools
choice
God
pnpmue
molecu@@
wom
ssues
chatten
changing
chumch@@
game
kam
technologi@@
miphu
nglai
repor@@
cho
thtuan@@
intellig@@
India
pnai@@
itiz@@
Mar@@
hen
Just
"Fi@@
ordinary
tnnm@@
easi@@
charu
naingae
sin
lik@@
Uni@@
program
oep@@
present
raoyu
khamcheื
wonr
raopai@@
chatt@@
chutthi
tiny
fy
phomtham@@
dition
uem
asking
ngman@@
thou@@
yak
techni@@
terri@@
mean@@
ct
1.@@
gger
drug
phuka@@
ech
brought
wet@@
osi@@
sil@@
truth
fun@@
lak
ptai@@
hold
ly@@
deep
vie@@
mkan@@
nuat
baini
าchaiw
fast
fav@@
pumi@@
recogni@@
phuakman
mine
lapt
bangkab@@
ono
fal@@
zing
rais@@
pnatpkhamsamre
seri@@
maen@@
cess
onr
challeng@@
intheon
ren@@
าnt
hemuen@@
18
growth
าanai@@
raope
limit@@
connected
omkap@@
samnuat@@
ause
thane
nately
ately
womkan
khonhel
achi@@
sear@@
eye
invest@@
sutthi
hospit@@
langtakthi
nthan
Do
specially
cut
laethamhai
khopkunmakkhnap
chec@@
set@@
lng
utely
ats
phommi@@
moti@@
"At
suc@@
chnat@@
generation
pak
ices
girl
khongde
fue
smai@@
าyn
gen
poin@@
sungkhue
ans@@
net
anak@@
elue
og@@
ning@@
/
gir@@
tural
gh
ould
ybe
commun@@
thin@@
okan
mom@@
lear@@
org@@
publi@@
figu@@
bli@@
sity
itiit@@
Ju@@
yes
resul@@
organ@@
stand
thers
)@@
materi@@
incredi@@
particu@@
stem
phue@@
happ@@
beli@@
exam@@
sic
contro@@
gro@@
sem@@
ei@@
oิ@@
secon@@
buil@@
Wh@@
ฤ@@
Go@@
exper@@
very@@
knapuan@@
chakoet@@
thangt@@
khom@@
phna@@
duce
TE@@
hair
gy
fore
popu@@
dise@@
hal@@
phena@@
ready
dia@@
hund@@
E
snap@@
devel@@
ea@@
000
dol@@
P
taek@@
Americ@@
L
ris
perc@@
auti@@
search
nally
khng@@
pni@@
perso@@
kun@@
sn
bant@@
ame
lions
ู@@
aughter
ngae
khuapkhu@@
mes
Q@@
complet@@
imag@@
und@@
ous@@
ends
resp@@
som@@
scri@@
dia
khamsamre
divi@@
nd
doent@@
standing
0
phant@@
..@@
educ@@
yk@@
yae@@
governm@@
oy@@
ound
naeok@@
mark@@
belie@@
throu@@
peni@@
forma@@
answ@@
khuap@@
whe@@
X@@
phrueti@@
rom
makkhnap
ole
mbers
dah
ouse
real@@
wonder@@
thnnmta@@
mong
U.@@
ff
ca
chil@@
Afri@@
piec@@
cour@@
econ@@
you@@
lack
sul@@
economi@@
”
cer
anaikhue
ours
dn
liter@@
chint@@
fel@@
wam@@
stead
Mu@@
ality
lob@@
W
chal@@
pnaati@@
fund@@
rit
abil@@
naiy
ecu@@
ough
reco@@
behavi@@
mber
kantuek@@
watntn@@
formation
quic@@
maen
etting
samp@@
yangk@@
khnop@@
ouldn
kue@@
comple@@
lion
fron@@
“
whi@@
wpm@@
member
ably
N
H
glob@@
bet@@
$
ener@@
nut@@
teri@@
sapt
import@@
wnai@@
ema@@
oce@@
omn
oriak@@
opportun@@
quot@@
fiel@@
ain@@
ึ@@
busin@@
langu@@
nee@@
pow@@
power@@
ross
tion@@
The@@
!@@
mov@@
F
vide@@
etng@@
ogra@@
oks
asattn
hos@@
chiwit@@
f-@@
simp@@
leng@@
uar@@
&apos;@@
pnatp@@
pant@@
tran@@
itueng@@
ruatre
q
doe@@
kh.t@@
doite@@
sim@@
App@@
theon
ordi@@
เ@@
Inter@@
nary
compu@@
feel@@
phrue@@
ddle
with@@
lig@@
realiz@@
utes
rand@@
oteon
prob@@
’
gover@@
U
pop@@
techno@@
interest@@
chum@@
entu@@
damno@@
​
kly
eks
v
NA
Y
stion
khenue@@
&@@
J
augh@@
sically
amnang@@
taiy
centu@@
ssa@@
tatt@@
gram
X
verage
recog@@
é
haps
difficul@@
.t@@
til
bangka@@
oice
knam@@
_
atten@@
stems
é@@
khnit@@
sankh
thiti@@
Ear@@
kher@@
ew
Int@@
questi@@
yochon
lars
=
ื@@
ems
del
dren
+
mol@@
beauti@@
rought
pnatit@@
#
compan@@
knon@@
á@@
Q
mach@@
sour@@
maikam@@
^
tty
asat@@
ู
ou
hat
ó@@
í@@
Yor@@
ople
ysi@@
eci@@
knowle@@
year@@
selves
snun@@
proble@@
atre
Z
q@@
chnt@@
phutt@@
begin@@
ount
khena@@
eas@@
gether
reds
port@@
sands
racti@@
paะ@@
ã@@
know@@
viron@@
actly
แ@@
ç@@
tates
ั
amen@@
pmue
beha@@
ween
hind
eah
ö@@
ไ
grow@@
sianguan@@
apos@@
ild
intel@@
nex@@
plet@@
@
;"
ฺ@@
—@@
j
è@@
ü@@
♫@@
ใ
&#93@@
phioteon
imph
เ
dividu@@
waet@@
tech@@
them@@
Amer@@
nited
ï@@
ttop@@
look@@
bunn
í
pattu@@
อ@@
~
²
–
ñ@@
á
è
your@@
♪@@
ø@@
amant@@
ฺ
*
ึ
™
®
£
…
Á@@
ไ@@
ô@@
ร
fficul@@
ican
่
upok@@
happen@@
¿
à
ì
ä@@
ย@@
ย
Ă@@
Ť
É@@
ø
Å@@
Č@@
​@@
‘
ī@@
\
ó
ě@@
û@@
ā@@
แ
ú
τ
∇
ใ@@
¥
ๅ
%@@
theknon@@
