,
.
."
the
να
to
a
of
και
το
and
&quot;
that
in
είναι
I
που
is
η
it
you
&apos;s
we
ο
τα
την
για
από
με
του
σε
this
της
ή
—
ένα
θα
αυτό
on
ότι
οι
τη
was
δεν
τους
are
ι@@
στο
μ@@
ed
for
αν@@
τ@@
α
π@@
μια
)
have
κ@@
:
es
ες
τον
γ@@
δ@@
re@@
they
μου
e@@
m@@
αν
an
b@@
χ@@
with
ρ@@
ing
in@@
σ@@
d@@
p@@
ική
ο@@
ει
λ@@
s@@
can
"And
at
μας
t@@
ν@@
what
στην
ία
-@@
as
(
g@@
&apos;t
be
τις
έ@@
ά
i@@
about
And
"@@
β@@
h@@
ές
o@@
f@@
ά@@
or
all
φ@@
θ@@
των
στ@@
;
ό
ικό
one
ουν
not
c@@
ω@@
al
a@@
ε@@
α@@
ί@@
ήταν
&apos;
st@@
l@@
n@@
ια
do
ω
δι@@
an@@
r@@
ό@@
my
ικά
ουμε
there
en@@
ους
Και
&apos;re
s
πολύ
y
e
people
?
like
from
our
ar@@
Μ@@
u@@
ερ@@
σας
η@@
so
S@@
άν@@
me
εξ@@
ε
ος
υ@@
li@@
εις
αλ@@
επ@@
"Και
ξ@@
but
ών
απ@@
προ@@
on@@
αρ@@
ας
al@@
w@@
ων
just
er@@
very
ρο@@
αλλά
out
το@@
ιο
όταν
M@@
ac@@
στη
ύ@@
"So
us
ης
these
ατ@@
de@@
συν@@
εν@@
ι
ώ@@
Σ@@
Κ@@
y@@
by
ασ@@
τι
ιστ@@
αυτή
if
ly
ου@@
μα
them
di@@
ικ@@
απο@@
Π@@
ή@@
ελ@@
er
up
πως
more
or@@
t
παρ@@
αφ@@
he
ει@@
νο@@
ευ@@
ής
going
ation
when
It
ts
C@@
it@@
had
ίας
έχει
at@@
v@@
know
ro@@
ακ@@
tion
ate
were
con@@
un@@
ζ@@
as@@
εύ@@
So
because
τρ@@
see
their
how
ετε
ent
think
ti@@
ση
εί
αγ@@
άλ@@
ως
le@@
B@@
get
ρι@@
who
P@@
ers
ικές
σαν
αυτά
ισ@@
which
A@@
μία
would
your
vi@@
στον
αστ@@
επι@@
ίες
ντ@@
πιο
really
D@@
ri@@
ου
time
m
k
here
στα
άρ@@
ού@@
&apos;ve
όρ@@
Α@@
αμ@@
αμε
ός
κατ@@
κρ@@
ιν@@
ψ@@
o
way
υπ@@
«
&apos;m
We
k@@
where
κάτι
world
en
δο@@
has
πο@@
1@@
εκ@@
then
άσ@@
Ε@@
ex@@
actually
el@@
T@@
προσ@@
sp@@
μπ@@
πλ@@
»
ορ@@
έχουν
?"
σκ@@
όπως
ί
some
n
into
Τ@@
"I
sh@@
don
th@@
me@@
se@@
os@@
ετ@@
The
om@@
years
will
ώ
now
z@@
λο@@
si@@
ra@@
εδώ
τι@@
αι@@
ad@@
ar
ηση
εται
things
other
ting
μετ@@
πρέπει
able
d
έχουμε
μόνο
go
Laughter
λογ@@
αί@@
G@@
είτε
είς
σι@@
ds
χρόνια
am@@
μο@@
εία
O@@
em@@
want
ic@@
βρ@@
could
ένας
μπορεί
H@@
ally
been
ol@@
τη@@
Η
L@@
"But
ιά
έλ@@
τ
make
ικής
ούν
es@@
ma@@
ν
Είναι
κλ@@
αρχ@@
Το
;"
ότητα
εια
Δεν
R@@
"(
♫
il@@
su@@
δε@@
Αυτό
ec@@
κι
κο@@
us@@
h
op@@
ap@@
But
F@@
εσ@@
ul@@
ab@@
ity
right
mo@@
N@@
ς
έρ@@
ματα
lo@@
ήσουμε
ur@@
μά@@
κόσμο
p
εφ@@
ag@@
E@@
than
something
l
ήσεις
Γέλια
per@@
said
ίν@@
Ν@@
στις
thing
ks
μέσα
Γ@@
pro@@
ποι@@
first
ούμε
much
no
ch@@
de
πράγματα
ητ@@
ve
λοιπόν
ήσει
W@@
έτσι
ot@@
"It
ωρ@@
those
for@@
μένα
work
έναν
άνθρωποι
two
par@@
ver@@
δρ@@
im@@
also
qu@@
ci@@
χρησιμοποι@@
καλ@@
αντ@@
όν@@
th
περ@@
λη@@
This
υπο@@
ρα
age
καθ@@
δημιουργ@@
εί@@
"Now
σα
όλα
I@@
et
κάθε
.@@
est
little
περι@@
tr@@
look
όσ@@
"The
ματ@@
J@@
ice
υπάρχει
έν@@
κάνει
ated
back
2@@
δύο
ter@@
got
αδ@@
ou@@
αυτές
co@@
ous
γιατί
γραφ@@
only
πώς
χρ@@
αβ@@
te@@
over
τόσο
ted
"We
τώρα
κάνουμε
life
most
need
day
ne@@
ine
You
say
ού
many
ώς
μπορούμε
όμ@@
tra@@
ic
his
πι@@
even
"Π@@
ίσ@@
ολ@@
her
Αλλά
take
she
se
its
ence
επειδή
str@@
to@@
is@@
ικών
pre@@
-
ter
σου
le
Β@@
um@@
εργ@@
Ο@@
They
πραγματικά
Applause
κτ@@
ηγ@@
did
κά@@
"Σ@@
new
19@@
"Έτσι
end
όλ@@
x@@
sc@@
Δ@@
kind
μένο
"Μ@@
όπου
εκεί
pl@@
come
μετά
ωση
tions
"Α@@
lot
ha@@
πρ@@
ir@@
and@@
όχι
ding
bo@@
Λ@@
"Ε@@
around
τρόπο
ον
άς
λ
sa@@
ch
ανθρώπους
j@@
ον@@
εγ@@
different
"In
we@@
τε
gi@@
good
ήματα
κιν@@
be@@
red
Χειροκρότημα
έσ@@
οποίο
μένη
bi@@
cl@@
"Αλλά
θε@@
through
g
fi@@
ies
king
every
είχε
use
πάνω
υγ@@
fe@@
"Το
ήρ@@
x
ant
car@@
i
gre@@
πολ@@
ύ
υν@@
εμ@@
άγ@@
am
3@@
συ@@
same
ents
θη@@
αση
ved
down
ance
being
&apos;ll
ιτ@@
κάνουν
ίζει
c
Ο
ωτ@@
ζωή
That
ημ@@
πριν
br@@
ge
αλλ@@
ob@@
K@@
ical
5@@
αχ@@
Θα
ful
οποία
"Η
μη@@
Φ@@
ήσω
ons
What
μό
10
sion
put
ite
Χ@@
αντι@@
στους
ary
pe@@
Έ@@
ty
ating
ans
στη@@
ect
any
la@@
tic
ill@@
γεν@@
doing
Ό@@
ce
inter@@
ακόμα
όμως
λι@@
called
είο
hi@@
αθ@@
πραγματικότητα
τύ@@
παιδιά
κατά
έφ@@
own
οντας
τυ@@
"A@@
ations
sts
lic@@
Ι@@
συμ@@
αυ@@
ment
υπάρχουν
ων@@
percent
γκ@@
wor@@
όλοι
αζ@@
άξ@@
ώστε
ανο@@
νος
A
επίσης
"
ίδια
fa@@
κ
έπ@@
als
κολ@@
"Αυτό
po@@
κου@@
ke@@
ta@@
όλο
απ
έψ@@
ties
που@@
μαζί
pr@@
βι@@
ονται
old
τες
πρό@@
ικού
au@@
gu@@
&apos;d
tri@@
ded
ρού@@
4@@
μη
mar@@
5
three
σήμερα
ph@@
ever
ώντας
πάρ@@
st
"You
the@@
ιλ@@
today
tive
σης
year
χρόνο
made
50
ves
απλά
enti@@
cre@@
human
!
ρί@@
"This
οδ@@
pres@@
ενός
ψη
let
όσο
καν@@
τότε
id
προς
tell
wh@@
bu@@
φορά
πτ@@
ήσουν
ών@@
gr@@
Οι
ατε
find
ws
well
ουλ@@
ικός
w
ειδ@@
στρ@@
μπορούν
why
άζ@@
μέρος
Ρ@@
ev@@
bl@@
πά@@
com@@
ni@@
sur@@
ver
used
πολλά
ιστορία
είμαστε
κα
ess@@
change
άλλο
περίπου
ιδέα
body
μέ@@
fact
άσεις
είμαι
όμαστε
idea
Y@@
tre@@
μαι
μι@@
min@@
ούς
ce@@
Thank
dis@@
ύρ@@
"If
ay
ερ
σύν@@
do@@
εντ@@
τος
ημα
ποτέ
"S@@
σχ@@
ίζουν
λος
ose
didn
ικοί
υτ@@
τσ@@
ρ
ηθ@@
der
ings
rec@@
V@@
ίδιο
περισσότερο
ότ@@
προσπαθ@@
great
ad
b
oc@@
ors
ps
άβ@@
talk
αυτούς
gen@@
started
ικούς
tu@@
μελ@@
after
"O@@
μιλ@@
story
0@@
μέρα
so@@
λόγ@@
ig@@
υσ@@
είπε
θυ@@
έχω
μπορείτε
θεί
λέ@@
"Τ@@
άζει
ked
παν@@
low
άδ@@
Έτσι
ίζ@@
ηλ@@
άμ@@
oo@@
uc@@
20
went
sol@@
wing
There
παράδειγμα
should
Ά@@
he@@
σ
ble
μή@@
ning
κοινων@@
4
σύ@@
κάνω
ent@@
άμε
έχ@@
sho@@
il
tic@@
before
αξ@@
ρος
no@@
πίσω
εων
νομ@@
φορ@@
ρο
βασ@@
φέρ@@
αντί@@
course
μ
νού@@
"Είναι
λίγο
"They
together
ροφ@@
fl@@
τερ@@
important
εάν
last
"Αν
might
ge@@
2
better
bit
μικρ@@
άει
give
big
άσει
inv@@
μπο@@
γι
τρο@@
φορές
δε
ακτ@@
ving
less
never
ίδα
ing@@
πάντα
περί@@
ms
ago
ικαν@@
ίσως
νου
πρόβλημα
part
still
ήγ@@
7@@
8
place
cr@@
res@@
ters
system
thought
ξη
does
brain
στιγμή
εγώ
ke
cri@@
αναπ@@
&quot;"
wr@@
few
came
χαρ@@
problem
νται
οποί@@
θέ@@
off
δείτε
μηχαν@@
ήσ@@
όν
δυνατ@@
dic@@
cor@@
δέ@@
φων@@
exp@@
ίου
μή
υλ@@
δικ@@
ue
βγ@@
him
μέχρι
ying
another
μο
απλ@@
comm@@
ιακ@@
Τζ@@
comp@@
00
ύν@@
τού@@
ve@@
λοι
συμβαίνει
ast
loc@@
έβ@@
φτ@@
άλλ@@
"Well
3
ακού@@
οποι@@
Τι
6@@
πω
τί@@
είχαν
μένες
θρ@@
each
γον@@
"Ο
found
νέ@@
9@@
ίσουμε
all@@
"Τώρα
είν@@
είται
again
next
ακόμη
ight
εθ@@
ατο@@
ώσει
start
πί@@
He
σύστημα
Now
30
δουλειά
"Κ@@
μαθ@@
des@@
tly
...
show
wa@@
γράφ@@
φαντ@@
ut@@
έκ@@
καν
ισμό
ins
χωρίς
wi@@
ώσεις
πατ@@
eff@@
"Δεν
fin@@
20@@
σκεφτ@@
ργ@@
id@@
between
σημ@@
άφ@@
example
εβ@@
κύ@@
κάποια
6
αρκετά
ρούμε
μερ@@
είδ@@
πο
γραμ@@
question
gra@@
"Όταν
fac@@
ιών
έπρεπε
ματος
ιδι@@
act
ακριβώς
gh@@
ιζ@@
ir
man
ory
νέα
water
ευτ@@
ness
ass@@
9
ευχαριστώ
έρα
πρώτη
children
200@@
technology
ure
είχα
αυτός
ia
δυν@@
ότητες
mean
ru@@
man@@
αυτο@@
μον@@
ησης
εκτ@@
point
sy@@
data
αποτελ@@
άθ@@
our@@
εισ@@
αγορ@@
ay@@
πιθαν@@
ότητας
cho@@
φρ@@
συνεχ@@
καρ@@
λέγ@@
using
too
έχετε
αυτού
επαν@@
ήσαμε
υρ@@
women
looking
Αυτή
ost
έμ@@
καλά
cap@@
έδ@@
ste@@
try
πράγμα
διαφορετ@@
πρόσ@@
pa@@
μην
pos@@
ήμουν
μένοι
"M@@
r
ειρ@@
γνωρ@@
θετ@@
gener@@
αίνουν
πετ@@
αία
ati@@
καθώς
λύ@@
ven
der@@
κάτω
Σας
understand
πηγ@@
έξ@@
ασία
7
wanted
Τα
σημαίνει
doesn
ταξ@@
άζουν
ξεκιν@@
ίσει
φτι@@
produc@@
les
done
plan@@
ιο@@
ates
ποί@@
pri@@
ain
μεταξύ
U@@
spe@@
ήμ@@
γι@@
mon@@
um
ist
ζωής
information
ger
.000
Th@@
ear@@
long
sk@@
βαθ@@
live
go@@
βλ@@
ήλ@@
μένος
%
άκ@@
έλεγ@@
μεγάλη
ser@@
any@@
may
How
λα
στε
ίκ@@
κοιν@@
είας
light
αυτ@@
away
&#91;
ist@@
δούμε
άλλη
γίνει
real
ειας
βολ@@
όλες
χρον@@
ach
&#93;
ισα
ore
πολλές
δί@@
person
"Έ@@
Εί@@
εμπ@@
μεγάλ@@
δίν@@
pic@@
οδηγ@@
υ
λέει
call
Ch@@
love
ther@@
ήθελα
ten@@
"Για
μπορείς
βοηθ@@
διαφ@@
ησε
line
ίζουμε
σπίτι
άλλα
θέλω
sort
παί@@
ημερ@@
σημαντ@@
τυχ@@
οργαν@@
,"
always
φύ@@
κρατ@@
Έχ@@
μακ@@
school
μός
mat@@
power
develop@@
Γιατί
δια@@
believe
θηκε
διακ@@
ution
ass
νομίζω
βλέπετε
ειες
million
μπορούσε
res
πάν@@
"When
πήγ@@
Δι@@
εταιρ@@
ερα
μεν@@
hum@@
Μπορ@@
σημαντικό
1
μιας
χτ@@
χή
,000
eng@@
8@@
ome
ώσ@@
αρκ@@
εχ@@
val@@
gs
τελ@@
means
Wh@@
ληρ@@
ff@@
sec@@
είδος
εκατομμύρια
λειτουργ@@
bre@@
country
αυτόν
στι@@
τεχνολογία
S
"Οι
υπερ@@
ίδ@@
πραγματ@@
αίν@@
κυ@@
face
ίζεται
"Th@@
μορφ@@
φυσ@@
form
oti@@
όλη
ήσετε
int@@
times
ask
por@@
Αμερ@@
working
ην@@
took
ουσι@@
έκανε
gro@@
ακολουθ@@
room
αριθ@@
είσαι
ανθρώπιν@@
sig@@
prot@@
ative
τον@@
trans@@
oun@@
γίνεται
ep@@
book
ones
γυναίκες
νοι
sup@@
συγ@@
four
whole
κανείς
end@@
άν
από@@
ry
θερ@@
θαν@@
αίο
κα@@
trying
et@@
μάθ@@
αίνει
φυλ@@
ther
ύπ@@
λού@@
ici@@
έξω
πολιτ@@
ase
off@@
ood
φω@@
αυτήν
αναλ@@
feel
f
ell@@
αισθ@@
"T@@
ics
ουρ@@
πρόκειται
ard
μπορώ
ώσουμε
δυ@@
θέλ@@
wal@@
έγ@@
ζω@@
παλ@@
σχετικά
λίγ@@
καταστ@@
όμενο
ang@@
λο
coll@@
create
el
βο@@
thinking
βλέπ@@
anc@@
βάλ@@
ently
help
κόσμος
everything
ali@@
est@@
sub@@
μού
100
mor@@
comes
χρειάζεται
money
χο
lim@@
άπ@@
πρώ@@
star@@
υφ@@
home
εκατό
μέν@@
dri@@
γύρω
προσωπ@@
become
πρώτο
TED
κοιτ@@
είρ@@
ξέρετε
άσουμε
play
ομαι
λοκ@@
όδ@@
θε
ιμ@@
sing
maybe
αύ@@
wat@@
κάποιο
"Θα
Let
expl@@
ασκ@@
οί
social
ιπ@@
μεγάλο
making
kids
number
οικονομ@@
χειρ@@
χώρα
μάτων
ηρ@@
ήριο
συστ@@
πέ@@
tal@@
άχ@@
πόσο
future
καταλάβ@@
app@@
up@@
λά
Πρ@@
ill
second
ess
δεδομένα
ήξ@@
παίρν@@
ber@@
έχεις
"There
best
όλους
κάποιος
land
ώνει
διά@@
κατασκευ@@
ust
χωρ@@
ήν@@
έ
15
ανθρώπων
μυ@@
sit@@
τρόπος
sense
φιλ@@
ong
small
read
νι@@
kay
συγκεκρι@@
ath
possible
ζητ@@
εν
οι@@
μές
πιστεύω
Υ@@
άρχ@@
κό@@
ίων
ασχ@@
happened
quite
self
dge
φαίνεται
set
εικόνα
ίγ@@
ot
mis@@
μέσ@@
παγκόσ@@
ζή@@
είες
νερό
wed
σχεδόν
υχ@@
getting
αιτ@@
lives
fol@@
πρω@@
e-@@
ands
θηκαν
ειν@@
μοι@@
συμβ@@
μισ@@
εδ@@
γρ@@
τηση
"Εί@@
"That
εντρ@@
food
respon@@
onal
φυσικά
enough
ways
Well
κάνεις
κάποι@@
άστ@@
καμ@@
iz@@
άξουμε
ak
dec@@
υμ@@
αστικά
μό@@
αιν@@
talking
iting
side
space
uni@@
♪
tor
five
ack
κι@@
θέμα
"Γ@@
left
har@@
ηματ@@
πιστεύ@@
high@@
son
περισσότερα
Ήταν
ital
gg@@
Here
βλέπουμε
ίζω
θεση
κακ@@
care
ωσης
ίλ@@
fu@@
θεωρ@@
σει
μερικές
ομάδα
wee@@
equ@@
μπορ@@
countries
φόρ@@
In@@
dre@@
μικρό
τοπ@@
ωμα
αυτοί
τεχνολογ@@
επιτρ@@
εμάς
design
Κά@@
ήκαμε
"Ό@@
αίσ@@
τια
φαν@@
παρα@@
led
ιατρ@@
form@@
te
cer@@
told
realiz@@
col@@
ήμα
ines
γλ@@
μερικά
ship
hard
γνώ@@
νύ@@
σχεδι@@
ability
συγκ@@
πό
φι@@
εαυτό
"He
"E@@
cells
coun@@
πλέον
without
δουλεύ@@
νε@@
"Β@@
av@@
energy
tics
οικογέν@@
ηθεί
ται
ενα
ell
cont@@
άση
struc@@
είστε
τούν
ese
ght
interesting
επιχειρ@@
saw
coming
ισμός
χν@@
acti@@
Αν@@
ack@@
ασίας
art
tur@@
Υπάρχουν
across
ίκτυο
"Έχ@@
mag@@
"Λοιπόν
διαβ@@
men
τέλος
ήματος
κορ@@
Πώς
αγγ@@
βιο@@
ously
imag@@
suc@@
χώρες
mem@@
Πολ@@
ward
ατα
ητές
bot@@
ism
είχαμε
κομμάτι
ices
Υπάρχει
pretty
experience
tw@@
ψε
πιστ@@
"Πρ@@
μα@@
case
such
bro@@
επιλογ@@
σο@@
οπτ@@
ned
ld
family
living
κεφ@@
els
νονται
ητό
ca@@
καλό
phys@@
ύς
"Οπότε
ουσ@@
ran@@
καινο@@
ality
sure
"Δ@@
probably
ster
άκι
jo@@
Τώρα
σημείο
τελευταία
though
ain@@
σεις
makes
dollars
όσα
cul@@
αστικό
τέτο@@
τοις
όκ@@
Ας
ah
anything
ene@@
"B@@
τημα
fore@@
δεύτερ@@
No
comple@@
cur@@
sen@@
μος
building
παγ@@
ίδες
ences
ner
ην
rop@@
μέλλον
τίποτα
pi@@
stuff
moment
λένε
ped
μόλις
ξανά
δεκαετ@@
ξε
speci@@
sive
ηλικ@@
ξέρ@@
εργαστ@@
build
νευ@@
μούς
happen
παράγ@@
half
acy
ασε
billion
μοιρ@@
else
ολογ@@
αντιμετωπ@@
ικότητα
hand
simple
ωθ@@
σκέφ@@
οσ@@
dd@@
ments
asked
επικ@@
στηκε
ανακ@@
,@@
40
vol@@
play@@
άω
stre@@
young
att@@
evol@@
happens
ίδι@@
war@@
νες
έντ@@
γίν@@
ίζονται
ετο@@
dra@@
συλ@@
works
mind
imp@@
tical
ote
scienti@@
nor@@
ank
ούτε
days
λέξ@@
ωσε
θεσ@@
πόλ@@
picture
move
health
science
παιδί
hel@@
ωπ@@
are@@
ols
Africa
Επ@@
διαδ@@
μετρ@@
having
tru@@
Why
ely
ζ
wn
π
τρεις
φάν@@
τηγ@@
δείξω
απλώς
δύσκολο
cle@@
μέρ@@
τέσσ@@
ace
char@@
serv@@
sions
says
car
cam@@
can@@
du@@
νό@@
ens
single
ίως
ευρ@@
τρία
seen
learn
New
des
ected
stri@@
επιστ@@
άδες
process
ατο
cen@@
almost
ολόκ@@
cu@@
μέσω
δοκι@@
dr@@
ελπ@@
poli@@
κάποιον
όμενη
chang@@
ses
over@@
εγκεφ@@
tures
κάνετε
city
είπ@@
reason
10@@
δηλ@@
"What
far
έγινε
αιρ@@
gir@@
εσάς
later
Πρέπει
dep@@
DNA
"Στην
ωστ@@
κόσμου
ώρα
ροσ@@
inside
Ναι
φίλ@@
εμείς
top
fe
Κο@@
ome@@
οικονο@@
κίν@@
60
συμπερι@@
logi@@
while
per
ισκ@@
ις
σκοτ@@
ήθηκε
child
ghts
αρμο@@
αλήθεια
ωτερ@@
καλύτερα
connec@@
σώμα
ically
ενέργεια
ited
ώνουν
bas@@
ειδή
Earth
high
ισμού
άζουμε
’
sm@@
sed
κύτταρα
χάρ@@
άνε
μικ@@
μού@@
matter
An@@
tional
αφέρ@@
duc@@
νοντας
disco@@
aff@@
os
όγ@@
ψηφ@@
words
ϊ@@
προβλήματα
δεύ@@
fun@@
αερ@@
ήδη
lar@@
"F@@
συμπ@@
βιβλ@@
public
ταν
order
Οπότε
goes
άλλους
ture
head
doc@@
τρα
sum@@
ότερα
δύναμη
γκ
οδο
organiz@@
προστ@@
direc@@
ακή
ασφαλ@@
ρον@@
όμουν
turn
ενδιαφέρον
ασταν
τρί@@
εσαι
είπα
μένου
καταλ@@
tion@@
σχέση
bad
mark@@
Μπο@@
πληροφορ@@
πέντε
ft
οικο@@
εκείν@@
computer
ουσία
wrong
Α
ars
ement
υπολογιστ@@
Θε@@
sim@@
εφτ@@
ερευν@@
remember
μικρο@@
αλλαγή
θέση
anding
δες
ling
saying
cha@@
άτομα
Ω@@
rel@@
ερν@@
looked
τέλ@@
μπορούσαμε
government
Κι
ίζετε
ώματα
yet
πάθ@@
nothing
myself
ς@@
ασθεν@@
chall@@
ερώτηση
σσ@@
ησα
answer
ξαν@@
είδους
Μπ@@
ειλ@@
both
ought
"Αυτή
United
vel@@
tici@@
διαφορετικά
emp@@
cra@@
Να
deci@@
όβ@@
planet
άρια
cep@@
problems
desig@@
vity
fil@@
aliz@@
πολλοί
σπ@@
hund@@
συχνά
οντ@@
logy
bers
exc@@
ικο@@
υκ@@
άρι
ined
often
σαμε
γρήγορα
cess
δάσ@@
έκανα
αυτών
ντ
κάπως
δική
global
κάν@@
σχολ@@
within
άλλον
γν@@
έζ@@
γε@@
clu@@
oper@@
whether
αστείτε
ven@@
πλανήτη
project
ow
history
υπήρχε
progra@@
Ευχαριστώ
εκείνη
πάει
ed@@
όχ@@
prin@@
έπει
θεραπ@@
μεγ@@
ily
Βρ@@
αγαπ@@
dies
θήκ@@
εστε
80
άξει
vely
"C@@
sh
ages
αϊ@@
τεχν@@
έρχεται
ects
λόγος
ideas
men@@
cop@@
ριζ@@
μέρες
κλη@@
open
πού
ασης
γυναίκα
ασα
ach@@
υψ@@
αφορά
ele@@
άλλες
shi@@
ίσω
ξεκίνη@@
ately
υπηρ@@
mother
ρου
ενεργ@@
ξέρω
όμορφ@@
συνεργ@@
ώρ@@
action
πρωτ@@
σία
ότερο
αγωγ@@
arti@@
already
ετά
ομιλ@@
χημ@@
τού
μένων
έργ@@
heard
"Φ@@
στοιχ@@
ns
επτ@@
D
κομ@@
ery
Ξ@@
tim@@
ίσουν
μέρη
εργαλ@@
typ@@
ases
πάλι
πληροφορίες
"Τα
ιού
igh@@
group
σουμε
imagine
ταχ@@
διαδικασία
αινε
αγρ@@
out@@
ick
όντ@@
εθν@@
χα
fre@@
ησαν
education
μαν@@
pati@@
ότερ@@
βαρ@@
τούμε
τελικά
hope
ικτ@@
"For
0s
"As
περιβάλλον
basically
vo@@
έα
contin@@
incredi@@
θηκα
lead@@
αποκαλ@@
true
μάζ@@
ούνται
friends
εύω
ape
καλύτερ@@
amazing
αυξ@@
κατάσταση
ήρια
χές
Εδώ
"I@@
"Κι
incre@@
fer@@
Θέλω
fic
ιν
"Because
αυτοκίνη@@
χώρο
enc@@
πόλη
ύλ@@
σφ@@
βί@@
τεράστ@@
σύμπ@@
keep
ces
ενώ
materi@@
Αφρική
"Αυτ@@
ιμο
bio@@
όμεν@@
μοντέλ@@
βρίσκ@@
ort
πάρα
her@@
mil@@
ερωτ@@
εση
video
ούσε
ίνα
ous@@
φωτογραφία
business
ut
ογ@@
ώσουν
ξεχ@@
άχιστ@@
dia
ep
μπορούσα
πορ@@
once
τητα
ήθ@@
ατρ@@
αλλαγ@@
ετικά
ise
συνειδητο@@
κε
someone
κυρ@@
guy
υψηλ@@
όνο
μαζ@@
stitu@@
περίπτωση
tation
χιλιάδες
not@@
species
under@@
περισσότερ@@
fra@@
κε@@
αίρ@@
dev@@
ire
"Σε
gets
ίσαμε
σωστ@@
experim@@
pers@@
εξελ@@
individu@@
piece
view
Ζ@@
βελ@@
inc@@
άσω
underst@@
sity
States
επίπεδο
χορ@@
fic@@
months
τροφ@@
music
power@@
δεξ@@
ανάμεσα
εξαιρ@@
word
bly
σταθ@@
allo@@
looks
τελευτ@@
φωτογραφ@@
αναγν@@
Νομίζω
βρίσκεται
εμφαν@@
bring
μένως
St@@
community
αποτέλεσμα
δει
ψυχ@@
ering
wasn
αντικείμ@@
κάποιες
μεγαλύτερ@@
αυτής
issu@@
osp@@
stu@@
learned
άτες
κοσ@@
παραγωγ@@
νόμ@@
τοπο@@
six
αρι@@
δυο
ναι
night
nature
σπουδ@@
happening
"Με
εστ@@
άζονται
ρούν
duce
σχολείο
ori@@
Because
stories
bor@@
ide@@
υπέρο@@
wonder@@
ξ
spec@@
society
Ντ@@
ίσεις
τρι@@
μπροστά
άσουν
προκαλ@@
control
wit@@
συνήθ@@
ξης
δείξ@@
Mus@@
γραμμα
σή
tors
cess@@
flo@@
tran@@
ατού@@
καρκ@@
sti@@
ζουν
ult
job
σίγου@@
12
μικρή
beautiful
ευση
V
αίσθηση
sch@@
τέ@@
hy@@
students
ορισ@@
jects
ειτα
isn
κατανο@@
She
σταματ@@
απάντηση
οφ@@
dom
vir@@
στόχ@@
places
ανά
λί@@
Pe@@
ion
fully
διά
aw@@
ounds
ελέγ@@
εζ@@
ber
bri@@
ats
δολάρια
παθ@@
εξηγ@@
port
became
universe
posi@@
μαστε
ισε
χρειάζ@@
ple
prof@@
ink
until
taking
ast@@
research
under
λάθος
thre@@
ker
must
κλί@@
"&quot;
θέλουμε
exactly
"Μπορ@@
εβδομάδ@@
αδή
πρότ@@
ten
μιλήσω
αρέσει
παι@@
λου
αγων@@
ject
K
ive
γεγονός
βίντεο
ιδέες
πειρ@@
dig@@
study
En@@
decided
"L@@
table
αρχή
level
μοι
couple
χρήματα
δύσ@@
ευθ@@
ενθ@@
These
ground
cog@@
electr@@
σκέψ@@
ale
ωθεί
created
χρει@@
ential
τερα
νιώθ@@
μέλ@@
σωστά
pain@@
τί
some@@
Ή@@
net@@
λιγότερο
ourselves
completely
ss
όνη
επικοιν@@
μεγαλύτερο
tual
ark
ping
Re@@
Αν
περιοχή
woman
μυαλό
μει@@
τησε
demo@@
cancer
διάρκεια
τηρ@@
ξεκ@@
πυρ@@
built
λέω
ful@@
meas@@
άνει
ll
πληρ@@
μεγαλύτερη
house
wer
appe@@
αξιο@@
συντ@@
εύει
boo@@
επιτυχ@@
παρακ@@
μαγ@@
ιση
My
κάναμε
μήνες
εποχή
solu@@
appro@@
στοιχεία
εμπειρία
ποιος
πεθ@@
γαλ@@
αναπτύ@@
μεγαλ@@
αισ@@
καλή
ενο
ομ@@
έρας
reli@@
since
ωσα
αρρ@@
χέρι
provi@@
against
huge
India
stop
clos@@
χαμ@@
"Επ@@
κυβ@@
itself
name
ching
είδη
behavi@@
Ar@@
ular
άξη
ls
news
σχεδιασ@@
consi@@
share
θούν
run
language
κυβέρν@@
έτες
ari@@
περισσότεροι
γνωστ@@
δικό
γυρ@@
εκατο@@
διατ@@
ξει
dru@@
che@@
κοντά
state
C
win@@
ρωτ@@
acc@@
Ίσως
kinds
βιβλίο
σχετ@@
knew
χρό@@
tun@@
shed
Internet
ish
gl@@
καιρό
Θ@@
ίο
ήθελ@@
τησα
λε@@
ton
καταφέρ@@
απολ@@
προϊ@@
Η@@
πήρ@@
themselves
κερ@@
questions
yp@@
ur
uses
νέο
century
φοβ@@
ματι
συμβεί
90
turns
teach@@
ανθρώ@@
large
Ένα
hear
καλύτερο
φυτ@@
συσκευ@@
loo@@
heart
ules
κίνη@@
phone
mic@@
inst@@
φί@@
ys
"Εάν
ιστορ@@
mus@@
ey
ακα
ective
cept
rather
vered
έκαναν
hours
απο
"H@@
everybody
Αυτός
ομάδ@@
God
outh
όρια
dy
worked
ets
ots
φυ@@
ητική
κοιτάξ@@
ευτυχ@@
φο@@
τρόπους
lea@@
everyone
πληθυσ@@
fiel@@
re
pu@@
επιστήμ@@
κοινό
γράμ@@
πια
tle
sli@@
nam@@
ιστορίες
παιχν@@
βάση
δω@@
δικαι@@
elling
τηκα
χώρ@@
απάν@@
One
ree
pul@@
τέτοιο
ace@@
sometimes
Πο@@
μπλ@@
πος
kno@@
Έχουμε
αδι@@
cle
model
arly
u
ool
μπορούσαν
bur@@
μάτια
ονομάζεται
ποια
logical
adv@@
see@@
ανάγ@@
σωματ@@
learning
γενν@@
αργότερα
έσεις
ection
έξι
front
δυσ@@
ples
λέπ@@
ήχ@@
ήρα
μοί
ώρες
κορί@@
στρατ@@
έτ@@
πόρ@@
ματική
άτε
Ηνω@@
άτ@@
ουσα
αμβάν@@
μητέρα
25
ντας
ιδιαί@@
ισχυρ@@
Είμαι
ξέρουμε
πάμε
άτων
σημασία
sted
διο
διάφορ@@
καταλαβ@@
αναρ@@
βασικά
ησυχ@@
αντί
ched
others
ινή
δημο@@
ινό
περισσότερες
environment
μουσ@@
όλου
tain@@
υπόλο@@
αιώνα
t-@@
thousands
national
ίδρ@@
liter@@
changed
αληθ@@
0,000
φάρ@@
cir@@
past
ονταν
λει@@
έστ@@
λοντ@@
ind
λό@@
Παρ@@
ότητ@@
εντελώς
"D@@
particular
ουν@@
sel@@
θέσ@@
structure
κη
ιες
άτομο
opport@@
άλι
σειρά
techno@@
pot@@
Άρα
interest@@
έφτ@@
ented
Al@@
Με
ant@@
stor@@
πλήρ@@
ple@@
ουργ@@
mi@@
M
foc@@
ρυθ@@
viol@@
συνέχεια
conver@@
ga@@
gave
πέρ@@
disease
machine
νούν
μακρ@@
key
ual
ake
Eu@@
Αρ@@
εκτός
κέντ@@
aper
διαχ@@
σύγ@@
ερε
λέξη
αζε
sound
τό@@
σκέφτο@@
along
φως
ues
κοινωνία
dro@@
70
becom@@
σε@@
bar@@
rest
fund@@
ροι
known
συνέβη
οστ@@
illions
ate@@
ris@@
δημόσ@@
America
ech@@
αλληλ@@
ολόγ@@
bed
ening
bra@@
ανάπτυξη
πρόσφ@@
ησι@@
tually
διαθ@@
self-@@
σκοπ@@
feel@@
vari@@
ouldn
least
outside
δισεκατομμύρια
stra@@
αξι@@
lots
λαμβάν@@
βρή@@
ωνία
ινά
on-@@
διαφορά
cell
culture
τέχν@@
χω@@
νευρ@@
ακό
αστη@@
company
wards
ητικό
με@@
ανθρωπ@@
instead
)"
"N@@
τραγ@@
αίνουμε
κατάλ@@
φαγ@@
fir@@
11
ext
άλου
υπό@@
Google
μακα
αντικ@@
βαση
πρώτα
Ξέρ@@
stry
νας
ared
turned
όντως
παρά@@
father
όλων
πεδ@@
Για
ator
won
φοιτητ@@
indu@@
kers
American
περιο@@
chan@@
elec@@
αγν@@
πολλούς
τιμ@@
happy
γνωρίζουμε
παραδ@@
ώνεται
difference
έρο@@
εγκέφαλ@@
ner@@
γλώσσα
tom@@
hor@@
"A
cy@@
εκπληκτ@@
ολού@@
σες
oll@@
υμα
ινο@@
αλλάξει
qui@@
Μουσ@@
ούσαν
θημα
μουσική
sible
οποίες
πολλ@@
acter@@
σκο@@
af@@
εικόνες
φύση
ητής
γράψ@@
ανό
entire
test
ροτ@@
ύχ@@
πλευρά
έρευνα
σώ@@
chem@@
grap@@
sor@@
έθ@@
ηλεκτρ@@
Ευρ@@
παρά
relation@@
πούμε
num@@
ισαν
Ιν@@
dent
παιχνίδι
χα@@
ich
πολιτισ@@
λειτουργεί
κυρι@@
engine@@
καταπ@@
row
beg@@
ordin@@
διότι
far@@
έσει
communic@@
οπλ@@
εσε
ζωντ@@
δρόμο
needed
στημα
ord
μοιάζει
χη
ματο@@
cities
πόλεις
διαφορετικές
taken
colle@@
animals
ημο@@
dist@@
ΗΠΑ
parents
δείχνει
άσταση
βιομηχαν@@
"Κά@@
Εντάξει
Όχι
είσ@@
παρουσι@@
mul@@
jour@@
αξία
early
πόδ@@
ither
ηλεκτ@@
χώ@@
όνες
κλι@@
Χρ@@
somebody
natural
figure
"Wh@@
sting
18@@
ποσ@@
έδει@@
ηματο@@
αστική
size
θέλετε
ήστε
couldn
easy
ενδιαφέρ@@
ound@@
ευκαιρία
μετατρ@@
Γη
anci@@
ούλ@@
οργ@@
αρκετ@@
patter@@
επιστήμη
ροπ@@
λούν
μακριά
ze
παρατηρ@@
takes
είου
game
Ξέρετε
innov@@
ίνονται
air@@
θέλουν
ious
θυμ@@
Ήμ@@
compan@@
Ινδία
war
ματικά
reality
ature
πει
ατολ@@
πράγ@@
sil@@
έργο
conf@@
ότερη
όνο@@
επί@@
ώσω
pur@@
based
surpri@@
εικο@@
Αυ@@
ώπ@@
black
Λοιπόν
κώ@@
systems
νταν
terms
minutes
αστεί
sequ@@
y-@@
seeing
"One
νοώ
tis@@
bab@@
κάλ@@
thy
σοβαρ@@
assi@@
China
ετρ@@
ισμούς
έρχονται
economic
maj@@
Gre@@
είλ@@
ύψ@@
mental
ερώ@@
friend
ελευθερ@@
βά@@
know@@
given
ail@@
bility
bir@@
ώνουμε
regi@@
τζ@@
αμα
finally
arch@@
όνια
καταν@@
ater
δημοκρατ@@
βρίσκονται
Άρ@@
ίσης
"W@@
βαλ@@
needs
run@@
νικά
T
Is@@
difficult
εύουν
άνθρωπος
ενέργ@@
επιστημον@@
curr@@
απίστευτ@@
αρπ@@
υπολογιστή
ency
ασφάλ@@
μέγ@@
ining
list@@
περιλ@@
compu@@
καλλιτ@@
εκπαι@@
αλλάξ@@
kill@@
born
scale
νωρ@@
200
λεπτά
άχν@@
επιστήμον@@
medi@@
pt
αριστερ@@
εγγ@@
όμενα
ώνες
τηλε@@
ίδι
scre@@
during
έρθ@@
θέσεις
certain
καλύτερη
image
εκπαίδευση
Con@@
York
τως
ποσο@@
third
χρήση
guys
ιστεί
ψα
photograp@@
close
In
ποι
ho@@
abor@@
ey@@
free
famili@@
If
log@@
χέρια
διαδικ@@
θηση
επο@@
τηκε
μορφή
dience
δελ@@
All
reas@@
αποφάσ@@
fish
εκεί@@
cal@@
Αγ@@
άζεται
mess@@
"Όμως
καθαρ@@
Γου@@
ταινία
εκτικά
μένους
τελει@@
died
γρα@@
ize
beginning
felt
ανακάλ@@
μαθηματ@@
ευθύν@@
Στ@@
μετακ@@
posed
αναζ@@
μπό@@
αποφασ@@
P
ax@@
νοσο@@
eyes
ming
αματ@@
Χρει@@
perhaps
trac@@
verage
Αυτά
Αφ@@
ough@@
tin@@
neur@@
ύτερ@@
μάτι@@
τρό@@
ασθέν@@
διορ@@
od
χής
φτιάχν@@
vement
population
δευτερ@@
σχέδιο
λες
ίρ@@
behind
longer
δημοσι@@
κόκ@@
πλού@@
εξέλι@@
sour@@
άζω
ζώα
ισχύ@@
δήποτε
consci@@
τιδήποτε
leave
defin@@
ju@@
λέψ@@
moving
εγκέφαλο
αξε
εμά@@
began
άντα
middle
growth
perf@@
άντρ@@
οιχ@@
priv@@
ετών
"Ήταν
political
μοναδ@@
μν@@
ιστικά
χαρακτηρ@@
φτω@@
πλα
δεδομένων
assion
quick@@
amount
ονομάζ@@
simply
οπότε
ανακαλύψ@@
μέτρ@@
economy
επηρε@@
κο
απαντ@@
ωμ@@
repres@@
"Όπως
νεύ@@
δώσω
Σε
atten@@
U.S@@
άσχ@@
χρειαζόμαστε
ρέφ@@
πολιτική
περιμέν@@
kes
partic@@
δη
κες
year@@
αφορ@@
ΐ@@
δολ@@
τσι
δία
ήποτε
ταρ@@
πλη@@
παιδ@@
ήμερα
ωματ@@
read@@
υπήρχ@@
ere
αζόμαστε
Ή
ational
ople
nec@@
poin@@
δώ
ems
ήκ@@
αμβ@@
άνθρ@@
heal@@
τισ@@
υση
fo@@
αποφ@@
ήθεια
tain
δεί@@
ειά
ητο@@
κολο
ye@@
/
αι
my@@
!@@
ειρο@@
R
illi@@
O
eci@@
υπολογ@@
every@@
μως
δύ@@
στιγ@@
συνέβ@@
exam@@
ότε
ζώ@@
differ@@
και@@
econom@@
tely
ίστ@@
wer@@
δισ@@
experi@@
ound
om
Θέλ@@
κει@@
organ@@
θ
ακριβ@@
δουλ@@
κόσ@@
δρόμ@@
ki@@
ώνα
όνα
soci@@
ιατί
ans@@
βλέ@@
Z@@
εικ@@
όμα
τω
fr@@
ells
oss
δείχν@@
μπορού@@
Υπ@@
anim@@
ental
ποτ@@
stud@@
πραγ@@
πους
lear@@
άνθρω@@
νερ@@
ken
ause
happ@@
thr@@
grou@@
op
univer@@
wan@@
μητ@@
ili@@
άψ@@
ιατ@@
κομμά@@
iness
hear@@
εκατομμύρ@@
eas@@
pop@@
ends
Γέλ@@
lon@@
λιγότερ@@
χιλι@@
΄
vel
Ε
tech@@
lan@@
hop@@
ths
είμ@@
z
δευτ@@
ile
ρυ@@
ord@@
γυν@@
bus@@
B
..@@
000
G
thers
λεπτ@@
very@@
είχ@@
πού@@
Σ
εμπειρ@@
ole
ys@@
govern@@
fore
Μ
απίστ@@
ενδιαφέρο@@
γμα
Αφρ@@
Αυτ@@
too@@
contro@@
φ
secon@@
mer@@
ably
mach@@
plac@@
οπο@@
χι
org@@
Π
ονο@@
publi@@
έρν@@
mom@@
stem
επίπεδ@@
environ@@
cent@@
beli@@
ευν@@
ϋ@@
TE@@
κοντ@@
ατος
χαριστ@@
ίνη@@
εκατομμ@@
ψη@@
Afr@@
ταιν@@
ρν@@
ama@@
Ί@@
κύτταρ@@
buil@@
Un@@
ick@@
γέν@@
sear@@
fri@@
Ap@@
fam@@
phot@@
ird
gh
βλέπου@@
προβλ@@
ough
ready
ϊ
δημι@@
ograp@@
mation
βλη@@
aughter
ould
εγκ@@
ave
Americ@@
σχεδ@@
Q@@
Κ
und@@
διαφορ@@
X@@
zing
econ@@
ince
import@@
thous@@
E
ισσ@@
χρή@@
ότη@@
μερα
γύρ@@
whe@@
call@@
πρεπε
»@@
Chin@@
ντε@@
φωτο@@
lit@@
sing@@
μορ@@
socie@@
ίς
uring
pat@@
ff
devel@@
ανάπτυ@@
gy
exper@@
ouse
ανακαλ@@
ισχ@@
άρκ@@
eri@@
ays
L
won@@
hu@@
educ@@
dle
piec@@
aps
thin@@
έγιν@@
υπήρ@@
ανθρ@@
minut@@
ural
γεγον@@
augh@@
ησιμοποι@@
U.@@
νω@@
πλανή@@
mid@@
δημ@@
ωγ@@
ποτε
ακολου@@
$
πλευρ@@
πολι@@
πότε
αίνεται
σπί@@
ulation
infor@@
dise@@
έχν@@
βρίσ@@
τητ@@
beau@@
belie@@
ησιμο@@
κάπο@@
δεδο@@
μηχ@@
divi@@
εκπαίδε@@
resear@@
ντεο
rom
H
γλώσ@@
&apos;@@
cou@@
όλις
·
cour@@
ply
β
Τ
Χειρο@@
of@@
ίκτυ@@
λον
ντάξει
tter
ριά
doll@@
tting
dat@@
stead
άμεσα
Γ
resp@@
net
όμη
lob@@
ame
quot@@
ιδέ@@
μμ@@
ευκαιρ@@
αντιμετ@@
μοντ@@
chil@@
ine@@
kin@@
περιβάλ@@
glob@@
καιρ@@
γρήγορ@@
ours
Ω
εδι@@
συνέχ@@
δομάδ@@
was@@
ατό
N
fron@@
δείχ@@
fel@@
hal@@
συχν@@
χ
ιλι@@
ασκευ@@
έρχ@@
relati@@
Ψ@@
δύναμ@@
άθος
Β
q
πλαν@@
ury
nat@@
member
cent
ήν
ώθ@@
ριβ@@
μυαλ@@
αριστ@@
αστε
thou@@
ener@@
κονται
σχέ@@
άμε@@
ληλ@@
τεχ@@
Χ
έρευ@@
nd
ίγου@@
υπάρχ@@
F
δύν@@
πλέ@@
dn
πρόκει@@
επε
κανα
vide@@
ne
nee@@
&@@
ility
illion
fig@@
pub@@
langu@@
youn@@
ενδιαφ@@
Ευ@@
επιστή@@
Ρ
X
twe@@
0
Ι
J
άδει@@
πληκτ@@
Inter@@
σειρ@@
συχ@@
έλι@@
♫@@
v
NA
prob@@
πληθ@@
haps
κρότημα
amoun@@
ica
W
συνειδ@@
Yor@@
f-@@
ϋ
έκαν@@
έντε
μεταξ@@
dren
sci@@
vern@@
Y
ποτα
Υ
γυναί@@
diff@@
Ύ@@
νολογ@@
Λ
ew
εκρι@@
–
tries
ques@@
ισσότερ@@
μένο@@
:@@
U
άτο@@
παράδει@@
Νομ@@
ένε
may@@
επηρ@@
“
inno@@
commun@@
é@@
Ώ@@
port@@
diffic@@
μάδ@@
=
stems
é
Ό
—@@
”
ancer
πτωση
acr@@
Goo@@
μπροστ@@
pret@@
inning
Ν
τουργ@@
til
ou
proble@@
gle
Λο@@
εκτρ@@
επικο@@
παίδε@@
Ear@@
έσσ@@
―
+
beauti@@
αποτέλ@@
q@@
φοι@@
Q
uch
ελώς
del
σκευ@@
δ
selves
έφαλ@@
with@@
ima@@
ανάπ@@
bec@@
^
beh@@
ημον@@
Δ
gether
χέρ@@
á@@
¨
ροφορ@@
γρήγ@@
άρκεια
them@@
λιτ@@
Z
‘
è@@
wom@@
viron@@
γ
#
actly
Φ
ευθερ@@
​
grow@@
@
κύτ@@
ΐ
ó@@
tween
beha@@
í@@
γότερ@@
χαρακ@@
♪@@
εσμα
δεκα@@
esn
Ζ
som@@
βλημα
ασθ@@
χαριστώ
·
σπου@@
´
ã@@
γεγ@@
−
᾽
apos@@
μέχρ@@
ö@@
ασφ@@
κρότη@@
plause
ü@@
&#93@@
ainst
˙
άνθρωπο@@
Υπάρχ@@
σως
ΗΠ@@
ñ@@
λλά
Θ
ó
*
j
nex@@
´
Ϊ@@
ä@@
πολλο@@
í
dividu@@
ανθρώπ@@
;
ç@@
·@@
…
ï@@
`@@
½

è
”@@
อ@@
µ@@
£
ΰ@@
á
ø@@
Amer@@
ā@@
γότερα
¾
É@@
ἀ@@
à
∙
â@@
΅
่
ร
Ἐ@@
;@@
°
²
%@@
happen@@
Ϊ
ě@@
ψ
ὐ
_
Έ
∇
Á@@
Ψ
ακολ@@
ὀ@@
¼
©
{
ī@@
ἰ@@
Č@@
¨@@
æ@@
û@@
ë@@
ē
ὀ
ย@@
Å@@
î@@
Ç@@
ê@@
Ō@@
ï
ย
Ἠ
ἐ@@
῾@@
–@@
Ἀ@@
Ξ

€
$@@
‎
¥
®

º@@
Ί
Ώ
ῦ
ό@@
ù
ī
ύ@@
¢
š@@
•
™
―@@
&#@@
ć
