,
.
."
the
a
to
of
&quot;
bir
and
in
that
ve
I
is
it
you
we
&apos;s
bu
&apos;
da
this
de
—
on
e@@
k@@
s@@
an
i@@
a@@
re@@
are
?
was
in@@
an@@
al@@
için
:
f@@
s
en
for
lar
)
g@@
de@@
at
ar@@
have
ler
m@@
y@@
c@@
p@@
S@@
ti@@
they
t@@
me
en@@
can
d@@
e
le@@
i
with
u@@
me@@
m
li@@
ma@@
k
"And
di@@
çok
r@@
la@@
be
(
ı
b@@
&apos;t
or
B@@
as
what
o
l@@
about
y
z@@
o@@
ing
-@@
And
ş@@
te@@
ki
all
daha
si@@
as@@
at@@
v@@
one
ç@@
es
t
n@@
se@@
not
ed
Bu
ra@@
or@@
er@@
do
ın
al
ya
ri@@
ver@@
M@@
there
my
&apos;re
like
ol@@
leri
mi@@
ak@@
people
ları
K@@
from
h@@
A@@
our
l
ce
be@@
so
st@@
T@@
un@@
il@@
her
on@@
p
ma
li
D@@
ı@@
var
sa@@
di
gibi
but
ac@@
olarak
dan
den
?"
just
mak
C@@
very
Ve
er
P@@
et@@
ay@@
ne@@
if
ha@@
im@@
these
out
u
şey
w@@
...
"So
up
ne
ğ@@
con@@
ly
da@@
yor
r
ur@@
le
E@@
us
lar@@
by
ter@@
ci@@
them
ü@@
su@@
H@@
more
"@@
know
it@@
G@@
yap@@
te
going
olan
ile
ar
he
bi@@
had
ek@@
when
ap@@
ad@@
kadar
It
because
d
ts
tion
lan@@
n
see
ce@@
mek
mi
el@@
"Bu
ta
"B@@
for@@
were
think
la
how
ine
get
"Ve
man@@
their
ama
ir@@
So
du@@
would
really
ye@@
ında
ların
which
who
time
gi@@
tu@@
your
ev@@
ge@@
ted
im
bir@@
&apos;ve
;
ım
ına
dı
here
lı@@
yoruz
bu@@
ta@@
iyi
ını
si
lo@@
değil
gen@@
way
O@@
se
th@@
j@@
where
&apos;m
has
ka@@
♫
ke@@
Y@@
world
hi@@
os@@
ab@@
fe@@
tı@@
We
F@@
then
ul@@
st
ro@@
bil@@
lerin
ini
iz@@
un
"I
dir
some
ş
into
actually
kal@@
ö@@
don
ex@@
sp@@
lı
ın@@
z
ent
lik
maya
inin
go
1@@
lu@@
ku@@
olduğunu
ının
yorlar
kar@@
den@@
yorum
will
R@@
now
iş@@
years
bunu
The
things
ation
Laughter
ü
ds
büyük
h
anla@@
mo@@
to@@
do@@
daki
ler@@
nasıl
bo@@
I@@
ca@@
yer@@
other
sonra
len@@
vi@@
lerini
could
co@@
ya@@
zaman
is@@
sadece
san@@
"S@@
been
ot@@
der@@
ik@@
cu@@
"But
want
"(
sel
make
yaş@@
mu@@
es@@
lık
he@@
ct
N@@
ic@@
kı@@
L@@
et
tra@@
min@@
"A@@
ola@@
par@@
çünkü
sh@@
right
ser@@
op@@
yar@@
ağ@@
per@@
inde
But
ge
men@@
ç
ter
mı
able
ate
so@@
aş@@
şekilde
sor@@
than
thing
kullan@@
baş@@
something
x@@
ni@@
geç@@
W@@
g
much
mü@@
dim
pe@@
iste@@
work
kur@@
ch@@
ally
"It
ye
ers
bak@@
those
ından
first
les
said
fi@@
az@@
th
no
çalış@@
tions
lara
also
ch
yan@@
iy@@
we@@
two
sı@@
pro@@
şu
lik@@
ok@@
pre@@
dım
little
This
gu@@
ası
back
ün@@
deki
İ@@
son
edi@@
ör@@
göster@@
got
look
mak@@
lere
ment
fazla
2@@
"We
ıl@@
ting
"The
um
ru@@
gerçekten
miş
over
önce
var@@
iki
konuş@@
iz
mp@@
aynı
yıl
life
um@@
tü@@
ou@@
ms
J@@
his
day
iler@@
ous
son@@
"Now
V@@
el
most
only
der
meye
yüz@@
ren@@
gel@@
need
ği
even
say
dü@@
You
yeni
alı@@
.@@
dır
man
us@@
yapı@@
many
ir
gör@@
tik
ede@@
"H@@
take
ken
ck
bul@@
"T@@
pla@@
car@@
tar@@
ten
gra@@
alan@@
lot
ik
"D@@
uy@@
hal@@
din@@
tan@@
inter@@
tüm
she
f
ır@@
benim
gre@@
kind
ak
ding
mış
başla@@
ko@@
har@@
alar@@
sin@@
ması
am
new
larını
sen@@
did
çek@@
come
hakkında
sti@@
around
"
unu
yaz@@
Applause
ben
sa
ve@@
kan@@
old
ity
tı
Ama
x
ilk
ise
3@@
söyle@@
kendi@@
ho@@
They
Bir
tive
yordu
different
po@@
kay@@
its
gün
hayat@@
zaman@@
bas@@
olduğu
sini
ön@@
cek
ey@@
down
ga@@
use
farklı
görü@@
size
bilir
il
cek@@
ek
c
"In
mas@@
yı@@
tre@@
bunun
sion
aslında
ence
bilirsiniz
biliriz
through
cal
good
dık
uz@@
mal@@
mı@@
iç@@
ti
every
cı@@
tr@@
ilgili
kat@@
ction
10
lu
içinde
ty
cı
sine
göre@@
same
insan
veya
ınız
cen@@
plan@@
lerde
qu@@
git@@
&apos;ll
insanlar
"O@@
ize
düşün@@
açı@@
küçük
mer@@
diğer
olma@@
bile
let
being
yok
Gülüşmeler
re
yol@@
A
yıl@@
yi
öğren@@
kap@@
ış@@
gü@@
tes
ble
kendi
That
olduğ@@
ara@@
dik
led
lardan
ls
spe@@
put
acak
tır@@
başka
arak
ım@@
sahip
"E@@
"K@@
isi
mb@@
mayı
şey@@
19@@
lü@@
öl@@
U@@
ana
od
may@@
ant
iş
inden
dis@@
am@@
b
ses
duy@@
ıyor
eğer
doing
onu
fa@@
ili@@
aya
sağ@@
any
dı@@
biri
ay
no@@
What
the@@
na@@
burada
miz
medi@@
diği
çık@@
klar@@
"M@@
şe@@
ded
şeyler
called
tal@@
biz
isti@@
lin@@
pri@@
bana
yapa@@
önemli
insan@@
bili@@
5
"G@@
tür@@
ran@@
sho@@
geli@@
larda
cre@@
tri@@
siz
red
pi@@
doğru
kları
tic
av@@
mon@@
res@@
percent
ite
"Y@@
made
pa@@
lerden
can@@
ph@@
sal
ız
"You
gh@@
sin
ci
poli@@
bizim
ties
mar@@
du
tan
imi
ki@@
una
-
yle
tly
gs
gerek@@
three
4@@
inan@@
cor@@
ever
"This
ah@@
kö@@
kil@@
&apos;d
dığ@@
men
ss
ama@@
dığı
ır
ken@@
ca
ws
yak@@
ves
ger@@
year
diye
w
min
iler
mek@@
ste@@
ved
lim
problem
mesi
today
change
siz@@
siniz
end
göz@@
ger
lerine
id
etti@@
ters
well
çı@@
tek
yarat@@
!
ans
human
doğ@@
4
dev@@
2
leş@@
yorsunuz
top@@
gün@@
tell
hiç
3
low
sı
olu@@
ad
ks
ling
own
insanların
gö@@
gir@@
ileri
fact
"P@@
va@@
als
tt@@
larla
bit
ten@@
ating
tak@@
çıkar@@
biraz
why
mor@@
oldu
An@@
find
"Ama
iye
gerçek@@
O
iyor
yas@@
king
cts
ging
est
20
ben@@
5@@
oy@@
tır
ose
oldu@@
idea
ner@@
"If
duğ@@
didn
50
bütün
unda
say@@
produ@@
less
şı@@
started
sal@@
yüzden
bilir@@
&quot;"
ary
lan
seç@@
cer@@
com@@
stru@@
cri@@
unu@@
after
unun
ındaki
body
tam
great
talk
ele@@
tim
ces
sed
geri
col@@
ali@@
oun@@
sy@@
age
kü@@
0@@
ımız
ges
ber@@
süre@@
wing
"N@@
Thank
büyü@@
wor@@
çalışı@@
tığ@@
ver
yon@@
ning
sınız
manın
ğini
az
vardı
ydi
sinin
yla
parç@@
ımı
There
sta@@
"They
yor@@
last
çöz@@
lığ@@
ere
şeyi
went
ep@@
might
yay@@
together
liği
before
zamanda
au@@
ons
big
ving
better
place
anda
tarafından
ılı@@
important
thought
used
malar@@
ments
alı
tım
On@@
lay@@
another
should
ünü
comp@@
course
aç@@
diğ@@
üzerinde
alar
yordum
give
off
"Yani
ark@@
never
part
cy
lerinin
nın
af@@
değiş@@
cap@@
still
cted
ala@@
ülke@@
let@@
story
tek@@
her@@
yer
him
neden
"Bir
bazı
istiyorum
eş@@
Ö@@
sinde
ğin
ort@@
rü@@
wh@@
came
bar@@
böyle
ago
pen@@
ic
fac@@
biri@@
tru@@
"İ@@
yon
ice
few
has@@
uç@@
6@@
üç
fin@@
fer@@
onun
Çok
fark@@
su
each
dol@@
Yani
dur
7@@
acak@@
üz@@
start
6
ast
show
ff@@
system
next
yön@@
,"
dır@@
tional
düşünü@@
water
yo@@
brain
ba@@
sts
tas@@
oluş@@
asında
ps
onları
20@@
yapmak
şimdi
"Şimdi
ortaya
kon@@
tasar@@
lerle
mış@@
bize
S
getir@@
again
oldukça
yet
ef@@
technology
ven@@
9@@
larının
does
ying
wr@@
bek@@
found
kit@@
sanız
alım
sayı@@
kor@@
yat@@
tin
ight
ies
7
"Well
meyi
Şimdi
yet@@
mil@@
Ben
aları
fakat
miz@@
dur@@
ğu
med
göre
lü
etmek
line
öyle
ars
Bir@@
kiş@@
dan@@
too
D
üm
fun@@
ey
bur@@
any@@
olmak
oluştur@@
30
bun@@
beni
yani
ip
bre@@
ful
eden
Ar@@
sev@@
alt@@
ry
gerçek
diğimiz
comes
mean
between
’
pu@@
Th@@
laşı@@
ori@@
fil@@
ka
example
ile@@
sig@@
blo@@
mes
bi
olacak
try
gin@@
üm@@
sız
under@@
question
data
point
diğini
ked
bağ@@
Z@@
tık
teknoloj@@
Al@@
gener@@
han@@
ül@@
cur@@
birkaç
ke
Ç@@
9
laş@@
cal@@
ünde
dön@@
ras@@
müz@@
ure
200@@
Ş@@
ced
nin
long
looking
light
ia
Bunu
He
yaşa@@
1
art
Alkış
chan@@
go@@
ze@@
karşı@@
kin@@
mizi
Ch@@
women
liğ@@
bulun@@
stri@@
yen@@
hu@@
sağla@@
using
understand
ach
ster@@
Alkışlar
boyunca
mizin
bab@@
children
pas@@
New
done
ob@@
güven@@
doesn
wanted
Bu@@
ist@@
koy@@
live
masını
trans@@
uzun
güzel
lerinde
land
düğ@@
araştır@@
tab@@
art@@
pek
ra
ins
larına
sebe@@
call
tür
ımızı
İn@@
ği@@
away
love
Now
wi@@
ther@@
kim@@
ur
devam
mez@@
belir@@
deği@@
arı
ness
diler
seniz
lıyor
ght
gı@@
pat@@
ila@@
za@@
always
ther
sort
sur@@
sü@@
may
ıp
eli@@
oluyor
sel@@
lea@@
"Eğer
bin@@
yı
tut@@
city
deney@@
exp@@
"C@@
indeki
def@@
real
stor@@
birçok
whole
bunlar
ayı
hay@@
bac@@
etki@@
form
onlar
tur@@
olabilir
Ü@@
leştir@@
dü
stan@@
acağ@@
working
pos@@
karşı
"F@@
olması
mız@@
ck@@
Fakat
ıyla
olan@@
stu@@
ings
dum
person
yüzde
8@@
8
lığı
sak
ill
eği@@
esi
trying
fu@@
met@@
tro@@
"When
muş
coming
unuz
school
ated
,000
yöne@@
million
information
believe
cü
gar@@
eri
elde
oğ@@
ima@@
cli@@
kazan@@
tic@@
ağı
test
zor@@
arab@@
üre@@
00
Çünkü
maları
çoğ@@
In@@
tor@@
help
mut@@
ones
stra@@
mize
tekrar
bah@@
imp@@
act
dılar
dünya
organiz@@
tamamen
ydı
ents
feel
değiştir@@
ğimiz
des
his@@
taraf@@
power
diğim
buna
bor@@
100
ışı@@
ort
develop@@
sol@@
times
eder@@
arı@@
sır@@
ince
öz@@
wa@@
dire@@
belki
means
ür@@
yaptığ@@
conne@@
leye@@
sür@@
prote@@
hastalı@@
kt@@
app@@
dir@@
lama
ğim
kullanı@@
vir@@
thinking
v
unuz@@
klarını
lerinden
ız@@
İşte
day@@
şek@@
create
ven
menin
four
ders
durum@@
sek
iniz
ban@@
took
"L@@
pe
tion@@
dönüş@@
country
biliyor
ctive
cho@@
dik@@
üne
15
acağım
ulaş@@
çiz@@
om@@
val@@
kötü
edil@@
id@@
room
dığımız
cin@@
wn
best
maz@@
tin@@
dığını
bura@@
zor
yerine
arasında
design
tik@@
ase
Kahkahalar
pic@@
birlikte
dri@@
cla@@
"There
everything
space
making
bilece@@
tir
become
olur@@
bilecek
etme@@
uni@@
orta@@
ınız@@
ona
geliyor
endi@@
How
side
money
izin
milyon
işle@@
small
pr@@
tting
sh
book
ors
sub@@
dünyanın
tir@@
ok
ju@@
ley@@
dedi
bit@@
miş@@
kaç
fark
mis@@
örne@@
hücre@@
landır@@
ırım
kişi
kids
future
kır@@
ard
res
est@@
Peki
number
imde
maybe
eye
wat@@
ss@@
&#91;
see@@
"Ö@@
sense
yok@@
üzerine
met
yük@@
ilerin
onların
yüksek
artık
çocu@@
bat@@
işte
set
home
anlat@@
üst@@
yapıl@@
enin
per
"That
çev@@
mey@@
izi
ty@@
&#93;
harika
fır@@
gereken
bölge@@
iri@@
inizi
dro@@
food
cak
görün@@
van@@
kadın@@
fe
ğı
ah
enough
versi@@
şöyle
ses@@
TED
umu@@
gn@@
quite
larında
ederim
je@@
ünün
sun@@
high@@
ged
hatır@@
olur
happened
yol
ici@@
fre@@
"&quot;
bel@@
getting
dal@@
br@@
değer@@
dış@@
ess
ations
ways
gelen
Wh@@
e-@@
kab@@
dra@@
energy
işe
gi
possible
sive
iliş@@
orada
len
mu
second
read
cut
ner
biliyoruz
social
rı@@
"Fakat
hiçbir
karar
inde@@
biz@@
sk@@
vardır
tama@@
play
erek
video
bilmek
respon@@
without
kız@@
mark@@
şim@@
Re@@
gin
ep
ştiri@@
five
bro@@
coun@@
wed
lives
pot@@
nokt@@
star@@
ome
Ger@@
ol
basit
etk@@
left
hareket
ing@@
mez
ili
care
mamız
cü@@
oo@@
interesting
resi@@
emp@@
equ@@
yu@@
ship
far@@
physi@@
cture
ton
bugün
ket@@
çoğu
"He
organ@@
probably
anın
ask
rıca
Mu@@
stuff
ital
fas@@
Ge@@
pretty
York
sistem@@
ned
Well
mizde
hayal
Gü@@
building
yürü@@
fol@@
benz@@
ney
dollars
countries
malı@@
yeniden
cs
inv@@
ll
ral
talking
dar@@
ans@@
Afrika
dre@@
onlara
tw@@
hareket@@
En@@
hale
bey@@
cra@@
ara
proje@@
leri@@
told
tane
meli@@
dent
ward
mişti@@
"Ş@@
pp@@
bizi
konusunda
days
che@@
oper@@
oku@@
bra@@
ıt@@
"On@@
yaklaşık
kıs@@
ancak
shi@@
saw
konu@@
ously
move
muş@@
gr@@
Hay@@
tele@@
top
family
Africa
düşü@@
zi
hen@@
üzer@@
colle@@
case
kı
şme@@
ming
ğ
olacağ@@
ımda
açık
ulu@@
siste@@
kol@@
toplu@@
if@@
across
car
net@@
half
keli@@
40
yim
ber
build
sonunda
sinden
dak@@
such
iti@@
sosyal
ome@@
geldi
madan
sizin
simple
düş@@
otur@@
ide@@
"I@@
bilirim
De@@
ets
Dünya
ediyor
şeyleri
okul@@
iting
ot
0,000
yardım
stre@@
dge
nok@@
V
bü@@
living
sto@@
lendir@@
having
uc@@
anything
yerde
ün
mol@@
ig@@
ism
Earth
speci@@
fik@@
comple@@
though
olmas@@
fikir@@
hız@@
happen
seen
moment
mızı
oran@@
unla
%
zen@@
alan
asked
kay
cle@@
Her
bal@@
works
fic
experience
ore
ols
model
desig@@
Bunun
neden@@
DNA
str@@
klar
kül@@
soru@@
düz@@
process
birbir@@
ıs@@
cells
liyor
hard
hisset@@
hemen
mişti
while
tely
cul@@
supp@@
ole
face
yorlardı
herhangi
tü
geçir@@
unlu@@
görünü@@
balı@@
hem
ünü@@
wal@@
lık@@
sure
sim@@
scienti@@
Amerika
sions
dağ@@
hand
almost
dığım
demek
ktan
war@@
ilginç
dört
böylece
young
Bü@@
cks
çevre@@
"What
makes
meye@@
effe@@
Teşekkürler
undan
oc@@
pres@@
malı
atu@@
grap@@
Ju@@
over@@
sing
duru@@
computer
rler
chi@@
bilmi@@
dy
ote
mıştı
nor@@
picture
learn
çocuk
Burada
giri@@
tors
science
aile@@
Ne@@
Mar@@
gan@@
later
off@@
nes@@
bilgi
ris@@
telef@@
turn
cation
of@@
num@@
ely
billion
tures
dr@@
cop@@
para
flo@@
düzen@@
dürü@@
önce@@
net
head
hızlı
gen
planet
gele@@
umuz
tical
olmayan
iniz@@
"O
gördüğ@@
od@@
happens
ğa
ices
suc@@
malar
yaptı@@
hala
sik@@
rela@@
layan
goes
obje@@
else
cep@@
savaş@@
inside
mer
high
ality
insanları
global
T
temel
eğ@@
fir@@
lük
etraf@@
iden@@
inanılmaz
eki
M
contin@@
project
ünüz
60
Evet
ze
"Th@@
lemek
ed@@
iyet@@
reason
Fran@@
Ay@@
zorunda
uk
ayr@@
pati@@
ası@@
far
tanı@@
Daha
larca
sız@@
ister@@
os
sonuç@@
labor@@
mate
mental
leme
sedi@@
B
mind
oto@@
içer@@
maz
solu@@
Eğer
bırak@@
ap
asyon@@
says
Let
often
istediğim
single
sat@@
rup@@
yu
disco@@
Ha@@
Ken@@
yaratı@@
ket
por@@
gest
dair
duk
kalı@@
He@@
cle
ede
C
taş@@
"W@@
olacak@@
na
şirket@@
yım
fotoğraf@@
bility
neler
.000
kork@@
etti
mesini
gidi@@
gaz@@
ns
soru
dikk@@
community
leyen
deci@@
are@@
pan@@
ip@@
amazing
bad
cess@@
Be@@
mda
geliş@@
haz@@
öyle@@
history
diğiniz
problems
bulu@@
ear@@
myself
cti@@
both
tim@@
already
araya
Why
San@@
hatta
ınızı
12
looked
matter
nothing
up@@
ilen
remember
Har@@
umuz@@
düm
fikir
ability
ences
cro@@
lüğ@@
pra@@
bilim@@
ideas
Bun@@
biç@@
cy@@
dünyada
months
boy@@
uş@@
Amerik@@
özel
gro@@
tran@@
altında
inf@@
ake
tu
ımızda
herke@@
bula@@
public
kla@@
ihtiyac@@
arti@@
imagine
cas@@
ghts
geliştir@@
ceğim
child
once
Ro@@
Aslında
paylaş@@
rol@@
kadın
gönder@@
health
ınızda
mesa@@
larından
yine
materi@@
yeter@@
cak@@
vi
yen
zorun@@
hayvan@@
sahi@@
karşılaş@@
cess
sorun@@
arkadaş@@
program@@
hope
tle
yal@@
teş@@
hepi@@
çalıştığ@@
sene
adam@@
cha@@
kleri
order
looks
kas@@
Le@@
şunu
tac@@
11
ong
ettim
durum
tics
bunları
bahset@@
değil@@
"Son@@
bilim
piece
vaş
don@@
Internet
ros@@
çıkı@@
whether
person@@
cing
zer@@
tum
Or@@
Mo@@
fazla@@
inc@@
Ne
gor@@
table
saying
sar@@
radi@@
ut@@
güçlü
başladı
teh@@
within
els
someone
business
expe@@
late
ctions
sah@@
para@@
mese@@
eli
şeyin
des@@
heard
words
tor
incredi@@
om
incre@@
taşı@@
vely
0s
hikaye@@
iyle
normal
answer
"For
İnsan@@
mad@@
söyleye@@
Sa@@
Di@@
acı@@
"Because
diye@@
ide
insanlara
kaynak@@
vice
eni
asıl
lamak
anal@@
olution
ine@@
d-@@
lk
memiz
individu@@
ilgi@@
aların
Biz
80
birşey
nı
bence
oloj@@
keep
group
ika
mümkün
yan
ined
beautiful
tem@@
wrong
anne@@
built
sek@@
bilgisayar@@
anlam@@
wer
ünden
miyor
alın@@
ist
six
teknoloji
çe@@
nature
bring
enerji
rken
dies
çocuk@@
yakın
biy@@
örnek
ıyorum
ily
malıyız
kontrol
gets
inşa
uzak@@
oyun@@
"As
mız
guy
ach@@
dru@@
tarih@@
enti@@
ıt
kad@@
anti@@
places
sion@@
cev@@
open
öğret@@
since
diz@@
meden
kez
milyar
t-@@
basically
Ma@@
kabul
sli@@
ımızın
hazır@@
ğiz
ğimizi
nü@@
mik@@
mother
em@@
neredeyse
issu@@
sahip@@
değildir
çeşit@@
bri@@
gla@@
pol@@
temp@@
stitu@@
hy@@
indu@@
sizi
adam
gitti@@
ıdır
haf@@
tur
vo@@
tron@@
koru@@
kça
zar@@
bilgi@@
government
Ancak
ince@@
herkes
job
ımın
gezegen@@
dedim
dolar
üç@@
lem@@
cated
appro@@
acağız
standing
yılda
,@@
night
tivity
fak@@
leriyle
özel@@
deli@@
Se@@
evren@@
G
under
true
dene@@
düny@@
laya@@
ately
dür@@
ğun
gene@@
ology
air
önem@@
photo@@
çi
house
sü
yaşam
iç
abilir
yolu
phone
happening
yere
aring
vere@@
ihtiya@@
isn
"Aslında
key
mot@@
durumda
luk
sanat@@
ron@@
United
hepsi
wit@@
until
rada
wasn
uç
ish@@
fra@@
crea@@
sorun
robot@@
ri
0
dönü@@
taking
sil@@
experim@@
lulu@@
raf@@
güne@@
kayn@@
bilin@@
control
det@@
against
run
bly
genç
completely
uğra@@
stop
jo@@
bot@@
"U@@
friends
bazı@@
ut
sınır@@
özellikle
Afri@@
lions
heye@@
rou@@
içine
arken
learned
Ye@@
yapmaya
Bi@@
söz@@
real@@
dom
ümüz@@
ite@@
olduğuna
win@@
species
sın
list@@
ple
tun@@
söy@@
word
mode@@
woman
ire
share
kaç@@
presen@@
hun@@
culture
"R@@
couple
iletiş@@
gördüğünüz
ourselves
Nor@@
dok@@
became
lim@@
thre@@
serv@@
allo@@
stories
fli@@
Sadece
bundan
parçası
inno@@
She
hi
view
pay@@
)"
ctor
beş
istan
mikt@@
los@@
some@@
My
arac@@
ching
film
meas@@
No
tif
clos@@
R
run@@
outh
boyut@@
hiz@@
decided
yapar@@
yorsun
kim
research
ounds
ran
duygu@@
Baş@@
society
These
Mars
profes@@
yeti@@
uyor
must
"Bir@@
U.@@
"İn@@
proj@@
everybody
bet@@
Ara@@
ground
lak
199@@
müş@@
ank
meyen
ory
Google
tanım@@
tation
posi@@
uza@@
itself
yorduk
sey@@
üret@@
benzer
türü@@
telli@@
olo@@
reli@@
tel@@
Because
çağ@@
bilg@@
kan
ada
10@@
questions
big@@
hâ@@
meleri
bilgisayar
exactly
kah@@
25
dil@@
gide@@
doğal
P
biliyorum
education
gerekiyor
arkada@@
hear
maktan
eski
kısa
aten
uygula@@
communi@@
compu@@
knew
ual
level
ish
ha
düşündüğ@@
int
sıyla
Neden
disease
görüntü@@
cağ@@
cell
muz@@
cting
bon
tain@@
hü@@
themselves
gösteriyor
muh@@
music
huge
suz
manız
kullanarak
Here
Tan@@
tual
cancer
beli@@
study
America
kolay
fle@@
animals
yanlış
evri@@
bilirler
dikleri
stic
reco@@
Te@@
mic
alak@@
out@@
ul
large
söylü@@
değişik@@
keş@@
keşf@@
company
kinds
bunların
created
değildi
sometimes
ture
j
Böylece
Li@@
kat
front
prin@@
ımız@@
sen
umu
koş@@
hep@@
ılmış
imle
başladım
universe
cir@@
States
ared
ba
gelen@@
shap@@
hours
appe@@
vücu@@
fla@@
everyone
lerdi
dük
name
alıp
taki
hor@@
ost
One
India
başarı@@
likle
"Ben
arasındaki
heart
ering
soci@@
pet@@
yoktu
duğu
sever@@
şekil@@
yorsanız
oli@@
tedav@@
ag@@
vide@@
bakar@@
opport@@
ind
gran@@
Çocu@@
düşünün
Euro@@
layı@@
ada@@
vari@@
cept
ched
Bunlar
sound
araç@@
hav@@
liter@@
eyi
ık
engine@@
ster
işi
ized
century
ful@@
ör
ime
imin
instead
sis
Tamam
yiz
behavi@@
sonraki
şeye
üzere
teki
bıra@@
tığı
kans@@
cip@@
gider@@
şaşır@@
mam
yapan
worked
bilecek@@
"A
ots
altı
ouldn
thousands
past
ayd@@
finan@@
aper
hafta
environment
least
ihtiyacımız
rit@@
"Ancak
ologi@@
sit
couldn
sürü@@
action
kutu@@
Af@@
ordin@@
yaz
ance
önemli@@
state
ilgilen@@
versity
ucu
masına
open@@
olmadığını
ecu@@
inizde
süre
ly@@
trol@@
şti@@
rağmen
consi@@
vered
yü@@
lerimiz
nedir
ene@@
rather
gelir
boz@@
elki
mev@@
bileceği
Kahkaha
görüyorsunuz
diğer@@
derece@@
sible
..."
Su@@
"Bu@@
fish
erkek@@
sch@@
güç@@
görebilirsiniz
stance
uz
kişi@@
national
wan@@
sla@@
tah@@
hakk@@
teşekkür
beri
mun
sını
olojik
mal
cou@@
Çin
robot
K
diğinde
turns
qui@@
mos@@
seviye@@
news
açıkla@@
ştir@@
Do@@
black
düşünüyorum
cat@@
toplulu@@
row
sını@@
eling
air@@
"Her
turned
mber
saat
systems
biliyorsunuz
kçe
insanın
çocuklar@@
vur@@
lue
conver@@
çalışan
Pro@@
mıyor
lots
mem
geçen
kaf@@
wer@@
outside
lebilir
bilen
dy@@
based
dayan@@
cid@@
ayak@@
parents
figure
ışık
Son@@
yukar@@
engel@@
machine
Par@@
ısı
dokt@@
kâ@@
tually
ilg@@
hayat
modern
wards
bakı@@
sürü
Ben@@
changed
ade@@
öğrenc@@
focu@@
70
gerekti@@
diniz
ple@@
war
etmeye
bed
yse
reality
along
olup
"Çünkü
father
çö@@
ell
düşünce@@
üz
scale
language
happy
gelecek
known
larımız
bin
bakın
yük
cities
jour@@
dolayı
tahmin
Size
uses
pul@@
bay@@
şu@@
lardı
Gre@@
omi@@
ow@@
birisi
sil
Baz@@
ölçü@@
others
ele
harit@@
ian
somebody
diri@@
yaptığı
müş
early
gerek
We@@
relation@@
thy
toplum@@
tıcı
ilmiş
ucu@@
learning
aw@@
van
ıyoruz
gelece@@
ıma
takes
kno@@
comm@@
ikinci
entire
verici
won
God
elektri@@
sic
eve
bileceğini
alış@@
taken
şehir@@
ğer
technologi@@
imiz
bazen
natural
spi@@
vision
seeing
ec@@
fer
yapıyor
arada
Video
ton@@
particular
dly
ese@@
cally
neur@@
"One
patter@@
difference
muhtemelen
bağlan@@
cu
gan
self
moving
expla@@
fel@@
mik
milyon@@
çift@@
cial
gave
risk
part@@
kin
başına
bire@@
enerj@@
ayı@@
needed
recor@@
getiri@@
ith
Şu
eğitim
dia@@
companies
hangi
hol@@
kop@@
vis@@
mat@@
mous
vak@@
düşündüm
sam
ala
ihti@@
kri@@
minutes
close
"Bun@@
sağlık
davran@@
anima@@
500
ümüz
lation
Sonra
gın
şans@@
archi@@
alet@@
sun
paz@@
"Bunu
kul@@
stry
ekonomik
okyan@@
students
viol@@
baktığ@@
asına
Oh
za
eks
düşüne@@
pur@@
asını
"Ay@@
free
Benim
American
self-@@
miyorum
dünyayı
ult
maj@@
hükü@@
merkez@@
000
Hindistan
konu
team
If
ğine
binlerce
Con@@
hikaye
kendini
"Burada
tün
Dev@@
electri@@
rap@@
cos@@
yaptığımız
Au@@
was@@
strate@@
yardımcı
rece@@
program
Her@@
büyük@@
fizik@@
lat@@
doğru@@
malarını
tesi
dün@@
scre@@
Jap@@
clu@@
hir
klı
indi@@
fav@@
beyin
Na@@
died
beraber
lardır
middle
dığında
our@@
difficult
sequ@@
olsun
leave
â@@
rı
ğe
çarp@@
mers
ither
ining
parti@@
yıldı@@
sö@@
olved
liğin
200
terms
mine
osp@@
ham
sav@@
eceğim
metre
tou@@
din
verage
famili@@
atı
bile@@
Ri@@
economic
regi@@
kesinlikle
Joh@@
began
görmek
tis@@
lor@@
çeşit
ners
pt
inclu@@
tec@@
o-@@
makta
Car@@
fect
olsa
wil@@
sevi@@
perhaps
audi@@
ımıza
tuğ@@
ature
tal
tradi@@
field
cent
market
beginning
grow
population
görüyoruz
arası
bileceğiniz
şi@@
enek@@
China
bette
fo@@
dey@@
bes@@
H
mın
shed
ft
Da@@
rate
In
seven
saat@@
kız
sour@@
üreti@@
behind
ınca
mektir
during
kla
tiv@@
sistemi
area
şid@@
ellikle
work@@
"İşte
ina
göz
lerce
image
sürekli
parts
ound
third
gili@@
topla@@
dışında
ayır@@
vement
heal@@
şeh@@
ilere
lanmış
çekten
vac@@
r.
hep
haline
easy
graph@@
grup
bağlı
hikay@@
cost
dıkları
eyes
alarını
unity
kimse
destek@@
born
olay@@
cevap
karmaşık
almak
yiye@@
Biz@@
küresel
tically
non@@
şü@@
guys
ınday@@
ink
/
kaldır@@
ys
güç
humans
ow
beyn@@
hat@@
cannot
ete
sci@@
finally
ettik
çalışma
needs
extra@@
ister
başar@@
lıkla
adı
zih@@
book@@
l-@@
gerektiğini
ayn@@
lığın
yaşayan
bon@@
nun
acağını
elec@@
posed
dayız
kurtar@@
model@@
iyordu
anlamına
olduğumuz
veri
öylece
takip
bers
tane@@
provi@@
meliyiz
hil
nedenle
leme@@
leyici
chemi@@
powerful
media
walk
teach@@
realized
sul@@
ait
tiş@@
yağ@@
raz@@
E
Co@@
mekan@@
asla
artı@@
atten@@
ently
culu@@
dışı
konuda
siyle
oyn@@
All
mp
vil@@
Teşekkür
ases
kavra@@
muz
edin
kli
rol
teşem
ar-@@
haber@@
fik
bileceğimiz
sıra@@
kler
certain
yılında
cl@@
laz@@
iden
amount
democra@@
alık
extre@@
hatever
tartış@@
yapılan
bağlantı@@
friend
madı
üstü
gh
wonderful
anlar
atmos@@
matema@@
lece@@
ace
yaptık
reas@@
yaptım
rahat@@
Müz@@
defin@@
essen@@
çab@@
problem@@
dünyadaki
feet
evet
survi@@
sila@@
ue
knowle@@
ocean
"Bunun
kullana@@
ive
game
site
pain@@
ediyorum
laştır@@
poin@@
inve@@
Bence
raf
18
predi@@
CA
longer
hava
quickly
hon@@
gidip
No@@
common
sting
gers
sıt@@
tada
ines
lider@@
surface
resim@@
yüz
hands
yalnızca
ace@@
ünüz@@
iki@@
erkek
given
fic@@
hel@@
özgü@@
kemmel
değer
atı@@
surpri@@
san
week
Wor@@
op
şir@@
lerimizi
içerisinde
algı@@
yoru@@
Dün@@
death
başlan@@
siyon@@
rest
consu@@
hir@@
ifade
kiler
La@@
değiştire@@
eğlen@@
derece
eople
ece@@
tot@@
fan@@
peri@@
musunuz
Avrupa
odak@@
viz@@
hast@@
felt
deca@@
ölü@@
local
cılar
erken
yourself
que
şi
simply
bulunan
ez@@
rne@@
ley
döne@@
konus@@
ese
movi@@
growth
ches
ortak
işar@@
lıklı
vermek
Kon@@
sug@@
sayesinde
spend
ölüm
bağım@@
ists
possi@@
manız@@
tasarım@@
gone
range
ziy@@
fri@@
emo@@
lost
çocuklar
die
inven@@
tabii
lying
cine
başarılı
senin
kte
tat@@
"Sa@@
öy@@
şe
ads
teme@@
ret@@
squ@@
pay
güc@@
performan@@
my@@
erke@@
yada
ceksiniz
ological
tanış@@
political
obvi@@
bölüm@@
sorum@@
mit
absolu@@
Man@@
tried
HI@@
oil
tain
ici
ny
sın@@
challenge
ef
olurdu
ydu
İs@@
full
AB@@
tep@@
"An@@
sas
ati@@
cru@@
alara
ential
char@@
compli@@
value
interested
"Daha
yız
multi@@
En
öğre@@
wel@@
telling
smar@@
messa@@
olmadan
canlı
amp@@
malze@@
So@@
akıl@@
rought
OK
rak
resour@@
mera
dam
deal
economy
vel
step
leşme@@
sem
iye@@
hop@@
gli@@
varsa
yaklaşı@@
neigh@@
davranış@@
"Evet
yara@@
not@@
lev@@
hundre@@
suç@@
leşik
changes
gue
fal@@
"My
giz@@
usu
mağ@@
türe@@
help@@
present
sıkı@@
gibi@@
uygun
fak
emer@@
charac@@
18@@
Lo@@
hesap@@
cade@@
bakış
diyor
text
fikri
wo@@
"These
aldı
demok@@
fied
labilir
mah@@
kısm@@
ker@@
çıktı
ğiniz
ically
progra@@
human@@
kes
aşır@@
ştire@@
read@@
ayan
lon@@
igh@@
gru@@
every@@
â
tech@@
deste@@
kç@@
hap@@
böl@@
kaz@@
differ@@
kk@@
mili@@
prot@@
ekonomi@@
inci
ölüm@@
exa@@
değ@@
gle
eas@@
gy
şlar
thou@@
olmay@@
geti@@
publi@@
ths
experi@@
ilen@@
thers
kola@@
cel@@
proble@@
lear@@
!@@
kend@@
mes@@
F
Ap@@
ous@@
"Wh@@
vie@@
dav@@
very@@
gine
grou@@
Uni@@
nat@@
challen@@
ld
gerç@@
Q@@
vet
şı
güz@@
stand
ath
yanın
amaz@@
mach@@
öne@@
L
ety
economi@@
buil@@
küçü@@
happ@@
ih@@
opp@@
çü@@
environ@@
bla@@
teşekkü@@
ener@@
uyg@@
prof@@
W
fore
pop@@
ani
sear@@
fotoğ@@
♪
içeri@@
govern@@
dece
ghter
gula@@
cause
particu@@
ready
ould
tara@@
popu@@
secon@@
dia
raz
edu@@
likte
osy@@
dle
bii
TE@@
forma@@
ekon@@
dör@@
minu@@
X@@
sap@@
aras@@
mid@@
merke@@
hiç@@
devel@@
dünya@@
amam
fiz@@
öğ@@
dise@@
ru
ulti@@
won@@
vü@@
ouse
yaln@@
rar
exper@@
kav@@
Americ@@
search
N
Av@@
econ@@
ough
noloj@@
verse
çif@@
throu@@
ends
thin@@
&apos;@@
şa
ılmaz
mus@@
inste@@
ably
whe@@
ıra@@
chil@@
set@@
unca
beau@@
uğ@@
dım@@
ktı
Jo@@
$
ımı@@
gön@@
"Be@@
ternet
wonder@@
yors@@
rom
fron@@
Ço@@
“
simp@@
”
stan
reme@@
ifa@@
teri@@
inç
cour@@
quot@@
spon@@
karmaşı@@
küre@@
formation
lob@@
quic@@
ree
faz@@
ff
lion
ool
robo@@
geze@@
yardım@@
mme@@
saye@@
perfor@@
müz
ünkü
…
ours
ird
X
rağ@@
glob@@
cer
demo@@
yanlı@@
baz@@
Yor@@
Gülü@@
scal@@
kada@@
yayı
oce@@
dn
twe@@
begin@@
q
busin@@
interest@@
dents
♫@@
Sta@@
şmeler
mple
fiel@@
ece
NA
çalı@@
til
sm@@
youn@@
sinlikle
sonra@@
J
tış@@
eds
uro@@
omy
temelen
nolo@@
Y
tema@@
&@@
U
prob@@
ross
power@@
berab@@
osyal
imdi
halar
edeyse
sayar@@
tries
kü
langu@@
f-@@
şte
—@@
ays
yac@@
foto@@
bli@@
..@@
ızca
moder@@
kek@@
haps
ested
kly
–
ich
lef@@
amoun@@
ural
karma@@
syste@@
sayar
elekt@@
ques@@
eded
q@@
harek@@
Kah@@
Goo@@
çeş@@
müm@@
;"
:@@
çar@@
fig@@
teşe@@
Hindi@@
dren
gover@@
Q
ktu
é@@
é
diffic@@
#
ysi@@
Lau@@
Avrup@@
Ear@@
diff@@
compan@@
biliri@@
Z
trol
dolay@@
kemme@@
"Da@@
with@@
beauti@@
=
anim@@
+
mily
û@@
ço@@
ou
engin@@
lars
tty
î
Amer@@
_
selves
gether
`@@
ttle
kün
yar
know@@
Vide@@
nd
í@@
‘
İ
^
thousan@@
ó@@
beh@@
araş@@
beha@@
@
viron@@
şekkü@@
grow@@
á@@
apos@@
lında
ã@@
chal@@
esn
actly
è@@
aga@@
*
¨
plause
hate@@
Alkı@@
&#93@@
ö
ñ@@
~
inst
your@@
Ç
look@@
akat
²
Â@@
Ö
…@@
tury
à
Teşekkü@@
ō
ä@@
technolo@@
”@@
อ@@
Ğ@@
í
♪@@
import@@
ó
£
Ş
vidu@@
É@@
á
Á@@
ï@@
่
ร
them@@
ê@@
ô@@
`
​
Kahka@@
¼
ø@@
happen@@
ú@@
î@@
©
’@@
´
ย
℉
°
ë@@
&#@@
™
ú
ople
¾
τ
∇
ā@@
Č@@
ć
¼@@
€
³
½
­
Ō@@
ï
ì
ī@@
ē
\
Ť
Ă@@
ย@@
¨@@
¿
˚
¥@@
Ü
æ
æ@@
®@@
vap
š@@
¥
™@@
¢
