,
.
."
to
the
na
a
of
kai
and
&quot;
i
that
is
in
einai
I
poy
me
o
it
tis
ta
you
&apos;s
we
gia
tin
ton
apo
toy
se
ti
on
an
this
es
as
s@@
mia
ena
tha
—
oi
auto
o@@
oti
i@@
e@@
den
was
toys
re@@
in@@
are
u@@
sto
moy
e
ia
for
k@@
os
)
as@@
en@@
f@@
s
have
:
ei
they
pro@@
a@@
an@@
oyn
ti@@
with
S@@
b@@
g@@
can
at
oyme
mas
"And
is@@
y@@
(
to@@
what
stin
&apos;t
ro@@
be
n@@
p@@
me@@
ing
And
c@@
about
-@@
d@@
all
y
;
ar@@
l@@
t
v@@
le@@
do
itan
so
not
di@@
ed
ch@@
one
M@@
pos
li@@
or
&apos;
de@@
my
A@@
ma
there
&apos;re
P@@
ex@@
th@@
Kai
T@@
?
poly
al@@
or@@
oy
like
er@@
te@@
on@@
po@@
from
people
h@@
sas
alla
si@@
ma@@
apo@@
ts
ri@@
our
m@@
oys
no@@
z@@
ag@@
pe@@
oy@@
but
just
ta@@
t@@
ap@@
"Kai
E@@
"@@
iki
very
x@@
ep@@
al
se@@
out
ra@@
mo@@
otan
con@@
w@@
d
par@@
ak@@
"So
eis
lo@@
m
D@@
sti
r@@
ly
auti
by
tes
for@@
these
es@@
if
te
n
B@@
ika
them
ne@@
ka@@
us
un@@
more
pi@@
up
C@@
ek@@
going
os@@
It
know
la@@
when
he
ac@@
iko
K@@
ai@@
tu@@
had
it@@
el@@
were
the@@
do@@
k
because
G@@
vi@@
see
echei
their
think
So
mi@@
how
ame
ad@@
tion
dia@@
get
who
pio
auta
ei@@
ies
your
epi@@
would
tika
which
ston
go
ted
time
ik@@
sta@@
ate
sun@@
tro@@
ting
don
really
ation
er
N@@
here
tiki
&apos;ve
si
ter@@
way
isi
«
il@@
&apos;m
O@@
We
mata
no
per@@
sta
kati
F@@
l
tra@@
has
pa@@
then
where
io
1@@
actually
fe@@
world
mo
arch@@
de
»
ris@@
I@@
some
fi@@
ki
tiko
"I
?"
co@@
V@@
eu@@
R@@
ol@@
ko@@
opos
into
The
dis@@
years
mon@@
tre@@
af@@
tos
be@@
gi@@
am@@
will
now
ete
ontai
ter
anti@@
mono
echoyn
ontas
ds
edo
au@@
chronia
san
Laughter
tr@@
thei
things
other
ers
so@@
peri@@
ni@@
prepei
echoyme
mil@@
could
enas
borei
want
upo@@
mis@@
make
been
ge@@
en
To
Einai
L@@
"But
than
H@@
pl@@
tri@@
Den
po
seis
ar
th
Auto
r
;"
su@@
♫
ola
p
"(
right
But
"E@@
fu@@
ikes
ot@@
said
ci@@
pre@@
"S@@
etai
us@@
graf@@
mesa
Gelia
able
mena
kosmo
ise
les
idea
fer@@
ce
"P@@
om@@
stis
gen@@
ty@@
something
isoyme
much
log@@
ias
min@@
first
at@@
ent
loipon
thing
toso
pragmata
enan
ver@@
mer@@
sa
etsi
pros@@
cho@@
ve
im@@
those
two
also
ally
isei
"It
ge
com@@
ous
"A@@
anthropoi
work
meta@@
ig@@
st@@
same
This
kathe
"Now
ra
cu@@
h
little
man@@
ru@@
back
she
"The
look
ity
kanei
W@@
ev@@
only
giati
g
got
fo@@
re
uparchei
2@@
meno
kin@@
dyo
over
tora
"We
tions
sk@@
autes
ax@@
men@@
You
ment
mos
ct
most
its
.@@
his
kanoyme
life
many
day
ach@@
Alla
even
soy
ochi
say
gu@@
kath@@
pan@@
ir@@
take
gi
toy@@
need
epeidi
kal@@
li
boroyme
av@@
mi
sto@@
ch
ite
az@@
opoi@@
tis@@
did
des
ey@@
rin@@
Applause
ble
her
lo
-
le
ding
O
"M@@
go@@
la
lot
age
ef@@
ms
poi@@
Ch@@
ck
They
ekei
new
"Έtsi
lis@@
ion
iz@@
ro
tai
tikes
pragmatika
ikis
ke@@
meta
roy@@
tive
dro@@
come
kind
na@@
ou@@
gon@@
ab@@
tropo
"In
around
"To
meni
ele@@
ties
dia
op@@
eid@@
ith@@
val@@
ic@@
dimioyrg@@
koy@@
tei
Cheirokrotima
opoy
bo@@
good
qu@@
opoio
mor@@
ton@@
every
use
through
anthropoys
vas@@
kan@@
eg@@
ant
"T@@
pai@@
zoi
chrisimopoi@@
"Alla
eiche
isa
different
ap
math@@
pu@@
dias@@
c
tin@@
pano
poli@@
pis@@
3@@
ha@@
da
down
sti@@
That
sub@@
kanoyn
up@@
ten@@
prin
being
du@@
chor@@
organ@@
ph@@
pote
ste@@
j@@
tal@@
ima@@
19@@
opoia
ty
et
Tha
&apos;ll
fora
sho@@
"i
A
Έ@@
10
iso
dik@@
matos
omos
What
maste
mar@@
J@@
inter@@
gk@@
doing
tan@@
akoma
put
ho@@
ded
tas@@
cen@@
called
sig@@
osi
any
ri
mu@@
ain@@
lin@@
ved
kata
eia
oloi
xi
idi@@
gra@@
pragmatikotita
pol@@
tar@@
thu@@
sion
stoys
char@@
xekin@@
ean
em@@
gin@@
bi@@
ly@@
ad
"Auto
uparchoyn
res
chrono
ran@@
led
!
syn@@
wor@@
ich@@
paidia
iseis
mas@@
ses
episis
fin@@
ters
ine
kra@@
chi
st
ever
toyn
mati@@
w
"O@@
kar@@
zei
&apos;d
tote
enos
mazi
percent
kaneis
der
cor@@
tita
gre@@
"K@@
oso
sen@@
oste
gs
ks
car@@
am
three
mak@@
tele@@
tly
pas@@
apla
"This
let
made
50
tic
man
we@@
4@@
aki
ated
est
fon@@
"You
ary
human
ser@@
sur@@
all@@
io@@
bu@@
mera
ai
sh@@
tell
moys
por@@
red
5
b
polla
menos
pe
ls
5@@
allo
king
simera
plan@@
well
body
eimai
ture
year
Oi
boroyn
why
own
id@@
ws
today
pros
da@@
lik@@
Th@@
auton
spe@@
Thank
find
eb@@
peripoy
sp@@
ath@@
low
istoria
ob@@
sche@@
fact
olo
An@@
try
uper@@
ice
meros
sis
vol@@
change
ana@@
ikon
megal@@
ites
didn
chi@@
chan@@
thesi
der@@
"If
x
ps@@
ech@@
ction
isis
eimaste
chro@@
started
perissotero
ky@@
old
ments
less
talk
ioy
din@@
Έtsi
fores
als
isoyn
eipe
piso
erg@@
great
"
zi@@
kli@@
ating
boreite
sko@@
ego
ry
echo
chei@@
autoys
ther@@
ago
koinon@@
ase
lan@@
There
ones
eias
"An
fan@@
ali@@
paradeigma
ning
after
prospath@@
anag@@
che@@
den@@
idio
kata@@
eio
kano
2
course
zo@@
should
"Th@@
isos
zoyn
oth@@
went
ili@@
tax@@
tia
mias
story
before
big
oli
4
idia
ano@@
ku@@
lu@@
last
of@@
ps
nor@@
Ti
cre@@
ss
ling
Pro@@
better
him
fil@@
stigmi
ces
"They
still
cap@@
never
might
auto@@
michan@@
wh@@
toyme
panta
ves
ligo
provlima
end
7@@
"Einai
stra@@
important
"N@@
isto@@
sch@@
ying
came
&quot;"
sed
Ά@@
together
ros
ence
katas@@
ike
give
son
para@@
ron@@
place
system
od
trans@@
ations
deite
sy@@
vo@@
ver
U@@
does
ple@@
cy
8
kom@@
tor
part
eite
mechri
thought
problem
bit
leg@@
tra
off
thike
He
skef@@
6@@
doyleia
ron
20
another
In@@
las@@
next
women
kala
los
brain
3
cal
sumvainei
tuch@@
"O
ons
akomi
ked
rag@@
ght
"F@@
ide@@
gram@@
ima
gh@@
cted
teu@@
isame
few
each
tional
found
fantas@@
otita
kol@@
od@@
start
"Well
el
used
ka
...
30
vath@@
pli@@
u
ans
fac@@
ora
Ό@@
data
akrivos
lon@@
ll
stu@@
eucharisto
oter@@
sunech@@
kapoia
tely
Now
9
"Tora
mes
ful
oles
sei
choris
proti
idi
uc@@
og@@
maz@@
"Den
systima
kato
eis@@
lar@@
min
show
between
dy@@
again
eprepe
eichan
theor@@
ano
schedias@@
grap@@
pos@@
comes
bro@@
ko
loi
usi
technology
children
akoy@@
oyr@@
cho
ug@@
sia
col@@
eicha
tro
nea
example
"Όtan
arketa
imoyn
med
tasi
mag@@
gno@@
pig@@
eng@@
pri@@
S
lig@@
too
kos@@
Di@@
Sas
20@@
autos
fas@@
"Έ@@
6
poy@@
agor@@
ay@@
apofas@@
Auti
ve@@
Po@@
pon@@
question
wanted
looking
sete
pithan@@
autoy
and@@
mikro@@
fy@@
kathos
ast
prote@@
ness
tikis
sum@@
ry@@
omen@@
information
point
oikonom@@
ys
200@@
long
"D@@
plo@@
How
7
vis@@
techn@@
uni@@
sort
simainei
gener@@
voith@@
tike
matia
0@@
ic
done
mean
understand
menoi
megali
menes
echete
rap@@
tors
di
mik@@
alli@@
tion@@
ese
away
doesn
ki@@
anal@@
sa@@
water
wing
isan
iti
oun@@
gal@@
ose
pragma
ios
may
line
any@@
oris@@
times
alli
Giati
metaxy
omai
&#91;
live
ria
struc@@
fun@@
Ta
Tz@@
♪
using
far@@
fai@@
&#93;
polles
person
,"
teite
olokli@@
ven@@
gunaikes
katalav@@
epis@@
produc@@
ical
doyme
ries
gnoriz@@
ias@@
asthen@@
bor@@
spiti
str@@
real
siman@@
ang@@
um@@
oysa
zois
tirio
zoyme
anap@@
love
men
1
ras@@
ginei
ithela
stre@@
believe
leei
ach
tic@@
ping
il
cri@@
ainoyn
under@@
"Gia
yn@@
tan
pa
soyme
vlepete
always
tor@@
ten
tikon
fa@@
"L@@
cur@@
light
oma@@
thro@@
ikan@@
fus@@
per
doyle@@
oc@@
India
book
ul@@
meso
pal@@
odig@@
call
vle@@
arith@@
face
ur@@
ergas@@
school
pin@@
dri@@
z
boreis
thelo
nomizo
ekatommyria
era
para
dun@@
million
res@@
ed@@
city
boroyse
tera
means
simantiko
parag@@
anthropin@@
royn
path@@
sugk@@
dos@@
form
ginetai
tain@@
took
ger
stan@@
"When
logis@@
boro
"B@@
tria
"Oi
ote
%
katal@@
thoyn
oti@@
TED
8@@
vre@@
proso@@
diak@@
ekane
ss@@
Z@@
xei
pair@@
working
tel@@
tisi
pragma@@
poso
power
aro@@
duna@@
,000
ther
tey@@
tima
ging
bre@@
alis@@
dio
eidos
kapo@@
cra@@
Wh@@
sol@@
tik@@
coming
tiz@@
country
asfal@@
yei
ikoys
ken@@
ber@@
epistimon@@
olog@@
technologia
four
whole
ue
tures
land
omeno
roys
test
ikoy
create
trying
posi@@
aio
psi
das@@
ati
mele@@
ren@@
conne@@
plas@@
noyn
eies
ain
dre@@
feel
see@@
allax@@
ekato
eisai
mato@@
dedomena
colle@@
dic@@
rio
star@@
ato@@
kalo
help
ikos
gyro
home
exo
kle@@
ance
ini
maybe
Me@@
everything
become
fos
pia
matis@@
expl@@
bra@@
oyn@@
Par@@
ino
set
thinking
oyntai
riz@@
prokeitai
sup@@
00
Mar@@
yp@@
"Tha
autin
ol
otites
oyse
schetika
he@@
kapoio
odi@@
chora
sug@@
sul@@
chreiazetai
Y@@
ess
ing@@
sor@@
money
toi
pole@@
epo@@
qui@@
asi
oloys
wn
"V@@
megalo
ina
hi@@
kini@@
ainei
number
nos
Euro@@
psi@@
vg@@
experi@@
koin@@
lives
second
making
ins
ome
Pos
epit@@
ear@@
pen@@
apos@@
oma
possible
exis@@
ere
ates
proto
best
ok@@
Well
pto@@
wed
ari
ana
room
100
pei
xerete
social
paro@@
f
ikoi
pra@@
logo
risi
pres@@
pisteyo
ges
wi@@
dom@@
eikona
xer@@
9@@
sugkekri@@
maton
act
design
vra@@
ga@@
tiri@@
izei
bac@@
thema
kapoios
cli@@
tropos
15
small
um
osa
future
enough
Au@@
fi
kosmos
dra@@
win@@
"That
eon
"There
koitax@@
food
pi
ca@@
schedon
sure
sunde@@
upologis@@
des@@
ker@@
eno
mer
fic@@
As
moi
left
sense
eidi
happened
M
"He
mikro
imer@@
tikos
quite
ful@@
getting
dent
saw
cts
ines
omor@@
talking
ctive
"Ό@@
Here
omaste
perissotera
kids
side
lar
kommati
endiafer@@
har@@
emas
merikes
mon
ways
"As
diki
pag@@
pistey@@
chron@@
ako
high@@
Ήtan
echeis
ner
living
sumv@@
vel@@
fusika
fainetai
anthropon
care
science
proto@@
eauto
telos
vlepoyme
cer@@
clo@@
Uparchoyn
pati@@
X@@
interesting
aia
told
makes
ard
tas
war@@
chreiaz@@
cha@@
ents
ake
imo@@
ze
without
tois
effe@@
flo@@
anis@@
bas@@
dimioyr@@
tes@@
K
psei
deix@@
Ko@@
cells
asei
ais@@
across
five
tak@@
ftiax@@
ereun@@
organis@@
nei
dus@@
dimosi@@
though
loy@@
experience
rg@@
name
ill
sive
kate@@
space
ler
pretty
car
lab@@
coun@@
hed
aplos
ask
pleon
Uparchei
fic
omada
nero
ome@@
develo@@
gias
eichame
dial@@
ane
ontan
ously
chris@@
och@@
tw@@
onta
Tora
hand
anti
ay
pic@@
ber
tur@@
mal@@
merika
case
wat@@
speci@@
eli@@
such
ion@@
Ka@@
ship
ned
soma
vin@@
countries
ot
aka
ns
seen
"Loipon
kapoion
Why
art
lex@@
teleutaia
lene
molis
e-@@
epik@@
else
aris@@
asked
eleg@@
simeio
autoi
New
family
esti@@
days
kefal@@
happens
spi@@
eiste
akoloyth@@
mio
ner@@
suc@@
treis
mv@@
ving
simple
young
pame
ekein@@
energy
anything
half
rela@@
eto@@
hard
otitas
says
gro@@
words
mellon
my@@
nia
skep@@
,@@
therap@@
dikai@@
moment
kef@@
ced
ality
hel@@
plirofor@@
happen
rus@@
single
ithe@@
anthro@@
turn
play
lep@@
mind
va@@
sos@@
allo@@
tipota
building
azei
kalytera
clas@@
isete
fras@@
40
tz@@
"Opote
katano@@
imera
Kan@@
P
mel@@
emeis
pla
deixo
probably
.000
over@@
"What
xana
choro
than@@
fo
having
evol@@
chores
move
"Au@@
dies
enno@@
are@@
air@@
olo@@
episti@@
learn
tikoi
dyskolo
"Pro@@
alla@@
eipa
energ@@
moi@@
10@@
"G@@
vr@@
respon@@
program@@
health
aisth@@
oyte
geia
gor@@
fre@@
Prepei
tach@@
head
top
bri@@
Ki
process
Let
teach@@
isch@@
kanete
almost
later
V
picture
imi
paidi
air
neu@@
schesi
poli
poyn
Ar@@
works
arti@@
logos
cal@@
zo
roy
cep@@
meri
diafora
provlimata
while
tisei
tech@@
xe@@
apisteu@@
kei@@
"Stin
ento@@
tikoy
ices
noyme
ven
xis
emfan@@
port
rch@@
tru@@
ix@@
apok@@
duc@@
egine
endiaferon
ize
lies
Bor@@
inv@@
Έch@@
prin@@
her@@
eidoys
koit@@
read
Su@@
Earth
pap@@
late
computer
dras@@
bot@@
aei
bad
bab@@
aiti@@
kyttara
mus@@
ings
looked
fia
cess@@
tem@@
paei
60
sex@@
cle@@
gn@@
build
exe@@
fal@@
eitai
ft
fain@@
var@@
roi
bly
"Auti
sis@@
esas
ona
reason
billion
ane@@
kosmoy
ger@@
night
inside
cul@@
disco@@
ftas@@
fra@@
gunaika
atoma
goes
soyn
dynami
stuff
oper@@
ara
emv@@
tle
plic@@
exig@@
tom@@
exeli@@
gri@@
lika
rit@@
sune@@
erotisi
order
ming
run@@
ghts
mach@@
ekana
pali
alitheia
upirche
efarmo@@
history
dio@@
tikoys
peira@@
answer
iti@@
mother
hu@@
alloys
lei@@
United
ke
oysan
gest
riv@@
far
prosop@@
government
myself
katafer@@
suberi@@
ny@@
matter
parati@@
suchna
axio@@
dipote
ences
aria
leitoyrg@@
mental
yet
music
"Ki
both
Al@@
dei
gio
cs
entro@@
dollars
upsi@@
ideas
boroysame
archite@@
remember
high
antikei@@
allagi
thre@@
technologies
nothing
ere@@
energeia
tilefon@@
ethn@@
oysia
plirofories
oni
iaz@@
xi@@
"Ta
Eucharisto
saying
often
enti@@
xech@@
mit@@
id
tho
tisoyme
dromo
akes
amazing
whether
anamesa
Opote
poyme
xero
80
odo
erchetai
crea@@
thun@@
vio@@
ability
eight
exaire@@
tice
pente
alles
etaire@@
wrong
om
aw@@
ekeini
kil@@
mate
kno@@
DNA
oyra
tap@@
guy
word
ftiach@@
cks
tai@@
kapos
child
grigora
paroysi@@
fe
within
ras
robot
global
ark@@
shi@@
elpi@@
serv@@
thikan
ban@@
imo
ris
osei
suzi@@
seon
ne
itai
The@@
allag@@
vasi
uch@@
klo@@
olon
reas@@
prokal@@
"For
hundre@@
polloi
meres
lap@@
apokal@@
trep@@
ergaz@@
prospa@@
basically
diadikasia
problems
looks
lead@@
dech@@
public
friends
ple
T
She
lepta
materi@@
piece
pain@@
true
planet
wa@@
ep
"Έch@@
katastasi
morf@@
video
eikon@@
spoy@@
ill@@
Ή@@
diaforetika
mai
ran
iss@@
pigain@@
ak
wit@@
incredi@@
elegch@@
Gi
cheiro@@
cro@@
bal@@
vaz@@
desig@@
kali
suneiditopoi@@
ker
"Se
tation
contin@@
ez@@
Edo
ischu@@
epipedo
anakal@@
duo
dok@@
open
kapoies
imata
korit@@
kalyter@@
keep
t-@@
"C@@
heard
feel@@
boroysa
planiti
deich@@
imagine
charakti@@
already
once
stan
society
ema@@
logy
suno@@
eth@@
D
apantisi
autokini@@
dru@@
equ@@
dor@@
sunaisth@@
periptosi
table
"Me
telika
esai
top@@
ergo
matiki
tikan
royme
akoys@@
ut
project
Re@@
beautiful
taseis
drasi
12
chiliades
someone
ora@@
osis
nt
education
cle
States
sime@@
cheri
ode@@
vinteo
ely
leo
dimo@@
issu@@
"Because
hope
perissoter@@
archi
fotografia
yter@@
An
vrisk@@
ual
fol@@
E
sym@@
ari@@
arke@@
level
thei@@
exactly
happening
species
My
rec@@
woman
pes
otera
logia
grafi@@
nas
business
dom
xe
perivallon
0s
community
gene@@
ized
nature
megalyter@@
pliro@@
akti@@
doyley@@
aresei
psifi@@
mines
fes@@
brosta
standing
tical
created
duce
exi
group
inei
peras@@
dion
dec@@
cial
vivlio
learned
Because
resul@@
some@@
culture
Me
fully
gan@@
tron@@
ring
karkin@@
job
epochi
study
topoi@@
ors
De@@
ekpaide@@
No
months
ples
ish
until
chrimata
stop
omenes
"&quot;
wasn
tics
scholeio
"Bor@@
six
against
izetai
otes
wal@@
taking
liko
Africa
via
lipsi
xan@@
usis
fron@@
vrisketai
trof@@
stories
bring
since
view
gets
menoy
incre@@
eas@@
ution
big@@
pla@@
megalytero
diarkeia
individu@@
control
diko
vev@@
Nor@@
sima@@
je@@
epichei@@
decided
oysi@@
eutuch@@
chri@@
theloyme
koino
reco@@
phone
ame@@
allon
sion@@
ization
news
blo@@
lamvan@@
neuron@@
became
izoyn
must
sing
Nai
Is@@
anafer@@
ce@@
matika
faneia
apotelesma
kor@@
chos
exo@@
bility
research
ao
everyone
voy@@
tio
jects
ata
ade@@
lav@@
ped
cancer
cas@@
Chris@@
ikame
Άn@@
gegonos
Ei@@
couple
megalyteri
"Ean
hear
autis
eras@@
mikri
completely
thana@@
rias
psoyme
evdoma@@
prosthe@@
chre@@
fl@@
house
These
ts@@
meth@@
eroti@@
azoyn
konta
sli@@
sosta
miliso
ligotero
Na
moys@@
das
isn
large
bat@@
action
lions
appe@@
Eimai
neo
Ger@@
kuri@@
oys@@
person@@
mn@@
politis@@
epicheiri@@
Pe@@
kathe@@
kinds
ust
tal
kalytero
state
takes
fici@@
repei
fis@@
moysiki
titas
taxei
lexi
poly@@
monad@@
ant@@
hy@@
agap@@
ject
itself
ono
ourselves
perissoteroi
periochi
ismo
dy
"H@@
shor@@
mitera
everybody
lathos
stro@@
teleuta@@
Af@@
enth@@
kairo
hours
bil@@
lek@@
huge
thor@@
game
worked
miz@@
nomiz@@
poin@@
fov@@
mualo
under
intel@@
skin@@
Amerikan@@
language
knew
shar@@
seira
built
ida
epikoinon@@
Le@@
toich@@
tiria
stoicheia
don@@
tual
omeni
students
upire@@
armo@@
vris@@
eri@@
ores
cir@@
boroysan
tivity
Internet
tero
simasia
rather
did@@
self
ereuna
kaname
gy@@
Έna
sumvei
argotera
ades
ekplik@@
questions
foiti@@
tetoio
Oy@@
tile@@
One
Mo@@
particular
o-@@
lia
sometimes
cus@@
ekanan
places
Xer@@
expe@@
Na@@
fer
perissoteres
ju@@
ist
’
heart
iste
sunecheia
misi
En@@
idees
gei@@
ebeiria
bed
tropoys
apan@@
11
defin@@
national
theis
sound
pse@@
others
themselves
cell
share
anapty@@
tory
thoyme
cl@@
vasika
cept
ota
dolaria
oikogeneia
Li@@
wer
mic
cing
turns
plithus@@
ur
onomazetai
hor@@
disease
Google
Autos
depen@@
ital
rate
aiona
may@@
learning
kes
prota
eta
prose@@
century
kap@@
run
istories
topothe@@
allaxei
ders
out@@
front
changed
past
appro@@
gk
epitre@@
America
ster@@
ontos
peis
dev@@
vers@@
afi@@
scho@@
tting
oke@@
xeroyme
dar@@
apar@@
shap@@
kai@@
Ne@@
perimen@@
reli@@
vari@@
such@@
universe
parakoloyth@@
least
cau@@
alia
ens
ikan
Sta@@
fish
suskeu@@
susta@@
self-@@
antr@@
exci@@
medi@@
90
vered
ace@@
can@@
fli@@
ides
cy@@
wan@@
net@@
kre@@
cos@@
thousands
company
katap@@
cou@@
telei@@
eleuther@@
presen@@
omo@@
koinonia
aer@@
York
xia
outh
iPA
American
kamia
iatr@@
Entaxei
communic@@
Ίsos
atomo
risis
orth@@
entelos
gave
machine
teras@@
entire
Έchoyme
neis
Ma@@
gion
ots
anev@@
Gia
"A
spo@@
animals
Mil@@
sex
war
outside
passion
Kor@@
ics
mathima@@
deichnei
gnorizoyme
saf@@
Gi@@
theite
anak@@
)"
ches
egkefalo
tribu@@
0,000
70
25
key
kan
poleis
Όchi
loy
instead
along
measu@@
ploy@@
China
happy
pped
trofi
natural
sos
bar@@
ney@@
diathe@@
Afriki
este
anaptuxi
environment
Mia
patter@@
genn@@
fysi
Xerete
ergasia
jour@@
cities
"W@@
beli@@
prosta@@
exup@@
"An@@
tikotita
was@@
eyes
tial
apoteles@@
dei@@
noriz@@
pleura
Fran@@
Lon@@
efi@@
taken
sunevi
parado@@
asch@@
won
ined
sions
eikones
bores@@
dly
scienti@@
model
tually
ige@@
recor@@
kallitechn@@
epistimi
No@@
strati@@
Loipon
ey
turned
morfi
kato@@
difference
Bo@@
dol@@
ces@@
wil@@
known
ektos
polloys
d-@@
makria
anta@@
dioti
iko@@
kay
chili@@
ok
ilik@@
pagkosmi@@
tontas
C
osoyme
somebody
iki@@
imes
dience
liter@@
seeing
thy@@
adel@@
God
ben@@
moni
glossa
ruth@@
viomichan@@
Gre@@
mul@@
ordin@@
lau@@
opoies
lots
tent
comm@@
ftoch@@
wards
thika
mis
noy
father
dika
anaptu@@
omenon
metr@@
couldn
hing
diavas@@
economic
tise
needed
difficult
ogi
zontan@@
behind
early
susti@@
maka
dence
ail@@
oikogen@@
chrisi
vie@@
black
thalas@@
zoa
Con@@
opoios
tally
posed
ues
onoma
meis
thelete
lon
theloyn
agno@@
otero
bir@@
stig@@
kri@@
deik@@
given
doc@@
cting
anthropos
versity
opote
cally
compu@@
ames
photograp@@
kuvernisi
ero
gar@@
maj@@
epilog@@
tuo
moiazei
cheria
ages
eigh@@
sequ@@
longer
kathar@@
political
friend
onia
katalavain@@
anta
vir@@
scale
theia
ferei
indus@@
cel@@
ground
onomaz@@
ace
plis@@
taxi
dedomenon
market
inclu@@
Άra
tainia
schedio
democra@@
non@@
thin@@
18@@
parents
pris@@
jo@@
teria
paras@@
image
upologisti
alithin@@
esi
flu@@
micro@@
nai
figure
Eich@@
tively
neuro@@
felt
provi@@
"One
diap@@
pera
programma
If
doy
based
engine@@
ek
osta
omoyn
vision
disekatommyria
eukairia
perhaps
lis
books
finally
epomeni
open@@
hos@@
emena
"Όmos
igi@@
third
free
close
sel@@
leu@@
All
ption
Se
aisthan@@
Goy@@
Poli@@
play@@
ets
consci@@
leitoyrgei
either
kalyteri
poios
anaroti@@
ba@@
media
kainoyr@@
riseis
thermo@@
during
scre@@
tref@@
toma
tites
sil@@
pisis
extre@@
minutes
ekpaideusi
deli@@
local
absolu@@
skeftom@@
growth
beginning
needs
anaz@@
summe@@
politiki
population
ore
prac@@
easy
mess@@
kataskeu@@
mikra
atten@@
tauto@@
cannot
Ken@@
ow@@
epituch@@
ney
eseis
dimokra@@
bur@@
klisi
anoich@@
ester@@
systems
possi@@
certain
foto@@
extra@@
diafore@@
surpris@@
aisthisi
mat@@
guys
focu@@
kep@@
diaforetikes
In
"U@@
"Wh@@
thyn@@
lexeis
guna@@
ched
logiki
chim@@
simply
consi@@
daskal@@
decis@@
xeis
economy
vriskontai
size
theseis
liki
bi
kataskeuas@@
physi@@
onei
pseis
autokinito
diag@@
doso
epen@@
nar@@
tmi@@
comple@@
Right
verage
"En@@
lei
ell
relation@@
rin
moiaz@@
Wor@@
ebo@@
civi@@
Okay
Auta
omena
orig@@
teia
diladi
clu@@
Man@@
born
500
died
Uor@@
ching
step
lio
leave
diadik@@
impro@@
Music
analy@@
squ@@
Per@@
"My
sies
anakalup@@
prosopo
terms
"Ήtan
axia
dekaetia
memor@@
Eng@@
menoys
obvi@@
hands
fle@@
aine
paral@@
every@@
zoes
"She
wel@@
menon
sour@@
G
koinotita
upostiri@@
sustimata
paichni@@
va
tetoia
Kin@@
emo@@
met
eks
epei@@
gic
telling
epilogi
grand@@
Oh
ous@@
Nomizo
epan@@
glo@@
Ή
dieu@@
"Όpos
pethan@@
dioy
moiras@@
200
ian
kton@@
Ameriki
full
wo@@
timata
alls
deyter@@
ox@@
ada
began
ugh@@
movi@@
noso@@
walk
R
mallon
psy@@
gies
doki@@
companies
199@@
ack
oysiastika
physical
kainoto@@
bloo@@
poia
skefteite
parap@@
stoich@@
sal@@
ga
Kina
apanti@@
afora
profan@@
diaforetiko
ars
fa
upirchan
sit@@
tradi@@
erchontai
pur@@
realized
selida
marke@@
ward
pose
ginontai
spre@@
charac@@
skefto@@
mers
montelo
liz@@
Jo@@
reality
ople
sumfon@@
rest
legetai
dan@@
seven
follo@@
Boreite
moving
auxan@@
mal
goneis
deutero@@
visi@@
blu@@
wri@@
institu@@
"Edo
week
pagkosmia
ater
quickly
exam@@
Boroyme
chima
exaf@@
lor
tance
epanas@@
ently
Ήmoyn
ically
text
upoloi@@
lost
ita
soun@@
grow
wonderful
super@@
identi@@
Just
isteyo
techno@@
polu@@
evi@@
Ex@@
changes
care@@
wers
ono@@
human@@
0.000
ea
images
wer@@
ser
koru@@
ef
varo@@
kurios
amount
ols
antimetopi@@
apotele@@
pt
powerful
invol@@
stri@@
gnosi
loys
parel@@
aking
oiko@@
motiv@@
apolu@@
mei@@
istan
cent
tau@@
loso@@
ile
psoyn
heal@@
ged
middle
ilektr@@
year-@@
present
tias
ctions
antimetopis@@
lation
irthe
ioys
!"
numbers
keu@@
fect
purin@@
area
chei
yg@@
ilikia
sias
chreiazomaste
lim@@
tain
psach@@
pei@@
chas@@
cam@@
resour@@
pras@@
nees
anthropo@@
chronon
diafor@@
toylachiston
usu@@
teri
ekeino
elec@@
dge
provle@@
argu@@
For@@
inoyn
program
pragmati
Thelo
peris@@
egkefal@@
optiki
yourself
cars
egkefaloy
bs
liga
anato@@
kanon@@
tural
eipan
trapez@@
voice
ral
psu@@
matiko
humans
ck@@
noy@@
paragog@@
aero@@
pate
vivlia
lit@@
syban
deal
lion
pantoy
Ap@@
bio@@
ilamvan@@
parts
hap@@
moy@@
erch@@
tesser@@
descri@@
omilia
elo
electri@@
domatio
inven@@
eton
Yes
kinisi
nis@@
nu@@
chronoy
kathimer@@
giving
chrisimopoioyme
leitoyr@@
Chreiaz@@
bes
yoyn
film
dunatotita
xen@@
gnor@@
hear@@
perfor@@
onei@@
mos@@
ods
pragmatiko
gine
antas@@
skli@@
/
miko
speak
soy@@
field
lepete
chtu@@
lish
ener@@
common
forward
fami@@
cost
tried
sunth@@
raz@@
condi@@
izontai
sovar@@
Vi@@
movement
algorith@@
gel@@
smar@@
sunar@@
by@@
r.
antis@@
efe@@
fotografies
katanal@@
poten@@
paichnidi
otidipote
terastia
fav@@
tools
ikanotita
technolo@@
La@@
anima@@
dinei
Lo@@
SA
ism
perioches
veia
chamil@@
meto@@
iro@@
ried
chrisimopoioyn
oraia
ners
ioi
alloy
thelei
afoy
head@@
psis
real@@
knowledge
ld
spend
thel@@
chrisimopoiontas
then@@
ftan@@
apei@@
pment
akri@@
prosvasi
gir@@
deytero
alone
tisoyn
thris@@
noima
themata
oikonomia
idiaitera
Έcho
solution
fro@@
Όmos
ith
Epeidi
vro@@
scientists
complex
green
U.S.
dekae@@
esoter@@
tessera
edaf@@
direc@@
ilia
angel@@
imp@@
Sa@@
thau@@
teies
Char@@
"Ei@@
"Apo
megethos
off@@
row
upi@@
team
"Mia
tives
exar@@
girl
lepi@@
blin@@
ergaleia
ilektron@@
choice
our@@
kokkin@@
realize
ixer@@
compe@@
eucharis@@
spent
fagito
sunanti@@
mathe@@
diavaz@@
sitting
yo
growing
challenge
Moysiki
violence
ekatontades
katholoy
apai@@
So@@
eion
wouldn
poi
Be@@
Nea
death
inspi@@
Stin
ond
tisis
atta@@
xoyme
terri@@
velti@@
alloi
aire@@
pus@@
syg@@
Όtan
proigoy@@
kapoioi
ady@@
whatever
diplo@@
upe@@
hold
kati@@
ros@@
"Sto
tragoy@@
erotiseis
perioris@@
vlepo
vroyme
thon
filoys
gence
agapi@@
Isra@@
Si@@
vgal@@
Bra@@
opportunity
advan@@
behavior
pub@@
hon@@
perpa@@
epomeno
theo@@
write
solve
afnika
ught
minuma
Yeah
"In@@
interested
charti
drastiri@@
milame
pane
diadiktuo
diaforetiki
box
"Giati
anthra@@
podia
anisuch@@
sav@@
allos
ath
domi
eykolo
gone
lecu@@
rion
Aus@@
ologia
megales
br@@
boroy@@
main@@
vivli@@
pste
mor
access
rele@@
yther@@
apotelesmata
thes
giatro@@
die
ikotita
tiseis
toysan
dang@@
tithe@@
oro
paroyme
innov@@
anthropini
ergasias
len@@
"Di@@
skeftika
tab@@
diagno@@
epipe@@
egkefalos
developed
vel
digital
ebei@@
Kapo@@
dai@@
teto@@
figu@@
econom@@
thal@@
sunithos
soci@@
grafia
trag@@
kuvern@@
ree
getai
poys
van@@
differ@@
ekatommy@@
sm@@
itheia
oysias@@
lear@@
pho@@
mem@@
kl@@
alo
Go@@
ban
sunith@@
cess
ply
ekin@@
΄
ave
periv@@
dysk@@
read@@
gia@@
keitai
"I@@
kalli@@
parti@@
000
akoloy@@
arg@@
py
akriv@@
mati
pie@@
vli@@
minu@@
ah
hun@@
imopoi@@
und
very@@
ergal@@
paradeig@@
B
iP@@
..@@
kain@@
beg@@
Uni@@
ikon@@
son@@
ito
socie@@
sunev@@
TE@@
stand
Ri@@
bers
Ί@@
eyk@@
ipo@@
pagkos@@
fore
dunato@@
ans@@
contro@@
ia@@
tter
buil@@
kein@@
fri@@
plac@@
rong
particu@@
oyle@@
thos
eich@@
ready
fir@@
cause
ye@@
nd
popu@@
impor@@
una@@
chil@@
schole@@
eiro@@
amvan@@
secon@@
deci@@
v
ole
kro@@
sim@@
asu@@
elia
provli@@
aughter
teri@@
peripto@@
Q@@
Americ@@
robo@@
mode@@
ekatom@@
govern@@
whe@@
rese@@
tiv@@
environ@@
alon@@
arch
omi
ares@@
net
ank
L
Afr@@
asia
solu@@
deig@@
»@@
ould
eka@@
thous@@
tero@@
uch
dila@@
kair@@
ami
stitu@@
katan@@
etai@@
doma@@
vely
upolo@@
educ@@
dd@@
verse
augh@@
pothe@@
istor@@
toch@@
fti@@
ysi@@
Afri@@
Ep@@
kyttar@@
fel@@
seli@@
trap@@
viol@@
glos@@
U.@@
mege@@
won@@
deka@@
ite@@
N
tries
viv@@
tists
aid
idiait@@
thele@@
ugh
ded@@
eve
ich
sin@@
bal
loo@@
omizo
tter@@
bus@@
dig@@
cour@@
tsi
ends
gh
bl@@
istey@@
challen@@
gegon@@
spen@@
econ@@
ably
ouse
oloy@@
tant
beau@@
dyn@@
ff
stead
monte@@
teo
power@@
Mu@@
wonder@@
moyn
antimeto@@
H
fag@@
$
mioyr@@
imai
Eu@@
quic@@
cher@@
·
gran@@
&apos;@@
stiri@@
ketai
antik@@
masia
sus@@
lic
Cheirokro@@
lla
ilek@@
paide@@
scal@@
ths
ird
ours
sei@@
quot@@
plik@@
progra@@
dents
eidi@@
begin@@
behavi@@
sing@@
pleu@@
F
interes@@
tun@@
dollar@@
hal@@
inno@@
forma@@
divi@@
ow
ound
lamv@@
busin@@
paroy@@
uparch@@
ouldn
remem@@
vern@@
oppor@@
thou@@
oto@@
diafer@@
Moys@@
grafies
eirokro@@
oikon@@
q
plith@@
isteu@@
Amer@@
kok@@
charis@@
perioch@@
izo
suneidi@@
formation
ate@@
chis@@
dif@@
vide@@
sic
J
chall@@
pan
U
youn@@
zon@@
ult
fiel@@
cer
ques@@
metax@@
move@@
♫@@
moir@@
dn
ttar@@
deu@@
syste@@
W
demo@@
f-@@
omi@@
Yor@@
amoun@@
ternet
langu@@
haps
ility
0
ekan@@
twe@@
amaz@@
cham@@
oloy
inon@@
anth@@
&@@
ind
ca
kly
stima
ands
NA
ause
prob@@
X
pen
aroti@@
dren
photo@@
pete
Ύ@@
Chre@@
tty
=
Y
Ώ@@
:@@
issoter@@
é@@
Ye@@
ough
Z
sci@@
ikoinon@@
é
Ό
U.S@@
his@@
–
paich@@
commun@@
ou
compan@@
kekri@@
Ear@@
proig@@
"Gi@@
diffic@@
beauti@@
omichan@@
+
boo@@
til
Q
velo@@
midd@@
^
knowle@@
domati@@
proble@@
—@@
“
―
q@@
eleu@@
teleu@@
lachiston
á@@
igh
know@@
¨
num@@
selves
‘
nika
ekatonta@@
with@@
year@@
nee@@
”
Goog@@
è@@
gether
beh@@
tonta@@
​
engin@@
diait@@
ease
parch@@
♪@@
@
esn
arkeia
mech@@
viron@@
wr@@
entists
´
inai
᾽
−
charisto
grow@@
ross
·
anim@@
tween
ó@@
gora
beha@@
actly
ã@@
í@@
plause
&#93@@
ainst
domena
#
ö@@
lachis@@
ó
Ϊ@@
epre@@
ñ@@
pota
ourself
gorith@@
tury
´
kairia
upirch@@
ç@@
opportun@@
them@@
j
dividu@@
อ@@
á
˙
è
…
”@@
·@@
µ@@

£
euna
;
Uparch@@
*
ü@@
¾
ø@@
ī@@
ὀ@@
{
΅
∇
²
ï@@
happen@@
à
ipon
ā@@
°
ě@@
ἀ@@
ä@@
%@@
Ἐ@@
Ϊ
ร
่
τ
¨@@
Ἠ
î@@
ย
û@@
ë@@
Č@@
ē
Å@@
Ç@@
ê@@
ย@@
–@@
™
º@@
€
$@@
ὀ
©
®
ἰ@@
ἐ@@
ὐ
Ἀ@@
&#@@
―@@
•
š@@
ύ@@
Ί
leitoy@@
ῦ
∙
¼
ù
ī

½
῾@@
ï
