, 114589
the 75511
. 50414
." 50232
to 47805
of 44871
a 40914
and 40879
that 34665
in 30466
I 28884
is 25428
it 23809
&quot; 23722
you 23409
&apos;s 21692
we 21173
this 15857
was 12235
are 11546
on 11303
for 11122
have 10369
they 9852
with 9314
re@@ 9195
can 9056
"And 8843
at 8788
what 8495
s@@ 8486
— 8440
&apos;t 8391
be 8182
as 8167
an 8127
in@@ 8095
s 8094
And 8058
ing 8048
about 8045
c@@ 7974
all 7809
e 7317
not 7051
ed 6987
b@@ 6868
one 6779
my 6713
or 6677
do 6660
y 6458
there 6415
&apos;re 6381
t 6321
es 6304
e@@ 6274
? 6072
like 6065
-@@ 6038
from 5926
people 5898
f@@ 5812
me 5754
so 5708
our 5679
h@@ 5619
ts 5550
but 5328
) 5321
just 5237
g@@ 5073
very 5033
d@@ 4962
out 4932
: 4916
con@@ 4877
al 4820
w@@ 4791
"So 4783
d 4776
en@@ 4748
i@@ 4722
by 4697
de@@ 4611
if 4603
these 4593
u@@ 4576
S@@ 4561
ly 4537
them 4450
a@@ 4439
more 4376
us 4370
up 4309
going 4249
know 4216
It 4214
when 4205
( 4166
n@@ 4160
he 4160
had 4125
ac@@ 4106
were 4048
le@@ 4043
se@@ 4034
o@@ 4007
l@@ 3991
because 3985
see 3962
their 3934
think 3901
m 3886
So 3874
how 3862
get 3793
who 3765
your 3670
would 3661
p@@ 3631
which 3621
tion 3590
ted 3572
time 3561
ti@@ 3561
ro@@ 3553
m@@ 3501
C@@ 3495
ting 3485
really 3483
li@@ 3481
ar@@ 3469
ation 3465
to@@ 3462
here 3434
&apos;ve 3418
way 3389
&apos;m 3353
un@@ 3338
an@@ 3336
We 3336
has 3260
as@@ 3255
where 3218
then 3209
actually 3204
world 3189
n 3156
me@@ 3149
t@@ 3138
M@@ 3121
some 3106
don 3081
"I 3068
er 3064
y@@ 3059
al@@ 3039
?" 3038
co@@ 3004
ri@@ 2999
into 2990
si@@ 2981
years 2978
for@@ 2965
The 2957
ra@@ 2952
pro@@ 2947
will 2914
now 2905
B@@ 2845
mo@@ 2841
ds 2834
Laughter 2812
k 2782
di@@ 2781
things 2779
other 2774
D@@ 2754
A@@ 2720
ex@@ 2711
ers 2690
could 2687
want 2653
be@@ 2648
v@@ 2636
is@@ 2630
make 2619
been 2615
go 2613
"But 2572
T@@ 2544
ad@@ 2517
er@@ 2493
la@@ 2480
right 2473
But 2470
or@@ 2451
said 2447
ter 2435
es@@ 2434
ci@@ 2421
ma@@ 2403
te@@ 2393
able 2391
tra@@ 2372
than 2366
l 2348
ar 2346
ce 2343
something 2336
much 2331
th 2328
no 2320
lo@@ 2287
first 2284
dis@@ 2273
thing 2269
H@@ 2263
on@@ 2228
r@@ 2222
those 2209
two 2203
also 2192
fe@@ 2189
ally 2188
"It 2186
ous 2175
com@@ 2175
pre@@ 2175
work 2174
en 2158
ate 2154
ve 2141
This 2133
"Now 2126
p 2117
ent 2110
little 2099
cu@@ 2086
k@@ 2068
she 2064
back 2063
"The 2047
look 2043
only 2023
it@@ 2018
po@@ 2014
got 2012
ity 2010
de 2006
over 1992
P@@ 1991
"We 1990
tions 1985
su@@ 1978
ter@@ 1967
You 1967
h 1960
most 1957
ne@@ 1955
ct 1950
ment 1948
his 1948
per@@ 1944
many 1939
life 1938
g 1936
ag@@ 1934
day 1931
te 1928
o 1926
even 1923
r 1920
E@@ 1915
say 1915
take 1885
O@@ 1882
need 1875
its 1857
ver@@ 1839
pe@@ 1839
W@@ 1825
did 1821
Applause 1811
her 1807
ding 1792
lot 1774
sta@@ 1770
They 1765
new 1764
G@@ 1752
ck 1750
F@@ 1729
ch 1728
tive 1724
re 1720
come 1720
kind 1720
z@@ 1720
tu@@ 1719
no@@ 1713
R@@ 1691
"In 1686
around 1686
age 1670
par@@ 1670
ap@@ 1670
I@@ 1652
ge 1647
good 1644
th@@ 1637
ms 1630
every 1629
qu@@ 1626
ble 1625
do@@ 1624
through 1621
ta@@ 1615
il@@ 1604
ic@@ 1585
ou@@ 1581
different 1573
same 1567
im@@ 1564
1@@ 1563
down 1539
min@@ 1538
That 1535
se 1525
being 1523
le 1517
use 1512
c 1506
"@@ 1502
ph@@ 1496
ty 1485
&apos;ll 1483
mi@@ 1478
j@@ 1465
sho@@ 1464
el@@ 1459
au@@ 1457
What 1441
doing 1425
ol@@ 1424
les 1414
ant 1414
put 1414
ded 1414
at@@ 1410
called 1407
any 1404
cen@@ 1397
ved 1397
fi@@ 1389
inter@@ 1388
et 1379
bo@@ 1379
; 1368
tri@@ 1367
J@@ 1357
ha@@ 1356
ten@@ 1355
L@@ 1355
am@@ 1355
led 1351
us@@ 1345
ab@@ 1345
wor@@ 1344
ru@@ 1341
ad 1329
"( 1326
ever 1324
ties 1311
&apos;d 1311
ters 1309
pi@@ 1303
percent 1302
♫ 1299
w 1285
der 1281
gre@@ 1279
gs 1278
ho@@ 1276
cor@@ 1274
ite 1272
vi@@ 1271
car@@ 1269
three 1267
man@@ 1265
tly 1261
"This 1261
made 1257
N@@ 1248
tic 1246
ated 1244
"You 1243
tr@@ 1243
we@@ 1241
human 1241
"A@@ 1238
let 1238
tell 1233
ch@@ 1233
st@@ 1222
mis@@ 1221
red 1220
pl@@ 1220
sh@@ 1216
well 1216
ary 1215
body 1214
mil@@ 1212
year 1211
king 1210
est 1207
why 1206
ks 1203
own 1202
today 1199
sion 1194
ture 1191
fin@@ 1187
bu@@ 1187
Thank 1186
ws 1185
find 1185
mon@@ 1180
spe@@ 1178
idea 1177
sur@@ 1173
st 1171
fact 1170
low 1170
try 1168
gu@@ 1162
ls 1160
change 1159
ice 1153
didn 1149
ot@@ 1149
"If 1139
ction 1135
gra@@ 1129
started 1129
ments 1123
old 1121
less 1117
am 1116
talk 1115
als 1109
great 1103
pu@@ 1100
men@@ 1099
sen@@ 1093
ating 1091
ev@@ 1089
"O@@ 1080
so@@ 1076
There 1075
b 1073
gi@@ 1069
bi@@ 1064
ning 1063
after 1060
man 1051
should 1048
course 1048
ob@@ 1047
went 1042
ser@@ 1040
story 1039
before 1037
x@@ 1037
big 1035
gen@@ 1034
fu@@ 1029
last 1025
cre@@ 1023
better 1020
ling 1019
him 1019
"They 1017
ces 1017
still 1015
never 1015
might 1015
wh@@ 1013
end 1010
ine 1008
ago 1007
tre@@ 1006
important 1005
cap@@ 1004
ni@@ 1003
ss 1001
came 1001
ying 1001
ry 1000
ps 999
sed 999
together 998
mar@@ 997
2@@ 995
ir@@ 995
ies 993
give 991
place 987
system 986
ations 985
trans@@ 985
om@@ 983
sto@@ 982
does 982
ence 979
cy 978
part 977
problem 974
thought 974
off 971
os@@ 970
A 970
He 967
bit 966
pa@@ 962
another 959
next 957
tin@@ 955
women 954
od 953
brain 950
ge@@ 947
cal 947
ked 946
few 939
na@@ 939
cted 939
ons 938
ght 936
found 936
ran@@ 936
sp@@ 935
each 934
gh@@ 931
tor 931
ses 931
ris@@ 929
"Well 929
start 929
used 928
K@@ 924
tional 914
ver 914
fac@@ 913
der@@ 912
lin@@ 912
em@@ 910
tely 908
Now 907
data 906
ll 903
av@@ 902
ful 900
"S@@ 894
ke@@ 893
between 892
show 892
ei@@ 891
again 889
uc@@ 886
comes 885
ans 884
technology 880
children 880
example 873
col@@ 868
med 866
too 860
af@@ 858
question 849
wanted 848
looking 847
&apos; 845
lar@@ 844
da@@ 844
ves 841
cho@@ 841
information 838
ness 837
point 835
stu@@ 835
long 833
tro@@ 831
V@@ 831
How 829
ast 828
gener@@ 826
sort 826
ep@@ 823
understand 820
mean 820
done 819
ic 819
3@@ 816
tors 814
away 814
doesn 814
water 809
wing 808
lis@@ 803
may 802
plan@@ 798
struc@@ 795
live 795
oun@@ 793
fun@@ 793
pe 792
using 790
person 789
mor@@ 789
produc@@ 785
line 785
bro@@ 783
ical 783
real 779
x 779
19@@ 778
pri@@ 777
tal@@ 777
10 774
love 772
believe 771
sti@@ 770
ping 769
under@@ 768
tic@@ 766
ty@@ 765
Th@@ 765
cri@@ 764
always 763
fer@@ 763
cur@@ 758
light 758
mu@@ 757
call 751
any@@ 750
face 747
school 747
.@@ 745
ach 744
ste@@ 743
str@@ 742
sig@@ 742
million 742
oc@@ 741
tes 737
op@@ 737
por@@ 737
che@@ 737
times 736
means 735
city 734
form 732
took 730
"When 727
du@@ 725
ele@@ 722
chan@@ 721
men 720
tion@@ 719
ger 717
working 716
ai@@ 713
sk@@ 713
ef@@ 711
power 709
stan@@ 701
coming 700
"Th@@ 700
country 699
cra@@ 698
ging 697
bre@@ 697
four 694
whole 694
el 692
den@@ 691
poli@@ 690
Wh@@ 688
ve@@ 687
ther 686
organ@@ 686
trying 686
create 686
&quot;" 682
conne@@ 681
val@@ 681
land 680
ven@@ 678
feel 678
see@@ 677
ase 677
tures 676
colle@@ 675
sub@@ 673
help 671
home 670
maybe 669
Ch@@ 669
dic@@ 668
everything 668
become 668
ance 667
mer@@ 666
expl@@ 666
thinking 663
ak@@ 662
sup@@ 662
pas@@ 660
5@@ 657
star@@ 656
up@@ 655
,000 654
ur@@ 652
he@@ 651
money 651
ten 649
lan@@ 648
wn 648
the@@ 646
number 645
ess 644
qui@@ 643
experi@@ 642
uni@@ 642
lives 642
making 641
second 641
book 638
possible 637
ome 637
dre@@ 634
sa@@ 634
Well 634
wed 633
room 633
social 632
ear@@ 631
ul@@ 630
bra@@ 629
best 628
4@@ 627
ins 625
hi@@ 624
set 623
rin@@ 623
act 622
dri@@ 621
cli@@ 620
wi@@ 620
bac@@ 620
design 619
small 618
lu@@ 618
future 616
ain 616
ones 615
enough 615
ther@@ 614
"There 613
"That 613
food 613
win@@ 611
fic@@ 609
left 609
stre@@ 608
happened 608
iz@@ 608
sense 608
go@@ 607
ach@@ 607
"He 607
sure 605
um 604
quite 603
ise 602
getting 601
ca@@ 601
cts 600
saw 600
talking 599
vis@@ 599
50 599
pres@@ 598
ctive 596
kids 596
Here 596
! 594
side 593
ways 593
stra@@ 593
har@@ 590
dent 589
lar 588
sol@@ 587
living 587
high@@ 587
per 587
nor@@ 586
i 585
care 584
science 583
cer@@ 581
mas@@ 581
interesting 581
clo@@ 581
told 579
In@@ 579
war@@ 577
ren@@ 574
without 573
effe@@ 573
ents 573
ose 572
cells 570
ard 568
ple@@ 568
across 568
five 567
ake 567
though 563
ue 562
experience 562
pretty 560
space 560
sive 559
son 559
coun@@ 559
hed 559
develo@@ 556
ask 556
test 554
car 554
fic 554
ously 553
makes 552
ner 552
ill 552
hand 551
tw@@ 550
7@@ 548
speci@@ 548
ali@@ 547
id@@ 547
case 547
ned 547
such 547
countries 546
seen 546
ship 546
tan@@ 545
Why 545
ns 543
asked 543
else 543
dro@@ 542
wat@@ 541
mati@@ 540
family 540
happens 539
"E@@ 539
days 539
Y@@ 538
suc@@ 536
ol 536
ving 535
"L@@ 535
res@@ 535
simple 535
young 534
anything 532
energy 532
prote@@ 532
half 531
hard 530
rela@@ 528
"M@@ 528
says 528
words 528
moment 526
ot 525
ced 525
ality 525
happen 524
single 524
"N@@ 524
turn 523
hel@@ 523
pic@@ 522
mind 522
ay 522
mer 520
building 520
play 520
clas@@ 519
tain@@ 518
of@@ 517
5 516
um@@ 516
ese 515
bas@@ 515
probably 513
"What 512
having 511
move 510
6@@ 510
des 510
New 509
e-@@ 509
learn 508
evol@@ 508
health 506
respon@@ 506
over@@ 504
sor@@ 502
process 501
almost 501
teach@@ 501
head 501
Let 500
later 500
picture 499
ber@@ 499
ber 497
cep@@ 496
den 495
works 495
while 495
ing@@ 495
"F@@ 495
ices 493
cal@@ 492
art 491
duc@@ 489
eng@@ 488
fo@@ 488
vol@@ 488
"B@@ 487
read 486
inv@@ 486
pati@@ 486
port 485
bri@@ 485
computer 485
"T@@ 484
bad 484
air 483
looked 483
her@@ 483
cess@@ 482
20 482
top 482
ings 482
cle@@ 481
build 481
prin@@ 479
reason 478
billion 478
bly 478
inside 476
ia 476
night 476
all@@ 476
disco@@ 476
ang@@ 476
goes 475
fas@@ 475
tis@@ 475
stuff 474
plic@@ 473
tur@@ 472
order 472
cul@@ 471
ming 471
history 470
ghts 470
0@@ 470
mother 469
il 469
pan@@ 469
answer 469
tle 468
gest 468
Earth 468
2 467
government 467
United 467
myself 467
gro@@ 466
far 466
matter 466
ton 466
and@@ 466
ences 465
U@@ 465
mental 465
yet 465
hu@@ 465
bot@@ 464
both 464
music 464
rag@@ 463
remember 463
tem@@ 463
f 463
dollars 463
high 462
8 461
nothing 461
tar@@ 460
4 460
often 459
saying 459
amazing 458
whether 457
crea@@ 455
cs 455
ability 454
posi@@ 454
eight 454
tice 453
wrong 452
dra@@ 449
word 449
guy 449
child 448
ler 448
within 447
20@@ 447
global 446
30 446
ig@@ 446
shi@@ 444
bor@@ 443
fre@@ 443
aw@@ 443
cks 442
pen@@ 442
hundre@@ 441
"For 441
&#91; 440
basically 440
mal@@ 440
lead@@ 439
flo@@ 439
problems 439
looks 439
allo@@ 439
ven 439
friends 438
mate 438
public 438
oper@@ 438
9 437
planet 437
materi@@ 437
dies 437
serv@@ 437
She 437
true 437
&#93; 436
ki@@ 436
id 436
ft 436
wa@@ 435
"As 434
piece 434
rap@@ 433
incredi@@ 433
cro@@ 431
contin@@ 431
tation 431
desig@@ 431
video 431
log@@ 430
open 429
keep 429
feel@@ 428
society 427
already 427
once 427
heard 427
imagine 427
An@@ 427
logy 425
200@@ 424
ion 424
ill@@ 423
equ@@ 423
S 422
beautiful 422
din@@ 422
"C@@ 421
someone 421
pain@@ 419
States 419
table 419
ely 419
education 419
issu@@ 418
tru@@ 418
hope 418
"Because 418
fil@@ 418
rit@@ 418
enti@@ 418
project 417
ide@@ 417
ut 417
cle 416
ke 415
ual 415
level 414
exactly 414
happening 413
species 413
tor@@ 413
exis@@ 413
woman 412
ep 412
pos@@ 412
business 411
community 411
rec@@ 411
0s 411
ss@@ 410
My 410
3 410
ideas 410
ized 410
gn@@ 409
standing 408
dom 408
India 408
created 408
tical 408
nature 408
duce 407
pai@@ 406
group 405
Because 405
sum@@ 405
learned 405
mag@@ 405
dec@@ 404
resul@@ 404
fully 404
culture 404
ras@@ 403
job 402
study 402
ed@@ 402
ring 401
months 401
until 400
against 400
wasn 400
six 400
ish 400
taking 399
Africa 399
ors 399
dy@@ 399
wal@@ 398
bring 398
since 397
dia@@ 397
t-@@ 397
riv@@ 397
ution 396
incre@@ 396
gets 396
Mar@@ 396
individu@@ 395
8@@ 395
ges 395
control 395
eas@@ 395
No 395
big@@ 394
thro@@ 394
fol@@ 394
decided 393
ple 393
6 392
tics 392
view 392
reco@@ 392
je@@ 392
stories 392
ization 391
must 391
news 391
became 391
om 390
lab@@ 390
sing 390
ples 389
ates 389
are@@ 389
name 389
everyone 388
ce@@ 388
bility 388
sion@@ 388
research 388
ped 387
fai@@ 387
eb@@ 387
cancer 387
hear 386
cas@@ 386
couple 386
jects 386
ma 386
completely 385
phone 384
These 383
house 383
large 381
action 381
isn 381
lions 381
dru@@ 381
sli@@ 380
7 380
appe@@ 380
person@@ 379
ust 379
stop 379
kinds 379
fici@@ 378
ys 378
cial 377
state 377
takes 377
os 377
late 376
itself 375
ourselves 375
las@@ 375
everybody 374
shor@@ 374
char@@ 374
hy@@ 374
"H@@ 373
huge 373
some@@ 373
hours 373
sis@@ 373
worked 372
under 372
fes@@ 371
knew 370
intel@@ 370
language 370
built 369
shar@@ 369
vo@@ 369
tual 368
students 368
tivity 367
cir@@ 367
ize 367
lik@@ 367
ject 367
rather 366
self 366
"P@@ 365
K 365
questions 365
sometimes 364
particular 364
cus@@ 363
places 363
arch@@ 363
expe@@ 363
ga@@ 363
bil@@ 362
heart 362
fl@@ 361
bed 361
ju@@ 361
others 360
defin@@ 360
sound 360
One 360
national 359
anti@@ 359
themselves 359
cell 359
ima@@ 358
cept 357
alis@@ 357
share 357
turns 356
disease 356
tory 356
hor@@ 356
dy 355
mic 355
cing 355
learning 355
century 354
kno@@ 353
appro@@ 353
ur 353
past 353
changed 353
front 353
Internet 353
cl@@ 352
dev@@ 352
out@@ 352
ato@@ 352
wer 352
vel@@ 351
tting 351
grap@@ 351
shap@@ 351
America 350
run 350
universe 350
reli@@ 349
ital 349
ders 349
cau@@ 349
thre@@ 349
least 349
fish 348
exci@@ 347
rate 347
self-@@ 347
ay@@ 347
vered 347
cos@@ 346
medi@@ 346
can@@ 346
ist 346
wan@@ 346
presen@@ 345
cou@@ 345
thousands 345
company 345
net@@ 344
vers@@ 344
♪ 344
communic@@ 343
depen@@ 343
TED 343
outh 342
Re@@ 342
gave 342
entire 342
machine 342
outside 341
lies 341
animals 341
passion 341
war 340
1 339
cy@@ 339
American 339
tribu@@ 338
blo@@ 338
ain@@ 338
ari@@ 337
along 337
measu@@ 337
instead 337
vari@@ 337
happy 336
China 336
natural 336
pped 336
pol@@ 335
environment 335
ean 335
fli@@ 334
rus@@ 334
jour@@ 334
tial 333
gin@@ 333
"W@@ 333
Euro@@ 333
eyes 333
kil@@ 333
patter@@ 333
key 332
reas@@ 332
pin@@ 332
cities 332
was@@ 332
ics 332
taken 332
ner@@ 331
u 331
ined 330
won 330
dly 330
scienti@@ 330
tually 329
ak 329
run@@ 329
00 329
game 329
pli@@ 329
sions 329
model 329
recor@@ 329
9@@ 328
turned 328
ger@@ 327
bab@@ 327
ker 327
known 327
difference 327
wil@@ 326
kay 326
seeing 325
beli@@ 325
somebody 325
ots 325
dience 325
liter@@ 325
ordin@@ 324
mul@@ 324
York 324
God 324
wards 323
comm@@ 323
ote 323
lots 323
far@@ 323
tal 323
tent 323
ben@@ 323
arti@@ 322
ces@@ 322
father 322
couldn 321
d-@@ 321
hing 321
ey@@ 321
economic 320
difficult 320
"A 320
needed 320
behind 319
Gre@@ 319
dence 319
early 319
tally 318
wit@@ 318
ens 318
tas@@ 318
dar@@ 317
fer 317
than@@ 317
posed 317
black 316
given 315
doc@@ 315
cting 315
versity 315
maj@@ 314
eigh@@ 314
compu@@ 314
cally 314
photograp@@ 314
political 313
longer 313
100 313
sequ@@ 313
ues 312
ey 312
scale 311
indus@@ 311
ton@@ 311
inclu@@ 310
ground 310
democra@@ 309
parents 309
micro@@ 308
cel@@ 308
image 308
jo@@ 308
"One 307
felt 307
friend 307
tively 307
figure 307
0,000 306
fa@@ 306
engine@@ 306
provi@@ 306
perhaps 305
ze 305
based 305
vision 305
finally 305
books 305
ome@@ 304
Con@@ 304
ron@@ 304
pap@@ 304
vir@@ 304
hos@@ 304
sug@@ 304
ace 303
third 303
ption 303
close 303
15 303
bir@@ 303
free 303
either 302
If 302
ines 302
"D@@ 302
consci@@ 302
during 301
ages 301
All 301
scre@@ 301
minutes 300
ly@@ 300
apo@@ 299
deli@@ 299
local 299
bar@@ 299
growth 299
absolu@@ 299
media 299
Al@@ 299
mess@@ 298
easy 298
prac@@ 298
population 298
beginning 298
needs 298
flu@@ 298
cannot 297
M 297
atten@@ 297
lon@@ 297
logis@@ 297
bur@@ 296
open@@ 296
possi@@ 296
systems 296
spi@@ 296
play@@ 295
ets 295
pris@@ 295
surpris@@ 295
guys 295
extra@@ 295
ka@@ 295
"Wh@@ 295
certain 295
focu@@ 294
ched 294
ow@@ 294
ok 294
simply 293
decis@@ 293
consi@@ 293
economy 292
non@@ 292
pon@@ 291
Nor@@ 291
ore 291
physi@@ 291
comple@@ 291
verage 291
fe 291
Right 290
civi@@ 290
eu@@ 290
size 290
relation@@ 290
fra@@ 290
sil@@ 290
Okay 290
died 289
clu@@ 289
step 288
impro@@ 288
"My 288
leave 288
ching 288
Music 288
pla@@ 288
ere 287
terms 287
obvi@@ 287
memor@@ 287
every@@ 286
hands 286
leg@@ 286
wel@@ 286
squ@@ 286
"She 286
born 285
og@@ 285
ames 285
sour@@ 284
Oh 284
telling 284
air@@ 284
gic 284
grand@@ 284
full 283
poin@@ 283
In 283
ike 283
eks 283
emo@@ 283
ous@@ 283
sym@@ 282
began 282
da 281
companies 281
Pe@@ 281
’ 281
ugh@@ 281
movi@@ 281
physical 281
alls 280
bloo@@ 280
Eng@@ 280
charac@@ 279
tradi@@ 279
ward 279
realized 279
moving 278
follo@@ 278
lau@@ 278
rest 278
seven 278
reality 278
walk 277
ople 277
institu@@ 277
wo@@ 277
visi@@ 277
ell 277
tance 276
met 276
quickly 276
De@@ 276
D 276
Ar@@ 276
wri@@ 276
tel@@ 276
lost 275
ently 275
text 275
ically 275
soun@@ 275
grow 274
week 274
super@@ 274
identi@@ 274
wonderful 274
des@@ 274
blu@@ 274
ney 274
changes 273
bal@@ 273
V 273
human@@ 273
pose 273
images 273
wers 273
care@@ 273
cent 272
powerful 272
invol@@ 272
Just 272
ack 272
heal@@ 271
middle 271
aking 271
amount 271
extre@@ 271
mers 271
present 270
ail@@ 270
10@@ 270
numbers 270
ars 270
ater 270
ged 270
year-@@ 270
mal 269
P 269
vas@@ 269
fect 269
ctions 269
cam@@ 268
resour@@ 268
lation 268
pt 268
market 267
program 267
usu@@ 267
peri@@ 267
spre@@ 266
cars 266
evi@@ 266
ols 266
elec@@ 266
voice 266
yourself 266
deal 265
fle@@ 265
dge 265
tes@@ 265
humans 265
parts 264
tural 264
bio@@ 264
exam@@ 263
descri@@ 263
"&quot; 263
Yes 263
inven@@ 263
lor 263
electri@@ 262
giving 262
hap@@ 262
area 262
spo@@ 262
ral 262
gion 262
lish 261
Wor@@ 261
field 261
hear@@ 261
tain 261
mat@@ 261
speak 261
common 260
argu@@ 260
tiz@@ 260
tried 260
ods 260
cost 260
fami@@ 260
forward 259
movement 259
theor@@ 259
mes 259
perfor@@ 259
condi@@ 259
od@@ 259
tools 258
poten@@ 258
wer@@ 258
Na@@ 257
... 256
lap@@ 256
ap 256
head@@ 255
knowledge 255
spend 255
ried 255
ism 255
anima@@ 255
ners 255
solution 254
alone 254
tele@@ 254
complex 253
pment 253
technologies 253
bs 253
scientists 253
direc@@ 252
gir@@ 252
ries 252
U.S. 252
ax@@ 252
green 251
imp@@ 251
ath@@ 251
off@@ 251
spent 250
fav@@ 250
team 250
row 250
realize 250
tives 250
choice 250
pur@@ 250
girl 250
blin@@ 250
sit@@ 249
sitting 249
compe@@ 249
challenge 249
orig@@ 249
violence 249
growing 249
wouldn 248
ester@@ 248
atta@@ 248
death 248
ond 247
hold 247
pes 247
solve 246
40 246
gence 246
res 246
pub@@ 246
inspi@@ 246
advan@@ 246
opportunity 246
behavior 246
whatever 246
write 246
ere@@ 246
hon@@ 245
ught 245
"In@@ 245
chi@@ 245
vie@@ 245
interested 245
Yeah 245
terri@@ 245
ck@@ 244
pus@@ 244
ne 244
tap@@ 243
ld 243
lecu@@ 243
rele@@ 242
access 242
Jo@@ 242
innov@@ 242
br@@ 242
dang@@ 241
marke@@ 241
developed 241
gone 241
digital 241
die 240
econom@@ 240
Par@@ 240
psy@@ 240
our@@ 240
glo@@ 239
soci@@ 239
figu@@ 239
gar@@ 239
ace@@ 239
smar@@ 239
ug@@ 238
liz@@ 238
ef 238
Z@@ 237
differ@@ 235
box 235
az@@ 235
pho@@ 233
lear@@ 233
vel 232
o-@@ 232
sis 232
archite@@ 231
ith 231
mem@@ 231
teria 230
ree 229
cess 229
ply 228
my@@ 227
read@@ 226
susta@@ 225
ran 224
auto@@ 223
T 223
gine 223
ser 223
DNA 223
ites 220
nu@@ 220
ian 219
esti@@ 218
Pro@@ 218
syn@@ 218
film 218
ba@@ 218
ath 217
12 217
Lo@@ 215
dom@@ 214
sav@@ 214
hun@@ 214
ile 214
dio 214
tan 213
very@@ 213
ah 213
py 213
va@@ 211
saf@@ 211
scho@@ 211
Li@@ 210
C 210
Mo@@ 210
bat@@ 210
sex@@ 210
Is@@ 209
stri@@ 209
Su@@ 209
beg@@ 209
kin@@ 208
ban@@ 207
socie@@ 206
11 205
plo@@ 203
stand 203
tab@@ 202
60 202
vin@@ 201
und 201
ili@@ 201
bers 201
fore 199
Ger@@ 199
lim@@ 199
Uni@@ 199
z 199
dol@@ 198
oy 198
main@@ 197
Fran@@ 196
oy@@ 196
contro@@ 195
iss@@ 195
bes 195
ra 195
mit@@ 194
Go@@ 194
path@@ 194
sel@@ 193
Di@@ 193
sm@@ 193
buil@@ 193
tter 193
plac@@ 192
r. 192
particu@@ 191
eg@@ 191
la 190
Be@@ 190
parti@@ 190
rong 189
len@@ 189
sex 189
ches 189
ready 189
real@@ 188
gene@@ 188
cause 188
Le@@ 188
No@@ 186
80 186
impor@@ 185
fir@@ 185
nd 185
popu@@ 185
ades 185
mach@@ 183
ye@@ 183
analy@@ 182
,@@ 182
secon@@ 182
mathe@@ 182
deci@@ 181
tau@@ 181
na 181
minu@@ 180
ploy@@ 180
Au@@ 179
gal@@ 179
son@@ 178
"To 178
fri@@ 178
"I@@ 178
nar@@ 178
ans@@ 177
aughter 177
ry@@ 176
Google 176
sia 175
olog@@ 175
Americ@@ 175
tai@@ 174
mera 174
B 174
govern@@ 173
Lon@@ 173
whe@@ 173
pie@@ 173
mode@@ 173
)" 173
ta 172
Sta@@ 172
ole 172
environ@@ 171
sal@@ 170
mus@@ 170
"G@@ 169
rese@@ 167
ban 166
arch 166
mor 166
solu@@ 165
neuron@@ 165
tra 165
Af@@ 164
ould 164
thous@@ 164
Q@@ 163
uch 163
O 162
"U@@ 162
xi@@ 162
ank 162
stitu@@ 161
18@@ 161
Ri@@ 161
iti@@ 160
R 160
tron@@ 160
fis@@ 160
Ma@@ 160
25 159
vely 159
ster@@ 159
risis 159
by@@ 158
eth@@ 158
isto@@ 158
fantas@@ 158
sun@@ 158
dan@@ 158
organis@@ 158
don@@ 157
For@@ 157
dd@@ 157
educ@@ 157
augh@@ 156
So@@ 155
199@@ 155
nia 155
verse 155
anis@@ 154
meth@@ 154
eli@@ 154
gri@@ 153
Afri@@ 152
Ne@@ 151
robot 151
won@@ 150
U.@@ 149
Sa@@ 149
500 147
Bra@@ 147
tists 146
tin 145
teri@@ 145
G 145
aid 144
Me@@ 144
ok@@ 143
kep@@ 143
ugh 143
plas@@ 143
lo 142
eve 142
thin@@ 142
mak@@ 141
ik@@ 141
mel@@ 141
para@@ 141
neuro@@ 141
loo@@ 140
neu@@ 140
ave 140
ris 140
Kor@@ 140
ero 139
viol@@ 138
trep@@ 138
ich 138
90 137
cour@@ 137
bus@@ 137
ora@@ 137
E 137
fal@@ 137
viv@@ 136
200 136
ech@@ 136
ends 136
Po@@ 136
tter@@ 136
tos 136
upo@@ 133
chil@@ 133
gan@@ 132
La@@ 132
SA 132
proto@@ 132
loso@@ 132
challen@@ 131
spen@@ 131
gh 131
sul@@ 131
ably 130
TE@@ 130
econ@@ 130
algorith@@ 130
Chris@@ 129
ade@@ 129
70 128
bl@@ 128
beau@@ 128
ai 128
stead 127
Aus@@ 127
fel@@ 127
tant 126
ema@@ 126
ff 126
Man@@ 125
power@@ 125
Isra@@ 125
ouse 125
asu@@ 125
wonder@@ 125
ich@@ 125
/ 124
mas 124
En@@ 124
uch@@ 123
Ex@@ 123
pag@@ 123
sim@@ 122
diagno@@ 122
Bo@@ 122
bal 122
tiv@@ 122
Per@@ 121
gor@@ 120
Si@@ 120
quic@@ 119
dig@@ 119
net 118
lex@@ 118
ana 118
era 118
gy@@ 117
lig@@ 117
dia 117
thor@@ 116
" 116
ron 115
ame 115
ea 114
fras@@ 113
io 113
lion 113
oti@@ 113
Char@@ 113
paral@@ 112
lic 112
Ken@@ 112
tech@@ 112
Mu@@ 112
scal@@ 111
ful@@ 111
oys 111
Mil@@ 110
ek@@ 110
ours 110
..@@ 110
ths 110
ird 110
zo@@ 110
quot@@ 109
gran@@ 109
!" 109
dents 109
X@@ 109
techno@@ 108
zi@@ 108
fro@@ 108
aro@@ 108
begin@@ 108
progra@@ 108
ion@@ 107
behavi@@ 107
epi@@ 107
fron@@ 106
ox@@ 106
interes@@ 105
miz@@ 104
meta@@ 104
sing@@ 103
therap@@ 103
&apos;@@ 102
hal@@ 102
tun@@ 102
inno@@ 101
motiv@@ 101
ada 101
sch@@ 100
tries 100
dio@@ 100
pal@@ 99
forma@@ 99
divi@@ 99
iP@@ 99
techn@@ 98
pra@@ 98
alia 98
pto@@ 98
program@@ 97
chim@@ 96
ound 95
busin@@ 95
stro@@ 95
ouldn 94
ow 94
remem@@ 94
sy@@ 93
L 93
Ap@@ 93
rg@@ 93
oppor@@ 92
erg@@ 92
sin@@ 91
aria 91
lit@@ 91
fan@@ 90
eri@@ 90
thou@@ 90
pros@@ 90
tach@@ 89
imes 88
omenon 88
robo@@ 87
ane 86
prosthe@@ 86
dun@@ 85
mos@@ 85
Gi@@ 84
As 84
dai@@ 84
$ 84
q 84
otes 84
Vi@@ 83
formation 83
istan 82
apar@@ 82
pate 81
ek 81
vide@@ 81
anal@@ 80
To 80
"V@@ 80
chall@@ 79
ro 79
sic 79
ola 78
ez@@ 78
ult 77
N 77
youn@@ 77
kes 76
oles 76
van@@ 76
cer 76
ques@@ 76
fiel@@ 75
dif@@ 75
ny@@ 75
yg@@ 74
move@@ 74
- 74
tero@@ 73
H 73
chro@@ 73
gies 72
akes 72
pothe@@ 72
dn 71
gon@@ 71
cha@@ 70
ano 70
iti 69
rch@@ 69
ark@@ 69
demo@@ 69
syste@@ 69
ky@@ 68
ite@@ 68
ano@@ 68
ith@@ 68
sche@@ 68
diplo@@ 67
itan 67
via 67
gel@@ 67
amoun@@ 67
toy 67
langu@@ 66
f-@@ 66
ras 66
ility 65
000 65
haps 65
roy@@ 65
W 64
yn@@ 64
maz@@ 64
dial@@ 63
F 63
ami 63
ener@@ 62
thes 62
amaz@@ 61
paras@@ 61
Yor@@ 60
ana@@ 60
ka 59
ken@@ 59
ti 59
dor@@ 58
ikes 57
tax@@ 57
plis@@ 57
thu@@ 57
kly 57
exe@@ 57
idi@@ 56
ands 56
"K@@ 56
ca 56
apan@@ 55
odi@@ 55
anato@@ 55
twe@@ 55
ego 55
diag@@ 55
ita 54
sus@@ 53
ind 53
poly@@ 53
prob@@ 53
cham@@ 52
di 52
ause 52
pair@@ 51
pen 50
v 50
io@@ 50
iki@@ 50
olo@@ 49
ker@@ 49
photo@@ 49
ina 48
ri 48
ps@@ 48
arg@@ 48
trap@@ 48
chron@@ 47
Ka@@ 47
entro@@ 47
fus@@ 46
mo 46
J 46
dren 45
alla@@ 45
tty 44
los 44
teu@@ 44
ria 44
bi 44
tasi 44
ode@@ 43
va 43
ane@@ 43
ts@@ 43
alli@@ 42
," 42
roy 42
chor@@ 42
An 41
ini 40
ari 40
doma@@ 40
mi 40
tom@@ 39
sci@@ 39
ough 39
Ye@@ 39
mato@@ 39
tise 39
may@@ 38
ida 38
dus@@ 38
lav@@ 38
♫@@ 37
mon 37
X 37
é@@ 37
&@@ 36
ix@@ 36
oth@@ 36
"An 36
ena 36
U.S@@ 36
pete 36
riz@@ 36
yp@@ 36
compan@@ 35
é 35
commun@@ 35
ia@@ 35
Y 35
his@@ 34
rin 34
ate@@ 34
tis 34
och@@ 34
"An@@ 34
ara 34
parado@@ 33
mines 33
Ear@@ 33
ata 33
ota 33
beauti@@ 33
diffic@@ 33
tro 33
skep@@ 32
velo@@ 32
anthropo@@ 32
li 32
paro@@ 32
knowle@@ 31
boo@@ 31
fon@@ 31
alon@@ 31
ou 31
til 31
midd@@ 31
top@@ 31
var@@ 31
pan 31
proble@@ 30
mos 30
oter@@ 30
gram@@ 30
uper@@ 29
pis@@ 29
tia 29
Ei@@ 29
ati 29
mia 29
tio 28
The@@ 28
ino 28
sei@@ 28
tak@@ 28
ko@@ 28
omen@@ 28
tz@@ 28
vern@@ 27
nt 27
chas@@ 27
U 27
0 27
lon 27
ga 26
then@@ 26
did@@ 26
Poli@@ 26
toys 26
sa 26
graf@@ 26
oma@@ 26
tha 26
q@@ 26
Me 26
"Gi@@ 25
ona 25
igh 25
Kan@@ 25
lla 25
armo@@ 25
ao 25
kl@@ 25
á@@ 25
vio@@ 25
know@@ 25
cher@@ 24
thei@@ 24
ides 24
una@@ 24
dos@@ 24
ston 24
ais@@ 24
prose@@ 24
gia 24
aris@@ 24
parag@@ 24
orth@@ 24
stig@@ 24
selves 24
NA 24
epis@@ 23
omena 23
"Pro@@ 23
aine 23
thal@@ 23
nee@@ 23
with@@ 23
year@@ 23
anta 22
xan@@ 22
anthro@@ 22
tas 22
kle@@ 22
sas 22
po 22
ora 22
num@@ 21
Bor@@ 21
eleg@@ 21
nees 21
xe@@ 21
pa 20
loy@@ 20
efi@@ 20
Q 20
Kin@@ 20
anag@@ 20
"En@@ 20
beh@@ 20
ros@@ 20
lep@@ 20
skin@@ 20
lei@@ 20
kar@@ 20
Goog@@ 20
thermo@@ 19
nis@@ 19
fain@@ 19
pragma@@ 19
kan@@ 19
Ko@@ 19
gether 19
olo 19
ilia 19
meto@@ 19
prosta@@ 18
Eu@@ 18
chi 18
engin@@ 18
adel@@ 18
omi@@ 18
ysi@@ 17
das@@ 17
antas@@ 17
Z 17
ease 17
pera 17
aer@@ 17
= 17
voy@@ 17
noy@@ 17
idi 17
"Di@@ 16
ros 16
viron@@ 16
+ 16
è@@ 16
fi 16
^ 16
gi 16
esn 16
ios 16
iro@@ 15
ima 15
ono@@ 15
wr@@ 15
parap@@ 15
arith@@ 15
zon@@ 15
upi@@ 14
poi@@ 14
ko 14
enas 14
ono 14
entists 14
ross 13
taxi 13
angel@@ 13
si 13
grow@@ 13
pig@@ 13
fa 13
pia 13
imi 13
kra@@ 13
pos 13
klo@@ 13
"Au@@ 13
beha@@ 12
enth@@ 12
tria 12
cho 12
ores 12
kro@@ 12
oma 12
ethn@@ 12
megal@@ 12
rio 12
min 12
chis@@ 12
osta 12
tween 12
thun@@ 12
esoter@@ 11
plause 11
raz@@ 11
isch@@ 11
anim@@ 11
ã@@ 11
oris@@ 11
í@@ 11
ó@@ 11
alo 11
diap@@ 11
osis 11
actly 11
allon 11
eroti@@ 11
isa 11
das 10
dras@@ 10
lei 10
apos@@ 10
profan@@ 10
ias 10
nas 10
mn@@ 10
ei 10
"Ei@@ 10
logo 10
ku@@ 10
math@@ 10
agno@@ 10
leo 9
omor@@ 9
onia 9
charis@@ 9
omi 9
lis 9
iki 9
lio 9
ainst 9
oto@@ 9
pse@@ 9
ebo@@ 9
kri@@ 9
ney@@ 9
mv@@ 8
istor@@ 8
@ 8
♪@@ 8
auto 8
rion 8
eis@@ 8
dyn@@ 8
psi@@ 8
leu@@ 8
kol@@ 8
gnor@@ 8
ruth@@ 8
energ@@ 8
sies 8
arke@@ 8
ipo@@ 8
ki 8
pane 7
ded@@ 7
ame@@ 7
gno@@ 7
ñ@@ 7
—@@ 7
istories 7
oso 7
tero 7
toch@@ 7
eras@@ 7
poly 7
aki 7
thon 7
ö@@ 7
soy 7
parch@@ 7
tera 6
epo@@ 6
roys 6
echo 6
fia 6
logos 6
tias 6
soy@@ 6
theo@@ 6
eto@@ 6
proso@@ 6
ourself 6
elo 6
xen@@ 6
zo 6
ó 6
xis 6
kal@@ 6
epen@@ 5
enos 5
peris@@ 5
aire@@ 5
opportun@@ 5
tury 5
"Me 5
trag@@ 5
mele@@ 5
thy@@ 5
oni 5
anth@@ 5
aka 5
Xer@@ 5
san 5
epre@@ 5
kli@@ 5
anthra@@ 5
ady@@ 5
j 5
imo@@ 5
dollar@@ 5
monad@@ 5
upsi@@ 5
pi 5
etai@@ 5
anti 5
ika 5
kef@@ 5
inai 5
asi 5
dila@@ 5
moir@@ 4
mech@@ 4
tsi 4
ogi 4
yo 4
á 4
exo@@ 4
iko@@ 4
dias@@ 4
dividu@@ 4
toy@@ 4
parati@@ 4
"Bor@@ 4
eta 4
# 4
aroti@@ 4
gio 4
xer@@ 4
aia 4
omo@@ 4
agor@@ 4
ant@@ 4
ç@@ 4
% 4
stan 4
kan 4
&#93@@ 4
;" 4
อ@@ 4
otero 3
nos 3
esi 3
tites 3
eon 3
Amer@@ 3
rias 3
eno 3
pei@@ 3
xe 3
tik@@ 3
ø@@ 3
dik@@ 3
iste 3
ete 3
anta@@ 3
xia 3
psu@@ 3
lene 3
iko 3
moi@@ 3
mono 3
lia 3
oro 3
Kai 3
oi 3
ergo 3
eyk@@ 3
osa 3
ü@@ 3
kate@@ 2
axio@@ 2
isi 2
usi 2
eidi 2
ergas@@ 2
kath@@ 2
tile@@ 2
iaz@@ 2
alles 2
ikis 2
happen@@ 2
meni 2
psis 2
dion 2
kali 2
fti@@ 2
them@@ 2
Tz@@ 2
eid@@ 2
fo 2
oke@@ 2
ā@@ 2
oli 2
maste 2
chos 2
anak@@ 2
£ 2
thema 2
afi@@ 2
boro 2
è 2
sime@@ 2
upe@@ 2
exi 2
epilog@@ 2
euna 2
ige@@ 2
oys@@ 2
kap@@ 2
gias 2
chores 2
ร 2
่ 2
thris@@ 1
Mia 1
lika 1
"Mia 1
allo 1
soma 1
gk@@ 1
ù 1
ī 1
aiti@@ 1
ias@@ 1
ito 1
seon 1
kata@@ 1
sune@@ 1
Goy@@ 1
noso@@ 1
fag@@ 1
iso 1
∇ 1
τ 1
² 1
ithe@@ 1
ares@@ 1
eia 1
neo 1
Ep@@ 1
pros 1
deka@@ 1
gorith@@ 1
tima 1
imo 1
fy@@ 1
toma 1
lek@@ 1
oyn@@ 1
ontas 1
mai 1
katas@@ 1
kom@@ 1
ä@@ 1
pla 1
deig@@ 1
osi 1
proto 1
psi 1
sos 1
anap@@ 1
deu@@ 1
matis@@ 1
mias 1
meta 1
idio 1
asthen@@ 1
û@@ 1
ě@@ 1
ī@@ 1
vath@@ 1
xi 1
mata 1
nai 1
thau@@ 1
ë@@ 1
isis 1
ternet 1
este 1
* 1
epit@@ 1
duo 1
metr@@ 1
gei@@ 1
– 1
fores 1
Se 1
maton 1
Č@@ 1
noy 1
kano 1
asia 1
emas 1
"O 1
antis@@ 1
sta 1
edo 1
stis 1
thelete 1
menes 1
tuch@@ 1
tai 1
pote 1
perimen@@ 1
tho 1
ï@@ 1
alla 1
ē 1
Å@@ 1
dok@@ 1
poli 1
exig@@ 1
kata 1
Ç@@ 1
à 1
erch@@ 1
Afr@@ 1
ikan 1
ê@@ 1
:@@ 1
telos 1
ย@@ 1
ย 1
kos@@ 1
such@@ 1
mis 1
ï 1
mati 1
