, 115597
the 77214
. 51599
." 50831
a 48830
to 48063
of 45340
and 42234
that 34392
in 32434
I 29078
is 26495
it 25152
you 23744
&quot; 23229
&apos;s 22168
we 21012
in@@ 18586
s@@ 17030
re@@ 17006
ed 16758
this 16309
c@@ 15413
es 14926
on 14307
ing 14166
s 14107
f@@ 13886
m@@ 13507
p@@ 13221
e@@ 12636
b@@ 12551
are 12515
d@@ 12345
en@@ 12253
was 12179
an@@ 12089
t@@ 11901
for 10889
i@@ 10871
ar@@ 10576
st@@ 10560
have 10517
y 10334
an 10298
e 10212
h@@ 10145
g@@ 10131
al 10113
— 10041
l@@ 9996
they 9879
li@@ 9860
er@@ 9648
at 9553
can 9487
"And 9460
di@@ 9413
with 9372
on@@ 9069
or 8985
as 8832
er 8759
t 8689
And 8542
one 8533
&apos;t 8450
o@@ 8440
what 8427
w@@ 8375
or@@ 8358
ly 8253
be 8246
as@@ 8181
ac@@ 8007
about 7995
all 7964
n@@ 7818
a@@ 7765
si@@ 7623
de@@ 7502
ti@@ 7452
at@@ 7303
not 7077
v@@ 6916
al@@ 6914
do 6725
there 6554
k@@ 6521
ro@@ 6491
&apos;re 6453
k 6289
my 6233
like 6205
me 6119
vi@@ 6027
r@@ 6001
u@@ 5967
le@@ 5949
? 5947
from 5836
en 5823
ds 5774
so 5755
con@@ 5695
people 5686
it@@ 5668
n 5664
ts 5585
: 5547
out 5546
tion 5539
ri@@ 5492
our 5459
) 5402
ma@@ 5397
-@@ 5315
but 5307
just 5293
very 5283
un@@ 5282
be@@ 5219
el@@ 5213
se@@ 5189
ca@@ 5146
ex@@ 5132
ch@@ 5096
th@@ 5082
su@@ 5059
ol@@ 5054
ra@@ 5027
d 4950
mo@@ 4949
ers 4922
ve 4877
ic@@ 4875
he 4798
"So 4753
these 4717
ent 4715
ap@@ 4702
if 4628
by 4619
up 4566
know 4540
ur@@ 4533
m 4528
us 4453
going 4429
them 4398
sh@@ 4380
S@@ 4331
le 4253
It 4246
y@@ 4241
se 4202
had 4192
ir@@ 4191
more 4177
pro@@ 4152
l 4147
( 4140
o 4117
because 4099
ate 4093
ation 4080
when 4044
ou@@ 4003
ec@@ 3987
see 3981
ul@@ 3966
op@@ 3951
p 3916
think 3892
M@@ 3872
were 3854
how 3850
os@@ 3849
ta@@ 3830
So 3820
ar 3813
h 3807
get 3806
which 3798
their 3786
sp@@ 3768
om@@ 3724
here 3693
qu@@ 3693
is@@ 3683
th 3670
your 3632
who 3615
really 3615
ot@@ 3613
would 3605
time 3585
ad@@ 3573
fi@@ 3550
ence 3530
&apos;ve 3527
ter@@ 3499
ne@@ 3498
0 3483
C@@ 3438
way 3408
per@@ 3406
me@@ 3377
then 3377
thing 3369
has 3356
ab@@ 3337
lo@@ 3319
actually 3313
where 3305
il@@ 3299
We 3282
&apos;m 3277
ver@@ 3277
pl@@ 3273
ks 3227
ce 3213
ted 3210
am@@ 3199
world 3187
to@@ 3177
sa@@ 3175
ge 3165
ha@@ 3164
he@@ 3156
ad 3142
don 3113
some 3111
into 3104
Laughter 3103
now 3100
able 3094
us@@ 3084
"I 3076
par@@ 3070
ci@@ 3066
The 3043
w 2999
years 2985
et 2983
will 2979
wor@@ 2953
ting 2951
?" 2945
tr@@ 2921
go 2864
age 2858
ally 2822
ph@@ 2811
things 2790
could 2764
been 2738
other 2724
ding 2718
te@@ 2714
make 2691
cl@@ 2684
ag@@ 2676
W@@ 2669
hi@@ 2651
ter 2647
want 2623
tions 2613
ther 2605
c 2600
ity 2583
ents 2575
"But 2569
king 2539
ure 2516
But 2497
gu@@ 2485
B@@ 2482
right 2456
ked 2433
most 2410
ving 2410
ght 2410
ic 2382
z@@ 2380
much 2371
ies 2365
est 2359
something 2352
G@@ 2348
A@@ 2347
said 2343
bo@@ 2336
This 2324
no@@ 2323
enti@@ 2321
tu@@ 2316
co@@ 2308
j@@ 2301
; 2300
than 2282
work 2279
es@@ 2272
ous 2266
first 2266
oun@@ 2248
"It 2247
ect 2246
E@@ 2231
ty 2228
no 2224
du@@ 2204
new 2203
D@@ 2203
gi@@ 2201
little 2200
cal 2200
two 2196
H@@ 2195
1@@ 2194
tive 2192
tic@@ 2183
our@@ 2181
im@@ 2171
ch 2163
back 2153
ine 2148
bi@@ 2146
P@@ 2145
also 2143
those 2141
we@@ 2136
mp@@ 2134
sc@@ 2116
got 2087
for@@ 2085
g 2083
de 2079
over 2072
ons 2071
look 2070
end 2068
fe@@ 2063
You 2061
la@@ 2058
ay 2050
str@@ 2049
st 2044
"The 2041
gh@@ 2040
ent@@ 2017
she 2005
"We 1987
ment 1983
life 1980
its 1976
ded 1974
pos@@ 1974
tri@@ 1969
"Now 1968
only 1958
ated 1944
I@@ 1935
her 1902
stu@@ 1897
do@@ 1894
many 1889
ful 1888
br@@ 1888
even 1887
his 1885
2@@ 1881
say 1880
L@@ 1879
kind 1873
ms 1870
body 1867
T@@ 1864
pre@@ 1863
take 1857
x 1854
lot 1846
pe@@ 1843
tur@@ 1842
N@@ 1826
ess@@ 1810
r 1803
any 1798
did 1796
day 1795
need 1782
wh@@ 1781
"@@ 1775
sion 1774
come 1773
A 1770
ves 1769
around 1748
au@@ 1746
uc@@ 1739
buil@@ 1729
"A@@ 1726
use 1724
Applause 1724
tra@@ 1722
ke@@ 1716
f 1707
ture 1692
comp@@ 1688
They 1687
ant 1683
down 1679
ice 1676
ning 1668
O@@ 1663
ard 1660
ni@@ 1660
mi@@ 1657
ev@@ 1655
tic 1652
ima@@ 1652
der 1648
pa@@ 1636
red 1633
"In 1631
comm@@ 1629
als 1628
different 1626
em@@ 1623
fa@@ 1623
ties 1619
through 1617
♫ 1617
the@@ 1607
min@@ 1598
ru@@ 1595
sur@@ 1593
ance 1584
same 1577
&apos;ll 1560
pri@@ 1559
ill@@ 1557
good 1557
mar@@ 1556
ved 1553
ge@@ 1553
ast 1545
gr@@ 1532
That 1531
put 1529
gre@@ 1528
pres@@ 1527
b 1527
and@@ 1527
cont@@ 1524
ell 1522
every 1513
ose 1513
pr@@ 1510
cre@@ 1509
bl@@ 1493
mat@@ 1490
po@@ 1483
fin@@ 1478
ld 1470
"( 1470
ars 1470
ite 1463
story 1462
side 1458
ever 1454
self 1453
being 1452
uni@@ 1439
sci@@ 1438
ong 1436
What 1433
all@@ 1427
F@@ 1425
ary 1423
some@@ 1416
bas@@ 1416
ob@@ 1414
doing 1409
gra@@ 1405
ga@@ 1405
ying 1403
i 1398
am 1398
wr@@ 1397
rec@@ 1382
ans 1381
sts 1380
sol@@ 1379
In@@ 1379
3@@ 1375
inter@@ 1370
ut@@ 1370
ors 1367
percent 1367
"This 1367
called 1366
ating 1359
"O@@ 1354
eri@@ 1353
any@@ 1349
low@@ 1344
ue 1342
car@@ 1339
&apos;d 1339
bu@@ 1336
go@@ 1335
und@@ 1332
plan@@ 1329
ke 1326
loo@@ 1324
J@@ 1323
ess 1320
um@@ 1318
came 1314
ve@@ 1313
tly 1306
R@@ 1299
"H@@ 1294
own 1293
lear@@ 1291
ste@@ 1290
ce@@ 1289
fo@@ 1284
made 1283
"You 1277
ach@@ 1274
na@@ 1273
mon@@ 1271
com@@ 1267
Th@@ 1261
ay@@ 1255
ys 1249
sy@@ 1247
soci@@ 1246
K@@ 1246
oo@@ 1243
three 1235
iz@@ 1231
tional 1224
tal@@ 1224
Ch@@ 1213
tell 1211
low 1208
used 1207
art 1203
well 1201
year 1199
ned 1191
change 1188
id 1186
ble 1181
fact 1180
res 1177
Y@@ 1176
ates 1169
tre@@ 1167
gen@@ 1163
why 1162
let 1159
today 1154
chan@@ 1152
human 1148
ces 1144
idea 1144
started 1142
ind 1142
ven 1137
tran@@ 1136
didn 1133
"If 1133
great 1131
ff@@ 1129
der@@ 1127
kes 1125
Thank 1125
"S@@ 1121
happ@@ 1120
find 1119
5 1101
res@@ 1099
pic@@ 1093
gin@@ 1091
ings 1088
better 1083
after 1081
fl@@ 1081
il 1076
last 1075
,000 1073
There 1072
coun@@ 1067
ters 1067
before 1065
gro@@ 1061
less 1060
ye@@ 1059
talk 1057
off 1056
big 1053
went 1053
cr@@ 1050
ten@@ 1049
so@@ 1043
course 1041
thought 1038
cor@@ 1037
mil@@ 1035
place 1034
Wh@@ 1033
cul@@ 1032
ically 1031
cou@@ 1027
x@@ 1027
with@@ 1025
still 1025
ing@@ 1023
"They 1022
pp@@ 1019
aliz@@ 1018
exp@@ 1016
times 1015
important 1013
bit 1011
every@@ 1010
never 1010
together 1006
shi@@ 1005
technology 1004
ari@@ 1000
should 999
ese 997
tion@@ 997
problem 995
vir@@ 993
inv@@ 992
ws 990
another 990
19@@ 985
part 983
ands 982
jo@@ 981
kno@@ 979
him 979
ser@@ 977
next 977
give 976
ir 975
cess 974
wi@@ 974
system 974
ility 969
show 969
ki@@ 968
ely 967
ell@@ 967
ago 963
comple@@ 957
gg@@ 956
man 955
old 954
ig@@ 953
ase 953
dis@@ 951
happen@@ 951
ust 950
wa@@ 946
try 942
sible 938
ins 937
again 936
water 935
fac@@ 934
medi@@ 930
does 925
ound 924
cri@@ 920
might 920
few 919
ited 918
man@@ 917
Am@@ 917
brain 917
bot@@ 916
start 916
produc@@ 913
struc@@ 911
eff@@ 911
ger 909
between 908
logi@@ 906
sw@@ 905
"Well 905
"F@@ 903
each 901
He 901
oc@@ 899
ack 898
too 898
spec@@ 898
comes 895
te 895
ore 894
V@@ 893
des@@ 893
col@@ 892
can@@ 890
compu@@ 890
ous@@ 887
incre@@ 885
ish 885
children 881
lar@@ 879
ver 879
sort 879
point 878
found 877
Now 876
mean 876
ps 875
dd@@ 875
ges 872
ations 868
ost 867
&apos; 866
example 866
looking 866
fri@@ 862
cation 862
nec@@ 861
imp@@ 860
mor@@ 857
using 856
St@@ 855
wn 854
long 852
light 852
grap@@ 846
gener@@ 845
act 842
cer@@ 841
deci@@ 841
wanted 841
cho@@ 840
cap@@ 839
Because 838
sm@@ 838
poli@@ 837
ep 835
pi@@ 834
spe@@ 834
sti@@ 832
&#9@@ 826
stor@@ 824
live 819
gn@@ 817
econom@@ 814
ater 813
done 813
ten 811
nat@@ 811
ects 808
over@@ 808
fami@@ 806
doesn 806
always 801
face 801
women 801
ho@@ 800
10 798
ort 797
ear@@ 797
real 794
love 793
data 793
ality 790
"M@@ 788
ali@@ 787
away 787
ach 780
sk@@ 779
understand 775
million 770
oss 768
ution 761
heal@@ 761
trying 760
elec@@ 759
disc@@ 758
whole 756
ll 755
cep@@ 753
sta@@ 752
working 750
ably 749
memb@@ 749
ement 747
city 746
reas@@ 745
"Th@@ 744
question 743
ze 742
ome 742
How 741
mus@@ 739
ular 738
ef@@ 734
experi@@ 733
school 731
person 730
may 729
gs 729
ldn 728
line 728
5@@ 727
gl@@ 726
tical 725
took 725
eci@@ 723
ells 723
bre@@ 723
Ne@@ 722
selves 722
int@@ 722
el 721
iness 720
cu@@ 719
ough 718
ist 717
organ@@ 715
ide@@ 715
believe 714
form 714
ots 714
"Wh@@ 711
2 710
unity 710
ses 710
cur@@ 709
00@@ 708
ns 707
room 707
ther@@ 706
coming 705
ree 705
ood 705
information 705
war@@ 704
prot@@ 704
ici@@ 703
call 702
cli@@ 702
means 700
fu@@ 699
proj@@ 698
hop@@ 696
ult 696
des 695
ere 693
Afri@@ 693
power 692
making 690
publi@@ 689
sing 689
sing@@ 688
resp@@ 687
ep@@ 687
help 687
sear@@ 686
out@@ 685
dri@@ 683
ones 682
ays 681
bus@@ 680
ort@@ 680
ry 678
ff 678
coll@@ 677
ill 677
val@@ 676
form@@ 674
ed@@ 673
ey 672
show@@ 672
dy 670
everything 670
stri@@ 670
&quot;" 670
best 669
mom@@ 669
fr@@ 669
hal@@ 668
"There 667
wal@@ 666
four 666
create 666
end@@ 665
lea@@ 665
bac@@ 664
left 664
my@@ 664
small 663
ale 662
feel 662
re 661
quite 660
ently 660
maybe 660
ory 658
tely 656
um 655
"When 651
prob@@ 651
app@@ 650
food 650
design 649
ster 648
become 648
energy 648
hum@@ 647
thinking 646
country 645
see@@ 644
yp@@ 643
zing 643
gine 643
lob@@ 642
ready 642
ths 641
D 639
cy 638
cen@@ 637
opp@@ 637
are@@ 636
money 635
doll@@ 635
ems 633
sel@@ 633
ged 633
develop@@ 632
sense 631
iting 631
ple 631
getting 630
plac@@ 629
number 629
"That 627
! 627
ful@@ 626
id@@ 626
enough 626
nee@@ 626
high@@ 626
dre@@ 625
vel 625
book 625
sec@@ 624
grou@@ 623
tries 623
gh 623
ath 623
second 623
ging 622
gover@@ 621
bor@@ 620
piec@@ 618
"T@@ 617
thou@@ 617
tiv@@ 616
et@@ 616
tw@@ 616
mple 612
happened 610
ei@@ 609
pret@@ 609
home 606
interesting 604
op 603
future 602
off@@ 602
space 601
hard 600
vo@@ 599
e-@@ 596
whe@@ 594
bil@@ 594
of@@ 593
ey@@ 593
Un@@ 591
4@@ 590
son 587
od 587
uch 582
ways 579
va@@ 571
chil@@ 569
20@@ 561
ow@@ 560
lion 560
est@@ 559
sen@@ 554
star@@ 549
hu@@ 543
aw@@ 542
"E@@ 539
1 536
differ@@ 535
"L@@ 534
U@@ 528
10@@ 523
9@@ 521
up@@ 519
S 517
"N@@ 516
ea@@ 515
6@@ 512
lit@@ 503
ank 501
ut 491
hel@@ 491
pla@@ 489
proble@@ 483
desig@@ 482
" 482
dr@@ 481
’ 481
ace 479
exper@@ 479
fe 478
ow 477
logy 475
4 472
8 467
K 467
duc@@ 465
TE@@ 456
sl@@ 451
En@@ 449
"C@@ 441
vel@@ 439
8@@ 438
On@@ 437
9 435
"W@@ 435
"B@@ 435
hy@@ 435
U.@@ 435
under@@ 433
mm@@ 430
An@@ 429
ys@@ 417
3 413
..@@ 413
wom@@ 412
7 410
6 408
aga@@ 408
Ri@@ 406
7@@ 406
ft 403
"P@@ 399
ll@@ 398
"I@@ 396
Ar@@ 395
pow@@ 391
ak@@ 383
pu@@ 383
underst@@ 380
ques@@ 380
diff@@ 377
oll@@ 373
V 371
u 371
Eu@@ 371
Re@@ 362
interest@@ 361
ju@@ 361
ct@@ 359
techno@@ 359
f-@@ 357
mb@@ 353
bra@@ 352
int 352
tle 349
tually 344
"D@@ 344
ew@@ 343
50@@ 340
sch@@ 339
Al@@ 338
af@@ 337
Fr@@ 329
d-@@ 327
ech@@ 327
Au@@ 323
ok@@ 321
t-@@ 317
M 316
No@@ 316
y-@@ 314
ck@@ 309
tim@@ 308
da@@ 307
Li@@ 306
tl@@ 306
fir@@ 306
om 304
Be@@ 304
cy@@ 302
beli@@ 301
ool 297
ople 292
eu@@ 290
o-@@ 280
.@@ 275
Pe@@ 272
ith 268
DN@@ 258
wan@@ 256
Ok@@ 256
nu@@ 252
xi@@ 246
T 242
numb@@ 242
HI@@ 240
Z@@ 237
read@@ 237
"J@@ 235
ss@@ 233
B 232
Ma@@ 232
tech@@ 231
C 230
eg@@ 229
mu@@ 224
Na@@ 223
Jo@@ 223
Se@@ 216
G 216
wn@@ 215
♪ 215
)@@ 213
Ha@@ 211
Su@@ 211
De@@ 211
Mo@@ 210
av@@ 208
P 206
cent 204
"Y@@ 204
very@@ 201
bj@@ 201
thr@@ 199
30@@ 194
ba@@ 192
Sh@@ 191
org@@ 191
yn@@ 189
tn@@ 189
stem 187
ax@@ 186
ould 185
Is@@ 184
fam@@ 181
Bi@@ 181
R 181
Co@@ 180
z 180
aughter 179
call@@ 179
La@@ 178
Di@@ 178
secon@@ 176
import@@ 175
cause 173
0@@ 172
Br@@ 172
gy 171
"G@@ 171
"R@@ 171
Le@@ 170
60@@ 168
18@@ 164
Ge@@ 163
umb@@ 162
ich 162
40@@ 157
Ph@@ 156
ty@@ 154
dn@@ 151
H 150
Af@@ 149
Si@@ 149
eve 148
Bu@@ 148
Do@@ 148
Me@@ 147
devel@@ 147
Ou@@ 147
Ir@@ 146
15@@ 144
F 143
Ro@@ 142
augh@@ 142
Da@@ 140
O 140
Ap@@ 140
Tw@@ 140
Mi@@ 140
g-@@ 138
yl@@ 137
Bo@@ 137
Ab@@ 136
rom 135
80@@ 135
ai@@ 134
Pa@@ 134
econ@@ 134
ID@@ 132
70@@ 131
Fi@@ 131
Sp@@ 131
tt@@ 131
So@@ 128
Ju@@ 128
/ 127
dat@@ 127
Pr@@ 127
zz@@ 126
Sa@@ 126
Ex@@ 125
thin@@ 125
Lo@@ 124
Wi@@ 124
gm@@ 122
Hu@@ 119
Ac@@ 119
Ad@@ 117
bb@@ 116
tter 116
1.@@ 115
tting 115
To@@ 115
Ta@@ 114
Ca@@ 114
Dr@@ 114
E 114
Go@@ 111
Gr@@ 111
!@@ 111
xy@@ 111
90@@ 110
cour@@ 110
quot@@ 110
We@@ 110
bs@@ 110
Ti@@ 110
Bl@@ 109
Cl@@ 107
Gu@@ 105
Qu@@ 102
s-@@ 101
formation 100
CO@@ 99
Po@@ 99
kl@@ 99
Sy@@ 98
xu@@ 98
Mr@@ 97
Or@@ 95
25@@ 94
ja@@ 94
&apos;@@ 93
nd 92
L 91
Ol@@ 90
ener@@ 89
q 89
dn 86
dh@@ 85
1,@@ 85
AS@@ 85
een 84
Pl@@ 84
k-@@ 84
by@@ 82
"V@@ 82
Mc@@ 82
IS@@ 81
b-@@ 81
17@@ 80
ole 79
,@@ 78
N 78
Tu@@ 78
Hi@@ 77
bm@@ 77
Tr@@ 77
21@@ 76
$ 76
Gi@@ 74
Pi@@ 74
- 73
Fl@@ 72
Lu@@ 72
X-@@ 70
forma@@ 69
"K@@ 69
000 68
Ra@@ 67
"U@@ 66
Fe@@ 65
14@@ 63
Q@@ 63
Fa@@ 60
Sk@@ 60
W 58
dl@@ 57
Cu@@ 56
Ru@@ 56
wy@@ 55
2.@@ 54
Mu@@ 54
v 53
Hy@@ 53
x-@@ 52
AR@@ 51
dren 50
wl@@ 48
X@@ 47
El@@ 47
Gh@@ 47
J 47
dy@@ 46
Ba@@ 46
35@@ 43
X 43
fore 43
Gl@@ 43
Du@@ 42
♫@@ 42
3.@@ 42
bli@@ 42
Op@@ 41
&@@ 41
MR@@ 41
Ci@@ 40
I.@@ 40
11@@ 38
CR@@ 36
RN@@ 36
gy@@ 35
ou 34
Ye@@ 34
My@@ 34
may@@ 33
Ox@@ 32
45@@ 31
Y 31
PE@@ 30
2,@@ 29
U 29
E.@@ 29
D.@@ 29
6-@@ 28
3-@@ 27
Ei@@ 27
gether 26
w-@@ 26
Em@@ 26
Cr@@ 25
DV@@ 25
Ah@@ 25
Pu@@ 25
L.@@ 25
q@@ 25
é 24
2-@@ 24
D-@@ 24
ji@@ 22
á@@ 22
Q 21
Z 21
65@@ 20
4-@@ 20
75@@ 19
Ai@@ 19
é@@ 19
UN@@ 19
4.@@ 18
T-@@ 17
= 17
A-@@ 17
Zi@@ 16
^ 16
Ay@@ 15
esn 14
+ 14
Az@@ 14
3,@@ 14
4,@@ 13
B.@@ 13
som@@ 13
Qa@@ 13
6.@@ 13
Uk@@ 13
By@@ 13
Ez@@ 13
7,@@ 13
apos@@ 12
plause 12
ok 12
38@@ 12
A.@@ 12
è@@ 12
T.@@ 12
Xi@@ 12
bn@@ 12
Ul@@ 11
H5@@ 11
dk@@ 11
S-@@ 11
Ur@@ 10
28@@ 10
IR@@ 10
C-@@ 10
tz@@ 10
TV@@ 9
S.@@ 9
F-@@ 9
O.@@ 9
7.@@ 9
GN@@ 9
C.@@ 9
L-@@ 9
9-@@ 9
Py@@ 9
1-@@ 9
6,@@ 9
Sr@@ 8
Ak@@ 8
Dh@@ 8
O-@@ 8
Ax@@ 8
Ly@@ 8
# 8
tween 8
ó@@ 8
ã@@ 7
OV@@ 7
Mm@@ 7
29@@ 7
—@@ 7
Zu@@ 7
Sl@@ 7
Uz@@ 7
M.@@ 7
7-@@ 7
M-@@ 7
AK@@ 6
IN@@ 6
í@@ 6
% 6
IK@@ 6
Ey@@ 6
d.@@ 6
3r@@ 6
"5@@ 6
TN@@ 6
♪@@ 5
ñ@@ 5
Y-@@ 5
W-@@ 5
ó 5
ö@@ 5
I-@@ 5
Mé@@ 5
Sn@@ 4
Cz@@ 4
PN@@ 4
G.@@ 4
Z.@@ 4
AN@@ 4
R.@@ 4
– 4
39@@ 4
E-@@ 4
c-@@ 4
U-@@ 4
PV@@ 4
DJ@@ 3
H.@@ 3
Ek@@ 3
EN@@ 3
IV@@ 3
1N@@ 3
Bh@@ 3
² 3
Q-@@ 3
Lh@@ 3
X8@@ 3
XK@@ 3
Il@@ 3
G-@@ 3
78@@ 3
;" 3
"9@@ 3
@ 2
C0@@ 2
SN@@ 2
á 2
g.@@ 2
jk@@ 2
Oh@@ 2
H-@@ 2
Tz@@ 2
HV@@ 2
cè@@ 2
Bé@@ 2
R-@@ 2
Uh@@ 2
B9@@ 2
vp@@ 2
48@@ 2
* 2
EK@@ 2
Xh@@ 2
Iy@@ 2
dé@@ 2
B-@@ 2
gz@@ 1
Hí@@ 1
tó@@ 1
gk@@ 1
ô@@ 1
É@@ 1
Cn@@ 1
Q.@@ 1
"n@@ 1
v.@@ 1
∇ 1
τ 1
E8@@ 1
exa@@ 1
ï@@ 1
Lá@@ 1
Cá@@ 1
jh@@ 1
Zy@@ 1
AV@@ 1
Rö@@ 1
Rí@@ 1
vu@@ 1
UV@@ 1
” 1
GJ@@ 1
Wu@@ 1
à 1
Ç@@ 1
ü@@ 1
A9@@ 1
P-@@ 1
£ 1
A5@@ 1
Dz@@ 1
Bö@@ 1
ä@@ 1
Hr@@ 1
ON@@ 1
cV@@ 1
MJ@@ 1
gé@@ 1
68@@ 1
û@@ 1
ç@@ 1
gV@@ 1
W.@@ 1
SV@@ 1
Rh@@ 1
ë@@ 1
Mö@@ 1
Ii@@ 1
6m@@ 1
\ 1
Zh@@ 1
MN@@ 1
Dé@@ 1
“ 1
fz@@ 1
Eh@@ 1
è 1
OK@@ 1
Pá@@ 1
cz@@ 1
Rr@@ 1
