p@@ 57796
m@@ 57278
=@@ 53896
o@@ 52197
t@@ 52144
ç@@ 51994
ě@@ 51697
ย@@ 51431
c@@ 51416
a@@ 51313
e@@ 51165
²@@ 50605
s@@ 50189
w@@ 50092
U@@ 50080
;@@ 49485
่@@ 49466
ā@@ 49383
R@@ 49381
6@@ 49334
ī@@ 49234
7@@ 49162
q@@ 49148
+@@ 49112
)@@ 49112
d@@ 48936
4@@ 48605
1@@ 48472
#@@ 48408
Y@@ 48399
&@@ 48064
(@@ 48033
Q@@ 47664
f@@ 47655
W@@ 47609
E@@ 47532
P@@ 47509
B@@ 47495
Z@@ 47453
à@@ 47411
X@@ 47221
ù@@ 47060
ä@@ 47012
J@@ 46950
G@@ 46907
ñ@@ 46744
C@@ 46620
H@@ 46550
i@@ 46513
:@@ 46432
b@@ 46430
3@@ 46355
I@@ 46329
ï@@ 46053
y@@ 45963
τ@@ 45950
x@@ 45905
g@@ 45843
O@@ 45711
ê@@ 45708
k@@ 45674
ã@@ 45469
j@@ 45402
h@@ 45083
D@@ 45010
–@@ 44985
F@@ 44807
2@@ 44799
ü@@ 44708
Č@@ 44575
T@@ 44513
@@@ 44501
S@@ 44282
ร@@ 44231
♫@@ 44099
v@@ 44013
á@@ 43980
!@@ 43698
$@@ 43578
L@@ 43517
ē@@ 43467
อ@@ 43269
N@@ 43229
u@@ 43203
û@@ 43039
^@@ 43008
∇@@ 42912
M@@ 42798
?@@ 42777
—@@ 42734
*@@ 42664
’@@ 42461
ó@@ 42390
9@@ 42346
♪@@ 42291
ö@@ 42201
£@@ 42160
A@@ 42084
Ç@@ 41763
ë@@ 41662
,@@ 41624
z@@ 41483
.@@ 41293
ø@@ 41289
K@@ 41234
5@@ 41224
í@@ 41196
8@@ 41169
0@@ 40845
é@@ 40695
è@@ 40584
/@@ 40477
%@@ 40391
Å@@ 39823
r@@ 39798
l@@ 39637
V@@ 39573
n@@ 38774
-@@ 38233
"@@ 37475
8 1549
q 1547
♪ 1541
ย 1539
อ 1536
ê 1533
! 1532
B 1530
E 1528
ä 1526
: 1526
∇ 1523
x 1523
T 1522
ā 1519
7 1518
— 1511
♫ 1508
9 1508
I 1506
i 1505
ñ 1500
= 1495
? 1493
3 1492
ī 1492
V 1491
. 1490
W 1490
b 1489
ï 1488
Z 1488
à 1488
ē 1487
5 1486
, 1486
M 1486
ù 1484
J 1483
D 1481
/ 1481
F 1479
– 1479
K 1477
S 1476
* 1476
m 1475
% 1474
2 1474
# 1473
A 1473
g 1473
^ 1472
Y 1472
0 1471
² 1471
í 1470
’ 1470
H 1468
O 1468
่ 1467
G 1467
Ç 1466
ø 1466
6 1463
j 1463
X 1462
û 1462
4 1461
L 1458
N 1457
Č 1456
y 1456
c 1455
ç 1454
u 1454
f 1452
& 1452
z 1451
£ 1450
k 1449
v 1449
ü 1447
ร 1445
Q 1444
1 1441
è 1440
τ 1440
r 1439
+ 1439
o 1436
a 1435
ě 1435
á 1433
) 1433
P 1430
p 1428
ë 1427
l 1427
ã 1426
ó 1426
C 1421
; 1417
ö 1416
( 1416
Å 1412
U 1406
d 1403
n 1401
" 1398
w 1398
R 1396
h 1389
- 1388
$ 1386
@ 1386
é 1386
s 1349
t 1315
e 1250
=K@@ 734
7Z@@ 729
īö@@ 727
T$@@ 727
Gë@@ 724
+V@@ 723
ã/@@ 722
Xó@@ 721
ย♪@@ 721
:z@@ 721
+ø@@ 721
āอ@@ 719
I—@@ 719
qó@@ 719
ñ$@@ 718
Fó@@ 717
5ç@@ 716
Q$@@ 715
7/@@ 714
Zí@@ 713
ïø@@ 713
£่@@ 713
#q@@ 713
"-@@ 713
ñ@@@ 713
M–@@ 712
4*@@ 712
PÇ@@ 712
7è@@ 712
+-@@ 711
àÅ@@ 711
ē(@@ 711
รÅ@@ 711
b♪@@ 710
ü,@@ 710
’♪@@ 710
:ë@@ 710
)*@@ 710
C^@@ 710
²*@@ 709
"O@@ 709
:W@@ 709
êU@@ 709
äอ@@ 708
)û@@ 708
&Ç@@ 708
)é@@ 707
Y,@@ 707
ù.@@ 706
6ó@@ 706
vร@@ 706
4!@@ 706
+–@@ 706
jā@@ 705
τ!@@ 705
ä♪@@ 705
M∇@@ 705
ñ♪@@ 705
Č@@@ 705
Č-@@ 705
Q–@@ 704
M^@@ 704
3$@@ 704
(á@@ 704
īè@@ 704
;’@@ 704
L£@@ 703
3ย@@ 703
Eอ@@ 703
XÇ@@ 703
6%@@ 702
Fö@@ 702
F’@@ 702
qÅ@@ 702
vë@@ 701
ç!@@ 701
♫û@@ 701
üē@@ 701
)í@@ 700
9-@@ 700
Wö@@ 700
T=@@ 700
Č—@@ 699
&£@@ 699
(ø@@ 699
2á@@ 699
J²@@ 699
YV@@ 699
♫ī@@ 698
"M@@ 698
15@@ 697
@%@@ 697
;/@@ 696
OK@@ 696
çz@@ 696
♫!@@ 695
+£@@ 695
ùě@@ 695
āá@@ 695
ñ-@@ 695
êÅ@@ 694
āÇ@@ 694
ČÅ@@ 694
ê6@@ 694
²^@@ 694
=û@@ 694
ä$@@ 694
H,@@ 694
²0@@ 694
4-@@ 694
ยè@@ 694
ùZ@@ 694
vÅ@@ 693
GV@@ 693
OV@@ 693
อ£@@ 693
à♪@@ 693
j?@@ 693
²!@@ 693
j’@@ 693
&!@@ 692
WÅ@@ 692
Q.@@ 692
X8@@ 691
:*@@ 691
♫%@@ 691
่’@@ 691
40@@ 691
àè@@ 691
่è@@ 691
ñV@@ 691
ç.@@ 691
3é@@ 690
=8@@ 690
รย@@ 690
al@@ 689
B.@@ 689
Yí@@ 689
6K@@ 689
BN@@ 689
ù—@@ 689
ī-@@ 689
O♪@@ 689
ãU@@ 689
O’@@ 689
3-@@ 689
ïó@@ 688
A*@@ 688
τě@@ 688
Y?@@ 688
ïë@@ 688
Q8@@ 688
kû@@ 688
Xá@@ 688
DÅ@@ 688
Mย@@ 687
2)@@ 687
^V@@ 687
P-@@ 687
3è@@ 687
Č’@@ 687
ãí@@ 686
àV@@ 686
ã;@@ 686
²—@@ 686
&z@@ 686
v0@@ 686
#Z@@ 686
ē/@@ 686
ù!@@ 685
2í@@ 685
♫—@@ 685
QÅ@@ 685
QJ@@ 685
Mé@@ 685
=5@@ 685
ī—@@ 685
#K@@ 685
Xø@@ 685
U@@@ 685
A∇@@ 685
ùá@@ 684
Č9@@ 684
j$@@ 684
♫0@@ 684
Y$@@ 684
&0@@ 684
6Ç@@ 684
IR@@ 684
่í@@ 684
(ë@@ 683
äร@@ 683
τá@@ 683
D£@@ 683
Fë@@ 683
TJ@@ 683
Iû@@ 683
ã’@@ 683
&ç@@ 683
E0@@ 683
Mร@@ 683
G£@@ 682
Lè@@ 682
W*@@ 682
–8@@ 682
äq@@ 682
ïě@@ 682
Eè@@ 681
v∇@@ 681
f)@@ 681
♫,@@ 681
īé@@ 681
àÇ@@ 681
ñ7@@ 681
4K@@ 681
τó@@ 681
X?@@ 681
D,@@ 681
3z@@ 681
&ē@@ 681
ù∇@@ 681
qอ@@ 681
(K@@ 680
3ü@@ 680
Zø@@ 680
2$@@ 680
īó@@ 680
(,@@ 680
U$@@ 680
A%@@ 680
ä/@@ 680
äx@@ 680
ê8@@ 680
ùN@@ 680
ãû@@ 680
&á@@ 680
Aó@@ 679
;h@@ 679
M!@@ 679
"9@@ 679
ī0@@ 679
T/@@ 679
6*@@ 679
A5@@ 679
C.@@ 679
Iร@@ 679
I!@@ 679
ā.@@ 679
Lø@@ 679
Lí@@ 679
vû@@ 679
τ,@@ 679
jÇ@@ 679
14@@ 679
qÇ@@ 678
ñë@@ 678
à!@@ 678
♫/@@ 678
dÇ@@ 678
(∇@@ 678
T-@@ 678
7,@@ 678
:ย@@ 678
D5@@ 678
(*@@ 678
CR@@ 678
&ø@@ 678
²?@@ 678
♫?@@ 677
Xü@@ 677
"P@@ 677
ê@@@ 677
Cû@@ 677
ā-@@ 677
;u@@ 677
²อ@@ 677
Č.@@ 677
P–@@ 677
Cē@@ 677
jë@@ 676
te@@ 676
R-@@ 676
3ë@@ 676
;*@@ 676
♫Ç@@ 676
τV@@ 676
ě-@@ 676
11@@ 676
่8@@ 676
♫^@@ 676
²$@@ 676
1/@@ 676
I9@@ 676
&—@@ 675
:ó@@ 675
(è@@ 675
āö@@ 675
D=@@ 675
GN@@ 675
Č%@@ 675
vø@@ 675
"N@@ 675
OÇ@@ 675
Që@@ 674
;V@@ 674
X,@@ 674
Xอ@@ 674
+5@@ 674
c5@@ 674
;-@@ 674
fH@@ 674
U?@@ 674
Tr@@ 674
4ø@@ 674
#0@@ 674
Zx@@ 674
jz@@ 674
G*@@ 674
Qö@@ 674
q—@@ 674
àí@@ 673
BK@@ 673
4–@@ 673
Rö@@ 673
Q?@@ 673
Č^@@ 673
τ@@@ 673
ยû@@ 673
g♪@@ 673
τร@@ 673
f$@@ 673
g—@@ 673
ī,@@ 673
B0@@ 673
A♪@@ 673
ZV@@ 673
τ—@@ 673
O$@@ 672
:é@@ 672
LK@@ 672
Q%@@ 672
ãë@@ 672
#’@@ 672
Sø@@ 672
&K@@ 672
ê*@@ 672
Xz@@ 672
ù0@@ 672
Y—@@ 672
XN@@ 671
+á@@ 671
่á@@ 671
:û@@ 671
ç£@@ 671
#♪@@ 671
S£@@ 671
ï’@@ 671
+Ç@@ 671
10@@ 671
Č$@@ 671
j%@@ 671
♫é@@ 671
4^@@ 671
Ok@@ 670
",@@ 670
àร@@ 670
Č∇@@ 670
3n@@ 670
3Ç@@ 670
ã8@@ 670
A—@@ 670
ïé@@ 670
(?@@ 670
äV@@ 670
D/@@ 670
U.@@ 670
U—@@ 670
C@@@ 670
Aû@@ 670
Čá@@ 670
1,@@ 669
²ó@@ 669
ñē@@ 669
C!@@ 669
Eç@@ 669
vi@@ 669
♫á@@ 669
Tø@@ 669
A/@@ 669
Zá@@ 669
τē@@ 669
ù)@@ 669
"อ@@ 669
+!@@ 669
ñ?@@ 669
2ø@@ 669
&J@@ 668
vk@@ 668
Iอ@@ 668
(/@@ 668
ān@@ 668
"I@@ 668
Oí@@ 668
ãJ@@ 668
17@@ 668
3ร@@ 668
Bē@@ 668
à–@@ 668
ïV@@ 668
(@@@ 668
PE@@ 668
Q^@@ 668
àó@@ 668
τ8@@ 668
v9@@ 667
ê^@@ 667
jk@@ 667
gร@@ 667
ě,@@ 667
Fû@@ 667
(í@@ 667
Aè@@ 667
7û@@ 667
Dอ@@ 667
3Å@@ 667
ví@@ 667
äÇ@@ 667
A,@@ 667
Z^@@ 667
O่@@ 667
T—@@ 667
äz@@ 667
1!@@ 667
Bร@@ 667
êJ@@ 667
ãè@@ 667
"D@@ 667
QV@@ 667
Tü@@ 667
wû@@ 667
w-@@ 667
ùÇ@@ 666
Č£@@ 666
F/@@ 666
j^@@ 666
êë@@ 666
T–@@ 666
3♪@@ 666
;.@@ 666
2.@@ 666
#ø@@ 666
àé@@ 666
3r@@ 666
S—@@ 666
Y)@@ 666
x-@@ 666
Pû@@ 666
T♪@@ 666
W.@@ 666
Č)@@ 666
op@@ 666
♫ø@@ 666
OJ@@ 666
1l@@ 666
ã*@@ 666
:%@@ 666
7Ç@@ 666
²í@@ 666
2’@@ 666
ãø@@ 666
τ5@@ 666
τ9@@ 666
ù,@@ 666
6á@@ 666
²é@@ 666
(ร@@ 665
ùö@@ 665
Čç@@ 665
ïร@@ 665
Có@@ 665
6$@@ 665
Bè@@ 665
ùü@@ 665
;x@@ 665
"ë@@ 665
ù%@@ 665
gu@@ 665
4é@@ 665
#Ç@@ 665
Ií@@ 665
ยN@@ 665
2ü@@ 665
q-@@ 665
"ó@@ 665
:V@@ 665
àá@@ 665
I–@@ 664
&,@@ 664
:/@@ 664
Sí@@ 664
yV@@ 664
dö@@ 664
ñ*@@ 664
+%@@ 664
=r@@ 664
ñé@@ 664
ãü@@ 664
+í@@ 664
3l@@ 664
Y£@@ 664
ñ∇@@ 664
B,@@ 664
Pö@@ 664
♫8@@ 664
♫ü@@ 664
à$@@ 664
UÅ@@ 664
vÇ@@ 664
I5@@ 664
ê$@@ 664
gë@@ 664
2/@@ 664
qu@@ 664
àz@@ 663
T!@@ 663
äö@@ 663
่♪@@ 663
&-@@ 663
7ø@@ 663
wz@@ 663
Q*@@ 663
#อ@@ 663
L/@@ 663
"ē@@ 663
ā*@@ 663
Eö@@ 663
&–@@ 663
♫-@@ 663
ù5@@ 663
τ’@@ 663
2é@@ 663
jç@@ 663
P8@@ 663
Y–@@ 663
O-@@ 663
L,@@ 663
20@@ 662
4’@@ 662
:ø@@ 662
τ.@@ 662
Uz@@ 662
ย?@@ 662
O,@@ 662
²,@@ 662
Ez@@ 662
Č!@@ 662
Dk@@ 662
Rá@@ 662
Pí@@ 662
Tl@@ 662
ou@@ 662
wJ@@ 662
ê—@@ 662
τK@@ 662
Y.@@ 662
ã–@@ 662
♫∇@@ 662
3?@@ 662
F–@@ 661
2Ç@@ 661
fè@@ 661
v£@@ 661
W%@@ 661
&8@@ 661
60@@ 661
M$@@ 661
ãç@@ 661
à’@@ 661
+∇@@ 661
FÅ@@ 661
Čr@@ 661
vç@@ 661
².@@ 661
"G@@ 660
3อ@@ 660
Tá@@ 660
Y-@@ 660
"@@@ 660
ïG@@ 660
=è@@ 660
êí@@ 660
#%@@ 660
Qz@@ 660
".@@ 660
ã0@@ 660
W’@@ 660
4r@@ 660
àö@@ 660
X♪@@ 660
S–@@ 660
qø@@ 660
#Å@@ 660
q’@@ 660
Br@@ 660
;é@@ 660
#V@@ 660
ãr@@ 660
W9@@ 660
Q/@@ 659
Xû@@ 659
ùé@@ 659
jร@@ 659
Yó@@ 659
"Å@@ 659
2-@@ 659
X-@@ 659
O%@@ 659
L’@@ 659
&N@@ 659
Rè@@ 659
τø@@ 659
à/@@ 659
#@@@ 659
ù£@@ 659
Č/@@ 659
4?@@ 659
y-@@ 659
4è@@ 659
D.@@ 659
ï.@@ 659
YJ@@ 659
4u@@ 658
O@@@ 658
ěอ@@ 658
āé@@ 658
v—@@ 658
j,@@ 658
Čx@@ 658
♫–@@ 658
ñx@@ 658
ī^@@ 658
ī@@@ 658
:♪@@ 658
A-@@ 658
♫ö@@ 658
EK@@ 658
ñp@@ 658
FK@@ 658
Qü@@ 658
Hé@@ 658
1N@@ 658
:-@@ 658
"K@@ 658
Fü@@ 658
ù?@@ 658
PK@@ 658
d—@@ 658
Pอ@@ 658
Fz@@ 658
3ø@@ 658
ยé@@ 658
่z@@ 658
C/@@ 658
E’@@ 658
Z8@@ 658
ê–@@ 657
ï∇@@ 657
êé@@ 657
ě?@@ 657
Ol@@ 657
I-@@ 657
Pu@@ 657
v♪@@ 657
IS@@ 657
+♪@@ 657
I$@@ 657
78@@ 657
ã—@@ 657
Bí@@ 657
C)@@ 657
7@@@ 657
(!@@ 657
Xร@@ 657
ā%@@ 657
vK@@ 657
Cx@@ 657
"ö@@ 657
Cz@@ 657
ãÅ@@ 657
6è@@ 657
M,@@ 657
00@@ 657
+,@@ 657
T£@@ 657
En@@ 657
X9@@ 657
7Å@@ 657
Dö@@ 657
+N@@ 657
SÇ@@ 657
E*@@ 656
W^@@ 656
่Å@@ 656
T8@@ 656
āN@@ 656
♫$@@ 656
C’@@ 656
2ë@@ 656
à-@@ 656
ùn@@ 656
"L@@ 656
à?@@ 656
(’@@ 656
ãK@@ 656
7∇@@ 656
äë@@ 656
ñö@@ 656
W!@@ 656
īอ@@ 656
τ*@@ 656
Z!@@ 656
êø@@ 656
4ó@@ 656
ñ.@@ 656
MÇ@@ 656
G♪@@ 656
ï8@@ 656
H£@@ 656
ä9@@ 655
Iö@@ 655
ěó@@ 655
q!@@ 655
τN@@ 655
L8@@ 655
ù’@@ 655
ïJ@@ 655
²è@@ 655
d-@@ 655
b,@@ 655
T0@@ 655
jh@@ 655
à^@@ 655
sz@@ 655
:n@@ 655
Gü@@ 655
os@@ 655
Ak@@ 655
vē@@ 655
RÅ@@ 655
C0@@ 655
H0@@ 655
²h@@ 655
B-@@ 655
Hē@@ 655
3K@@ 655
R♪@@ 655
c£@@ 655
่n@@ 654
;ø@@ 654
Y=@@ 654
t–@@ 654
τ£@@ 654
♫5@@ 654
(อ@@ 654
on@@ 654
+è@@ 654
²Ç@@ 654
:@@@ 654
W–@@ 654
dé@@ 654
P∇@@ 654
q∇@@ 654
wí@@ 654
:ç@@ 654
ñJ@@ 654
īร@@ 654
Č0@@ 654
"B@@ 654
"£@@ 654
që@@ 654
♫ç@@ 654
²ü@@ 654
#$@@ 654
ā!@@ 654
่-@@ 654
W∇@@ 654
ïü@@ 654
Bø@@ 654
Z—@@ 654
Q-@@ 654
2y@@ 654
#,@@ 654
Fp@@ 654
+ó@@ 654
3ó@@ 654
τ)@@ 653
Lë@@ 653
2z@@ 653
A8@@ 653
²N@@ 653
Aē@@ 653
D9@@ 653
♫K@@ 653
āü@@ 653
Cr@@ 653
3∇@@ 653
AR@@ 653
āē@@ 653
HI@@ 653
Mö@@ 653
Zë@@ 653
à0@@ 653
P*@@ 653
♫h@@ 653
w8@@ 653
W-@@ 653
ï5@@ 653
่.@@ 653
à5@@ 653
ãV@@ 653
ê,@@ 653
♫J@@ 653
Q£@@ 653
ïí@@ 653
ùz@@ 653
&@@@ 652
4ü@@ 652
Čø@@ 652
j!@@ 652
G$@@ 652
Oอ@@ 652
Wร@@ 652
R—@@ 652
F.@@ 652
Č♪@@ 652
M)@@ 652
Z0@@ 652
O?@@ 652
3’@@ 652
X.@@ 652
U♪@@ 652
#.@@ 652
Pë@@ 652
7.@@ 652
:–@@ 652
tx@@ 652
;^@@ 652
ù*@@ 652
Č5@@ 652
U£@@ 652
jr@@ 652
:á@@ 651
6r@@ 651
Dü@@ 651
"k@@ 651
qK@@ 651
MV@@ 651
Sx@@ 651
&ë@@ 651
êK@@ 651
I%@@ 651
2ó@@ 651
Mk@@ 651
:.@@ 651
τé@@ 651
(–@@ 651
Q0@@ 651
C?@@ 651
Q∇@@ 651
U-@@ 651
O5@@ 651
:!@@ 651
+ü@@ 651
Hü@@ 651
äé@@ 651
ě$@@ 651
A$@@ 651
ù@@@ 651
S@@@ 651
3í@@ 651
b?@@ 651
Lé@@ 651
D–@@ 651
2N@@ 651
C%@@ 651
Të@@ 651
FÇ@@ 650
:N@@ 650
Qá@@ 650
E,@@ 650
2k@@ 650
Tû@@ 650
ā8@@ 650
īû@@ 650
;y@@ 650
4อ@@ 650
Rr@@ 650
(5@@ 650
DK@@ 650
Fk@@ 650
4ë@@ 650
"J@@ 650
S^@@ 650
&ö@@ 650
fi@@ 650
E8@@ 650
ãy@@ 650
àh@@ 650
(^@@ 650
dø@@ 650
à)@@ 650
ä%@@ 650
ä,@@ 650
"♪@@ 650
Zü@@ 650
+9@@ 650
êN@@ 650
L-@@ 650
Čí@@ 650
ñç@@ 649
"Y@@ 649
ï*@@ 649
;♪@@ 649
;z@@ 649
qV@@ 649
6ë@@ 649
6@@@ 649
7-@@ 649
R%@@ 649
;!@@ 649
ù9@@ 649
H?@@ 649
wÅ@@ 649
H8@@ 649
Bö@@ 649
Cè@@ 649
U∇@@ 649
b.@@ 649
A?@@ 649
ã♪@@ 649
d8@@ 649
äK@@ 649
M*@@ 649
om@@ 649
+อ@@ 649
1á@@ 649
vx@@ 649
2è@@ 649
Fè@@ 649
dV@@ 649
♫.@@ 649
Uí@@ 649
τ/@@ 649
#á@@ 649
&♪@@ 649
4,@@ 649
ãp@@ 649
:อ@@ 649
่ó@@ 649
Fá@@ 649
Lร@@ 649
H@@@ 649
jอ@@ 649
An@@ 649
1Ç@@ 649
F$@@ 649
#í@@ 648
ê.@@ 648
g-@@ 648
w/@@ 648
ùø@@ 648
X5@@ 648
ยx@@ 648
1*@@ 648
QÇ@@ 648
♫Å@@ 648
7—@@ 648
ī$@@ 648
L.@@ 648
Yá@@ 648
ï!@@ 648
ěÅ@@ 648
H.@@ 648
Qh@@ 648
"R@@ 648
ZJ@@ 648
WK@@ 648
äó@@ 648
īh@@ 648
āë@@ 648
c$@@ 648
4h@@ 648
ī%@@ 648
Sû@@ 648
àอ@@ 648
sh@@ 648
:£@@ 648
c8@@ 648
gl@@ 648
+/@@ 648
ñ8@@ 648
&h@@ 648
L–@@ 648
G%@@ 648
+l@@ 647
ã,@@ 647
F@@@ 647
F!@@ 647
sk@@ 647
:ē@@ 647
;)@@ 647
(ö@@ 647
69@@ 647
j*@@ 647
Rร@@ 647
HÇ@@ 647
ä!@@ 647
C$@@ 647
#9@@ 647
ù$@@ 647
à=@@ 647
Qó@@ 647
(y@@ 647
Čz@@ 647
j0@@ 647
"—@@ 647
Čé@@ 647
ï@@@ 647
2!@@ 647
X/@@ 647
g?@@ 647
♫ē@@ 647
P—@@ 647
b–@@ 647
ê?@@ 647
ā£@@ 646
ยë@@ 646
ùè@@ 646
DÇ@@ 646
SV@@ 646
cë@@ 646
4ē@@ 646
ïN@@ 646
Čû@@ 646
àē@@ 646
ī/@@ 646
"U@@ 646
LV@@ 646
Ek@@ 646
gJ@@ 646
vá@@ 646
bö@@ 646
Az@@ 646
Rû@@ 646
A0@@ 646
;ë@@ 646
b∇@@ 646
R$@@ 646
M0@@ 646
Čü@@ 646
Yé@@ 646
ä0@@ 646
ā∇@@ 646
b^@@ 646
v/@@ 646
êr@@ 646
ãá@@ 646
B$@@ 646
Zn@@ 646
E%@@ 646
fz@@ 646
Xí@@ 646
M’@@ 646
äü@@ 646
Qé@@ 646
#?@@ 646
īÇ@@ 646
ã-@@ 646
à8@@ 645
Dë@@ 645
I)@@ 645
jü@@ 645
2K@@ 645
SÅ@@ 645
PN@@ 645
H$@@ 645
1ö@@ 645
Gz@@ 645
à∇@@ 645
Pr@@ 645
ï9@@ 645
Së@@ 645
Y*@@ 645
êè@@ 645
Xk@@ 645
S,@@ 645
3£@@ 645
X!@@ 645
à%@@ 645
A£@@ 645
j/@@ 645
I£@@ 645
ùû@@ 645
X—@@ 645
IÅ@@ 645
4í@@ 645
+ë@@ 645
²r@@ 645
E^@@ 645
b’@@ 644
Fē@@ 644
ã)@@ 644
²V@@ 644
àn@@ 644
HÅ@@ 644
3—@@ 644
1.@@ 644
B=@@ 644
Zz@@ 644
²Å@@ 644
ùอ@@ 644
qá@@ 644
wh@@ 644
²ë@@ 644
(—@@ 644
3ē@@ 644
(%@@ 644
+h@@ 644
Fí@@ 644
R’@@ 644
s—@@ 644
G@@@ 644
ě∇@@ 644
āû@@ 644
2—@@ 644
($@@ 644
τ$@@ 644
ä-@@ 644
28@@ 644
já@@ 644
ï£@@ 644
Xp@@ 644
Pó@@ 644
R£@@ 644
7ë@@ 644
ï0@@ 644
M-@@ 644
äø@@ 644
P$@@ 644
²5@@ 644
:=@@ 644
"ร@@ 644
vl@@ 643
U9@@ 643
Z*@@ 643
30@@ 643
äè@@ 643
s£@@ 643
Cí@@ 643
ïö@@ 643
C,@@ 643
ä@@@ 643
at@@ 643
ù8@@ 643
ch@@ 643
Q—@@ 643
ùë@@ 643
I*@@ 643
Pü@@ 643
Čè@@ 643
7^@@ 643
O!@@ 643
ñ/@@ 643
ě.@@ 643
Xö@@ 643
Dz@@ 643
v?@@ 643
Aอ@@ 643
ïá@@ 643
QK@@ 643
1∇@@ 643
7ü@@ 643
่$@@ 643
"!@@ 643
"/@@ 643
ã∇@@ 643
ù♪@@ 643
F8@@ 643
&%@@ 643
τ?@@ 643
(0@@ 643
Bü@@ 643
ย$@@ 643
Cé@@ 643
AV@@ 643
à,@@ 643
CÅ@@ 643
2?@@ 643
ïn@@ 643
sร@@ 643
g∇@@ 643
"$@@ 642
τ♪@@ 642
I∇@@ 642
1’@@ 642
äJ@@ 642
♫z@@ 642
F9@@ 642
b%@@ 642
X^@@ 642
Zç@@ 642
Z.@@ 642
R,@@ 642
Iz@@ 642
Tè@@ 642
25@@ 642
ãé@@ 642
Y^@@ 642
♫V@@ 642
ql@@ 642
m/@@ 642
ê0@@ 642
2J@@ 642
w.@@ 642
äē@@ 642
O–@@ 642
th@@ 642
ī∇@@ 642
Sá@@ 642
wë@@ 642
dd@@ 642
Mø@@ 642
fé@@ 642
่r@@ 642
ê!@@ 642
ñr@@ 642
ph@@ 642
jè@@ 642
TK@@ 642
TV@@ 642
Q)@@ 641
ïē@@ 641
TN@@ 641
่/@@ 641
qè@@ 641
่,@@ 641
Z)@@ 641
ī)@@ 641
Q9@@ 641
Yø@@ 641
Pø@@ 641
t$@@ 641
īë@@ 641
b8@@ 641
3û@@ 641
qç@@ 641
pr@@ 641
#5@@ 641
d/@@ 641
²á@@ 641
qN@@ 641
mÇ@@ 641
"A@@ 641
īá@@ 641
Hอ@@ 641
ãó@@ 641
c-@@ 641
ä^@@ 641
:è@@ 641
Č8@@ 641
6x@@ 641
1ø@@ 641
YN@@ 641
S∇@@ 641
²)@@ 641
YK@@ 641
T’@@ 641
4%@@ 641
Lá@@ 641
FJ@@ 641
2,@@ 641
LJ@@ 641
"’@@ 641
H–@@ 641
(û@@ 641
äÅ@@ 640
"û@@ 640
ê£@@ 640
Ué@@ 640
6^@@ 640
êÇ@@ 640
Hë@@ 640
Čó@@ 640
3N@@ 640
7–@@ 640
Tz@@ 640
ã!@@ 640
go@@ 640
ěK@@ 640
Bë@@ 640
Oè@@ 640
L9@@ 640
L?@@ 640
G9@@ 640
X’@@ 640
่ü@@ 640
Eá@@ 640
6é@@ 640
X∇@@ 640
τr@@ 640
6í@@ 640
Ln@@ 640
65@@ 640
♫n@@ 640
Ló@@ 640
#8@@ 640
+$@@ 640
w£@@ 640
d@@@ 640
Cอ@@ 640
li@@ 640
38@@ 640
Bอ@@ 640
#r@@ 640
ex@@ 640
cร@@ 640
IN@@ 640
ãl@@ 640
L∇@@ 640
#^@@ 640
Pร@@ 640
W8@@ 639
Čē@@ 639
S*@@ 639
wç@@ 639
่–@@ 639
qí@@ 639
Mh@@ 639
ยh@@ 639
DN@@ 639
W5@@ 639
6h@@ 639
τอ@@ 639
Z5@@ 639
+—@@ 639
Bó@@ 639
&/@@ 639
äû@@ 639
E£@@ 639
wV@@ 639
6ö@@ 639
ù–@@ 639
Oë@@ 639
E.@@ 639
2∇@@ 639
ā)@@ 639
ñK@@ 639
t9@@ 639
R!@@ 639
4ç@@ 639
f5@@ 639
ca@@ 639
āy@@ 639
ï%@@ 639
่y@@ 639
àr@@ 639
īV@@ 638
ěz@@ 638
Rx@@ 638
ï/@@ 638
4£@@ 638
Al@@ 638
35@@ 638
āø@@ 638
MJ@@ 638
ě/@@ 638
īN@@ 638
àK@@ 638
Mz@@ 638
ïè@@ 638
7J@@ 638
τè@@ 638
Af@@ 638
ä∇@@ 638
ย^@@ 638
:—@@ 638
3%@@ 638
R@@@ 638
S-@@ 638
T∇@@ 638
Aé@@ 638
ùē@@ 638
(z@@ 638
ě—@@ 638
T*@@ 638
gí@@ 638
gá@@ 638
j9@@ 638
:l@@ 638
I^@@ 638
#x@@ 638
Mó@@ 638
Ié@@ 638
ã^@@ 638
E♪@@ 638
τz@@ 638
C—@@ 638
Si@@ 638
O)@@ 638
&^@@ 638
Q!@@ 638
ěē@@ 638
v–@@ 638
GJ@@ 638
2–@@ 638
Hö@@ 638
H/@@ 638
:’@@ 638
Fé@@ 637
CÇ@@ 637
ïz@@ 637
"V@@ 637
7%@@ 637
2ö@@ 637
Ox@@ 637
WÇ@@ 637
F-@@ 637
่—@@ 637
7♪@@ 637
G.@@ 637
Zû@@ 637
ČN@@ 637
Aá@@ 637
ê/@@ 637
Wn@@ 637
Ph@@ 637
E9@@ 637
Mn@@ 637
Dē@@ 637
w%@@ 637
4û@@ 637
XÅ@@ 637
ïû@@ 637
Qอ@@ 637
ã%@@ 637
īr@@ 637
#n@@ 637
#!@@ 637
+K@@ 637
G—@@ 637
1?@@ 637
Q@@@ 637
&è@@ 637
ČK@@ 637
ČJ@@ 637
:x@@ 637
Ux@@ 637
bÇ@@ 636
du@@ 636
1%@@ 636
่*@@ 636
(N@@ 636
ï?@@ 636
c∇@@ 636
ïx@@ 636
C£@@ 636
♫x@@ 636
"C@@ 636
ON@@ 636
ěé@@ 636
Y/@@ 636
50@@ 636
q^@@ 636
Xë@@ 636
Čö@@ 636
g8@@ 636
Mr@@ 636
#ë@@ 636
ī♪@@ 636
Yè@@ 636
Lz@@ 636
t?@@ 636
TÅ@@ 636
F?@@ 636
P0@@ 636
+é@@ 636
iz@@ 636
BÅ@@ 636
Pl@@ 636
ñ^@@ 636
v@@@ 636
wè@@ 636
Lö@@ 636
(l@@ 636
b9@@ 636
3*@@ 636
jé@@ 636
Mè@@ 636
E!@@ 636
ùk@@ 636
6อ@@ 636
f’@@ 636
:y@@ 636
ñó@@ 636
:,@@ 636
D8@@ 636
H^@@ 636
Z,@@ 636
v8@@ 636
(h@@ 636
1$@@ 636
ě8@@ 636
ap@@ 635
1อ@@ 635
2Å@@ 635
F£@@ 635
ñ%@@ 635
1k@@ 635
Sอ@@ 635
่5@@ 635
ïp@@ 635
es@@ 635
Bz@@ 635
ãร@@ 635
bV@@ 635
+.@@ 635
ě@@@ 635
A.@@ 635
B5@@ 635
τ^@@ 635
SJ@@ 635
j-@@ 635
7?@@ 635
s?@@ 635
#ó@@ 635
"x@@ 635
Č*@@ 635
Yö@@ 635
ī£@@ 635
1ó@@ 635
ñ)@@ 635
Té@@ 635
ci@@ 635
Qû@@ 635
ï$@@ 635
à*@@ 635
zz@@ 635
1^@@ 635
τn@@ 635
Tร@@ 635
M@@@ 635
Xl@@ 635
à.@@ 635
"é@@ 635
#*@@ 635
Ch@@ 634
"l@@ 634
τü@@ 634
ñ9@@ 634
Z%@@ 634
f,@@ 634
4Ç@@ 634
ê5@@ 634
G-@@ 634
wó@@ 634
Ië@@ 634
dí@@ 634
ñ’@@ 634
ä’@@ 634
B’@@ 634
GK@@ 634
D’@@ 634
่h@@ 634
1ร@@ 634
ī?@@ 634
M%@@ 634
P9@@ 634
f–@@ 634
ī5@@ 634
Gอ@@ 634
w)@@ 634
gK@@ 634
Eë@@ 634
F0@@ 634
E/@@ 634
6ü@@ 634
ñy@@ 634
MÅ@@ 634
w0@@ 634
bl@@ 634
vö@@ 634
f?@@ 634
FV@@ 634
bb@@ 634
cí@@ 634
bÅ@@ 634
(ü@@ 634
UÇ@@ 634
ïÇ@@ 634
T)@@ 634
Tó@@ 634
Qx@@ 634
U!@@ 634
7!@@ 634
dÅ@@ 634
Ču@@ 634
3–@@ 634
gh@@ 634
dü@@ 634
(k@@ 634
wN@@ 634
Yç@@ 634
êû@@ 634
êz@@ 633
qz@@ 633
U*@@ 633
O£@@ 633
ñ!@@ 633
ě%@@ 633
HJ@@ 633
ยÅ@@ 633
Bk@@ 633
Č?@@ 633
ä8@@ 633
B!@@ 633
X%@@ 633
ä—@@ 633
Z♪@@ 633
+?@@ 633
fร@@ 633
ï,@@ 633
Oü@@ 633
F—@@ 633
sV@@ 633
่x@@ 633
ยn@@ 633
6Å@@ 633
w^@@ 633
bé@@ 633
&.@@ 633
D$@@ 633
ā,@@ 633
;?@@ 633
īç@@ 633
Ql@@ 633
YÅ@@ 633
Rk@@ 633
1ë@@ 633
Oö@@ 633
W♪@@ 633
;Å@@ 633
:5@@ 633
q.@@ 633
bj@@ 633
ä.@@ 633
PÅ@@ 633
Oá@@ 633
ï–@@ 633
1K@@ 633
"F@@ 633
τç@@ 633
āJ@@ 632
:K@@ 632
4—@@ 632
D%@@ 632
Uk@@ 632
Eû@@ 632
4n@@ 632
B♪@@ 632
ot@@ 632
Oø@@ 632
1ē@@ 632
t∇@@ 632
M8@@ 632
&l@@ 632
f—@@ 632
X£@@ 632
Hè@@ 632
L)@@ 632
♫k@@ 632
àx@@ 632
Č–@@ 632
"H@@ 632
P/@@ 632
;∇@@ 632
♫อ@@ 632
Xè@@ 632
v’@@ 632
4@@@ 632
2*@@ 632
F)@@ 632
..@@ 632
be@@ 632
är@@ 632
ñl@@ 632
ā♪@@ 632
7á@@ 632
X@@@ 632
Më@@ 632
H♪@@ 632
Cø@@ 632
♫’@@ 632
45@@ 632
fอ@@ 632
"í@@ 632
ñ0@@ 631
"Ç@@ 631
6)@@ 631
6!@@ 631
Qē@@ 631
7z@@ 631
C-@@ 631
v!@@ 631
90@@ 631
D∇@@ 631
B—@@ 631
Y%@@ 631
uc@@ 631
&é@@ 631
ยK@@ 631
Wอ@@ 631
d^@@ 631
&V@@ 631
v5@@ 631
X0@@ 631
w@@@ 631
gz@@ 631
c♪@@ 631
Xh@@ 631
&Å@@ 631
♫ó@@ 631
àø@@ 631
7x@@ 631
:p@@ 631
1♪@@ 631
ěû@@ 631
ên@@ 631
;Ç@@ 631
dó@@ 631
ย’@@ 631
qh@@ 631
ñÇ@@ 631
P£@@ 631
Oz@@ 631
ñá@@ 631
Ax@@ 631
Dร@@ 631
H=@@ 631
ěx@@ 631
GÇ@@ 631
f*@@ 631
Yr@@ 631
Zö@@ 631
Zē@@ 630
L=@@ 630
่ë@@ 630
่0@@ 630
7í@@ 630
v$@@ 630
;ö@@ 630
#N@@ 630
2ē@@ 630
ê’@@ 630
Qí@@ 630
jö@@ 630
B/@@ 630
vè@@ 630
B∇@@ 630
T%@@ 630
jl@@ 630
F,@@ 630
R?@@ 630
Xé@@ 630
ù-@@ 630
Z-@@ 630
ma@@ 630
MR@@ 630
gø@@ 630
U8@@ 630
"%@@ 630
;9@@ 630
L%@@ 630
:Ç@@ 630
L*@@ 630
Y8@@ 630
2อ@@ 630
²@@@ 630
2♪@@ 630
bz@@ 630
ïÅ@@ 630
Hí@@ 630
2£@@ 630
τö@@ 630
Lk@@ 630
W,@@ 630
79@@ 629
d,@@ 629
1-@@ 629
Hl@@ 629
Qè@@ 629
6ø@@ 629
g/@@ 629
āz@@ 629
68@@ 629
Fx@@ 629
Un@@ 629
q♪@@ 629
D^@@ 629
ur@@ 629
Č=@@ 629
Pē@@ 629
ย,@@ 629
jó@@ 629
;8@@ 629
bû@@ 629
A9@@ 629
bx@@ 629
w♪@@ 629
êV@@ 629
t,@@ 629
²∇@@ 629
:∇@@ 629
Iá@@ 629
Tอ@@ 629
bø@@ 629
Ml@@ 629
fö@@ 629
Dn@@ 629
1–@@ 629
"^@@ 628
ê-@@ 628
G∇@@ 628
τÇ@@ 628
êอ@@ 628
X*@@ 628
P,@@ 628
cl@@ 628
Yร@@ 628
XV@@ 628
+û@@ 628
īÅ@@ 628
b/@@ 628
īø@@ 628
²ร@@ 628
AN@@ 628
ñû@@ 628
g$@@ 628
τë@@ 628
♫♪@@ 628
:r@@ 628
dn@@ 628
ī.@@ 628
6û@@ 628
2l@@ 628
²–@@ 628
7)@@ 628
qk@@ 628
t%@@ 628
"0@@ 628
gé@@ 628
MK@@ 628
dk@@ 628
Yl@@ 628
Tç@@ 628
à—@@ 628
īü@@ 628
q5@@ 628
q0@@ 628
t’@@ 628
fe@@ 628
")@@ 628
Q5@@ 628
F∇@@ 628
j∇@@ 628
1u@@ 628
่é@@ 628
AK@@ 628
&ร@@ 627
ěN@@ 627
ãอ@@ 627
d–@@ 627
CO@@ 627
&?@@ 627
īK@@ 627
gè@@ 627
ne@@ 627
&í@@ 627
Aร@@ 627
ä?@@ 627
Aü@@ 627
+ö@@ 627
qé@@ 627
āx@@ 627
#/@@ 627
2%@@ 627
&=@@ 627
àë@@ 627
j8@@ 627
"=@@ 627
ñø@@ 627
&อ@@ 627
39@@ 627
2ç@@ 627
²-@@ 627
♫£@@ 627
v*@@ 627
Mû@@ 627
Čm@@ 627
bอ@@ 627
Ri@@ 627
#ö@@ 627
Lr@@ 627
ě–@@ 627
:?@@ 627
R*@@ 627
F5@@ 627
d’@@ 627
E5@@ 627
gē@@ 627
:)@@ 627
W—@@ 627
Sp@@ 627
êร@@ 627
Eí@@ 626
"ø@@ 626
M—@@ 626
d?@@ 626
"*@@ 626
#è@@ 626
ãÇ@@ 626
q£@@ 626
ãz@@ 626
Iü@@ 626
ä=@@ 626
UV@@ 626
3ö@@ 626
τJ@@ 626
Il@@ 626
Y5@@ 626
"è@@ 626
ñ—@@ 626
à@@@ 626
3^@@ 626
ย*@@ 626
(ó@@ 626
O*@@ 626
²û@@ 626
7l@@ 626
Eø@@ 626
Uë@@ 626
êk@@ 626
S/@@ 626
F^@@ 626
W£@@ 626
♫u@@ 626
♫N@@ 626
ag@@ 626
T?@@ 626
Wø@@ 626
wÇ@@ 626
Zh@@ 626
tz@@ 626
ā/@@ 626
Fl@@ 626
R.@@ 626
ïr@@ 626
ě=@@ 626
HV@@ 626
Dç@@ 626
ê=@@ 626
่!@@ 626
AÇ@@ 625
s@@@ 625
ñn@@ 625
ar@@ 625
ā—@@ 625
6–@@ 625
ñ,@@ 625
♫r@@ 625
Ir@@ 625
&$@@ 625
Xē@@ 625
BJ@@ 625
Uö@@ 625
Yk@@ 625
S♪@@ 625
êó@@ 625
1n@@ 625
à£@@ 625
Oé@@ 625
Zó@@ 625
+@@@ 625
āÅ@@ 625
&)@@ 625
ùr@@ 625
b£@@ 625
j@@@ 625
ZK@@ 625
Y∇@@ 625
Pá@@ 625
M?@@ 625
f♪@@ 625
6ē@@ 625
Ll@@ 625
:0@@ 625
d♪@@ 625
ù/@@ 625
Hn@@ 625
G8@@ 625
êh@@ 624
M♪@@ 624
Gö@@ 624
Tē@@ 624
O8@@ 624
♫è@@ 624
่9@@ 624
3/@@ 624
3á@@ 624
Oร@@ 624
PV@@ 624
4l@@ 624
7ó@@ 624
q$@@ 624
Y9@@ 624
6=@@ 624
่N@@ 624
ā^@@ 624
;N@@ 624
vp@@ 624
Má@@ 624
τû@@ 624
MN@@ 624
Ly@@ 624
#k@@ 624
t-@@ 624
T.@@ 624
Q,@@ 624
O^@@ 624
+^@@ 624
q–@@ 624
;è@@ 624
q8@@ 624
My@@ 624
EÅ@@ 624
6y@@ 624
b5@@ 624
ä£@@ 624
CJ@@ 624
ā5@@ 624
่?@@ 624
ù^@@ 624
29@@ 623
&∇@@ 623
Ah@@ 623
s’@@ 623
Wç@@ 623
6k@@ 623
ย∇@@ 623
W)@@ 623
(9@@ 623
ñÅ@@ 623
ã@@@ 623
"T@@ 623
♫*@@ 623
jK@@ 623
&y@@ 623
3k@@ 623
6ร@@ 623
Lอ@@ 623
ïK@@ 623
v=@@ 623
qē@@ 623
τm@@ 623
D—@@ 623
Aø@@ 623
Pz@@ 623
Bh@@ 623
S$@@ 623
Fh@@ 623
ย/@@ 623
7’@@ 623
f0@@ 623
&*@@ 623
R8@@ 623
S.@@ 623
Xr@@ 623
àû@@ 623
Sn@@ 623
gó@@ 623
ā?@@ 623
k-@@ 623
ä5@@ 623
g@@@ 623
B%@@ 623
q?@@ 622
P!@@ 622
ï^@@ 622
Q♪@@ 622
Wl@@ 622
c?@@ 622
(-@@ 622
TÇ@@ 622
SK@@ 622
;$@@ 622
jN@@ 622
g0@@ 622
wr@@ 622
T5@@ 622
êö@@ 622
ac@@ 622
Bx@@ 622
Ar@@ 622
Yë@@ 622
fē@@ 622
ãē@@ 622
AJ@@ 622
(n@@ 622
ยí@@ 622
mo@@ 622
Dá@@ 622
cV@@ 622
Ió@@ 622
²/@@ 622
Mí@@ 622
Sç@@ 622
3!@@ 622
Cá@@ 622
ä)@@ 622
(♪@@ 622
"r@@ 622
ji@@ 622
Ou@@ 622
jV@@ 622
I0@@ 622
Hû@@ 622
"ü@@ 622
Ré@@ 622
īz@@ 622
;ó@@ 621
+n@@ 621
LÅ@@ 621
:ร@@ 621
7V@@ 621
vN@@ 621
#—@@ 621
Zé@@ 621
7*@@ 621
ã9@@ 621
²♪@@ 621
L0@@ 621
:i@@ 621
Qç@@ 621
ยó@@ 621
W0@@ 621
Tí@@ 621
C5@@ 621
Dó@@ 621
ê%@@ 621
as@@ 621
tu@@ 621
4Å@@ 621
τ0@@ 621
Gm@@ 621
7ç@@ 621
g’@@ 621
in@@ 621
G)@@ 621
ě9@@ 621
;í@@ 621
Eó@@ 621
ยÇ@@ 621
mp@@ 621
:k@@ 621
P%@@ 621
H5@@ 621
(Ç@@ 621
;0@@ 621
Qk@@ 621
à9@@ 621
Hø@@ 621
cz@@ 621
b-@@ 620
²9@@ 620
6’@@ 620
yl@@ 620
un@@ 620
ñN@@ 620
4k@@ 620
bi@@ 620
ãu@@ 620
่Ç@@ 620
;r@@ 620
#y@@ 620
ยอ@@ 620
Bé@@ 620
H∇@@ 620
+Å@@ 620
ěü@@ 620
īn@@ 620
1J@@ 620
IK@@ 620
Ju@@ 620
ěร@@ 620
L$@@ 620
Z£@@ 620
I=@@ 620
"z@@ 620
Wè@@ 620
D?@@ 620
4V@@ 620
#)@@ 620
B£@@ 620
E–@@ 620
E-@@ 620
gN@@ 620
#ü@@ 620
่อ@@ 620
²8@@ 620
่K@@ 620
H-@@ 620
Qø@@ 620
A!@@ 620
&’@@ 620
♫í@@ 620
ZÅ@@ 620
ยö@@ 620
RK@@ 620
DJ@@ 620
L^@@ 620
"E@@ 619
Pé@@ 619
j.@@ 619
vV@@ 619
#∇@@ 619
Yy@@ 619
ã5@@ 619
;,@@ 619
bu@@ 619
fø@@ 619
ãn@@ 619
F*@@ 619
EÇ@@ 619
ยá@@ 619
ě*@@ 619
4á@@ 619
+’@@ 619
Ck@@ 619
U’@@ 619
+*@@ 619
ñ£@@ 619
6.@@ 619
(r@@ 619
6z@@ 619
Hç@@ 619
τh@@ 619
Wû@@ 619
่^@@ 619
f£@@ 619
U%@@ 619
dè@@ 619
Oē@@ 619
il@@ 619
G^@@ 619
Tö@@ 619
Čร@@ 619
H)@@ 619
3,@@ 619
♫@@@ 619
FN@@ 619
Ii@@ 619
2r@@ 619
τ∇@@ 619
H—@@ 619
ùÅ@@ 619
dē@@ 619
s^@@ 619
L!@@ 619
jø@@ 619
Eh@@ 619
dK@@ 619
+0@@ 619
Z9@@ 619
Or@@ 619
;—@@ 619
Iç@@ 619
di@@ 619
L5@@ 619
ā’@@ 619
C–@@ 619
Yz@@ 619
2û@@ 619
Be@@ 619
EV@@ 619
Bl@@ 619
do@@ 619
ge@@ 618
ī=@@ 618
Oç@@ 618
Fy@@ 618
3p@@ 618
g*@@ 618
่%@@ 618
ab@@ 618
Ex@@ 618
vü@@ 618
ย%@@ 618
:8@@ 618
ñร@@ 618
D*@@ 618
²y@@ 618
bí@@ 618
ï—@@ 618
;K@@ 618
3)@@ 618
Uç@@ 618
Dí@@ 618
êx@@ 618
wá@@ 618
Y0@@ 618
Uè@@ 618
Pè@@ 618
♫)@@ 618
I♪@@ 618
Ró@@ 618
OÅ@@ 618
ãh@@ 618
Sē@@ 618
A^@@ 618
Qu@@ 618
ñè@@ 618
C♪@@ 618
DV@@ 618
Cü@@ 618
Wü@@ 618
S)@@ 618
de@@ 618
XK@@ 618
f∇@@ 618
Zk@@ 618
2ร@@ 618
sø@@ 618
♫ë@@ 617
Q=@@ 617
6l@@ 617
2h@@ 617
B9@@ 617
ùJ@@ 617
bn@@ 617
F%@@ 617
Wá@@ 617
qJ@@ 617
s5@@ 617
Cร@@ 617
1ü@@ 617
ä–@@ 617
Z@@@ 617
qr@@ 617
Dh@@ 617
D0@@ 617
ãN@@ 617
ïอ@@ 617
M=@@ 617
ic@@ 617
LÇ@@ 617
τ%@@ 617
vJ@@ 617
U/@@ 617
ye@@ 617
ī*@@ 617
;%@@ 617
Z∇@@ 617
d*@@ 617
Xn@@ 617
kl@@ 617
äu@@ 617
re@@ 617
&n@@ 617
6—@@ 617
"n@@ 616
#£@@ 616
tí@@ 616
"S@@ 616
fë@@ 616
g5@@ 616
ñ5@@ 616
80@@ 616
Mü@@ 616
♫m@@ 616
Zu@@ 616
I8@@ 616
sK@@ 616
vh@@ 616
IJ@@ 616
τu@@ 616
:^@@ 616
El@@ 616
B?@@ 616
b0@@ 616
ČÇ@@ 616
I’@@ 616
ê9@@ 616
c.@@ 616
²J@@ 616
êá@@ 616
4z@@ 616
Ey@@ 616
่)@@ 616
+)@@ 616
Zy@@ 616
1í@@ 616
B–@@ 616
GÅ@@ 616
āร@@ 616
6∇@@ 616
τÅ@@ 616
j–@@ 616
Aö@@ 616
Gí@@ 615
(o@@ 615
19@@ 615
Ih@@ 615
ย0@@ 615
ñz@@ 615
wy@@ 615
L—@@ 615
bü@@ 615
ī’@@ 615
vó@@ 615
w–@@ 615
v^@@ 615
ČV@@ 615
Rh@@ 615
W$@@ 615
ย5@@ 615
M/@@ 615
j—@@ 615
ùç@@ 615
1@@@ 615
O.@@ 615
f@@@ 615
&ó@@ 615
Zè@@ 615
ñอ@@ 615
gö@@ 615
"∇@@ 615
RV@@ 615
Uร@@ 615
Eü@@ 615
(8@@ 615
21@@ 615
4/@@ 615
Sr@@ 615
Hr@@ 615
²ē@@ 615
Gé@@ 615
Č,@@ 615
it@@ 615
Gø@@ 615
bë@@ 615
fÅ@@ 615
3@@@ 615
G=@@ 615
Au@@ 615
I.@@ 614
WJ@@ 614
êē@@ 614
Bn@@ 614
sy@@ 614
S’@@ 614
së@@ 614
ec@@ 614
dá@@ 614
F♪@@ 614
7$@@ 614
4ร@@ 614
EN@@ 614
♫ร@@ 614
qü@@ 614
cû@@ 614
ã?@@ 614
Dû@@ 614
Wë@@ 614
O∇@@ 614
่û@@ 614
Mu@@ 614
Sö@@ 614
H!@@ 614
Yē@@ 614
C*@@ 614
7K@@ 614
Cö@@ 614
wé@@ 614
6£@@ 614
W@@@ 614
♫y@@ 614
;อ@@ 614
+k@@ 614
6,@@ 614
Gk@@ 614
vอ@@ 614
vo@@ 614
O=@@ 614
C8@@ 614
ī–@@ 614
ff@@ 614
Čh@@ 614
vm@@ 614
7ö@@ 614
;n@@ 614
wa@@ 614
P^@@ 614
Wí@@ 614
6-@@ 614
τ=@@ 614
Rn@@ 614
dû@@ 613
Uē@@ 613
us@@ 613
by@@ 613
an@@ 613
O—@@ 613
āk@@ 613
+i@@ 613
Py@@ 613
;ē@@ 613
F=@@ 613
+r@@ 613
3V@@ 613
jē@@ 613
T@@@ 613
3y@@ 613
Pç@@ 613
àk@@ 613
Mx@@ 613
1Å@@ 613
ïç@@ 613
WN@@ 613
Lû@@ 613
xi@@ 613
bç@@ 613
;û@@ 613
Xx@@ 613
Di@@ 613
Ul@@ 613
♫l@@ 613
+J@@ 613
có@@ 613
Th@@ 613
ñí@@ 613
3J@@ 612
τí@@ 612
īi@@ 612
S?@@ 612
²’@@ 612
U–@@ 612
īy@@ 612
(é@@ 612
S8@@ 612
Tx@@ 612
f/@@ 612
Eร@@ 612
ãö@@ 612
1—@@ 612
Uø@@ 612
fó@@ 612
āè@@ 612
G,@@ 612
Rí@@ 612
ùร@@ 612
AÅ@@ 612
S9@@ 612
tö@@ 612
3.@@ 612
cÅ@@ 612
่J@@ 612
Dm@@ 612
2m@@ 612
:ü@@ 612
Zอ@@ 612
Mē@@ 612
Sé@@ 612
1é@@ 612
àp@@ 612
W/@@ 612
Uอ@@ 612
S0@@ 612
Rü@@ 612
āí@@ 612
U5@@ 612
Rç@@ 612
τx@@ 611
ïm@@ 611
Zร@@ 611
ā9@@ 611
#J@@ 611
T,@@ 611
#é@@ 611
āç@@ 611
+y@@ 611
L@@@ 611
t/@@ 611
tá@@ 611
ěø@@ 611
jn@@ 611
ñu@@ 611
ùK@@ 611
ěV@@ 611
M9@@ 611
U0@@ 611
Z$@@ 611
S!@@ 611
18@@ 611
Rē@@ 611
3u@@ 611
ày@@ 611
cè@@ 611
2x@@ 611
(ç@@ 611
ยü@@ 611
fV@@ 611
g!@@ 611
Wó@@ 611
7k@@ 611
Zr@@ 611
#ร@@ 611
ěè@@ 611
ěë@@ 611
äh@@ 611
τy@@ 611
êç@@ 611
tl@@ 611
tV@@ 611
Gè@@ 611
UK@@ 611
6V@@ 611
Tw@@ 611
Hu@@ 610
Gn@@ 610
IÇ@@ 610
Wu@@ 610
4ö@@ 610
c@@@ 610
gV@@ 610
#–@@ 610
Só@@ 610
Čo@@ 610
wø@@ 610
sè@@ 610
au@@ 610
;ü@@ 610
q/@@ 610
P5@@ 610
êu@@ 610
W?@@ 610
Uó@@ 610
E∇@@ 610
āK@@ 610
A’@@ 610
w*@@ 610
D@@@ 610
ã.@@ 610
ěá@@ 610
xu@@ 610
H%@@ 610
fn@@ 610
Xi@@ 610
ยē@@ 610
sé@@ 610
Yn@@ 610
fK@@ 610
ยV@@ 610
Qร@@ 610
Čk@@ 610
or@@ 610
ä*@@ 610
äí@@ 610
;=@@ 610
êp@@ 610
O9@@ 610
;J@@ 609
WV@@ 609
S5@@ 609
Pn@@ 609
ยç@@ 609
PJ@@ 609
tû@@ 609
2u@@ 609
&9@@ 609
Rอ@@ 609
qร@@ 609
g9@@ 609
tè@@ 609
:9@@ 609
SN@@ 609
ñü@@ 609
Hk@@ 609
Čp@@ 609
X=@@ 609
äN@@ 609
T9@@ 609
Yอ@@ 609
I?@@ 609
♫9@@ 609
;p@@ 609
G’@@ 609
Uh@@ 609
ย-@@ 609
Wx@@ 609
M5@@ 609
่k@@ 609
s,@@ 609
Hร@@ 609
7ē@@ 609
fu@@ 609
wn@@ 609
bk@@ 609
&û@@ 608
S%@@ 608
q9@@ 608
ě£@@ 608
τ–@@ 608
Iē@@ 608
By@@ 608
ay@@ 608
Y♪@@ 608
Gx@@ 608
v%@@ 608
Rz@@ 608
āh@@ 608
Fr@@ 608
ěJ@@ 608
H’@@ 608
qn@@ 608
Dp@@ 608
(.@@ 608
Fø@@ 608
(£@@ 608
A–@@ 608
vu@@ 608
:í@@ 608
;@@@ 608
Ab@@ 608
่ø@@ 608
UJ@@ 608
ě0@@ 608
²z@@ 608
s–@@ 608
cn@@ 608
Sl@@ 608
Yü@@ 608
4m@@ 608
Yû@@ 607
cN@@ 607
่V@@ 607
A@@@ 607
g)@@ 607
(Å@@ 607
f8@@ 607
Gl@@ 607
่=@@ 607
ย@@@ 607
2V@@ 607
cá@@ 607
pl@@ 607
4y@@ 607
fÇ@@ 607
4N@@ 607
(V@@ 607
fl@@ 607
tK@@ 607
G!@@ 607
7N@@ 607
g%@@ 607
t!@@ 607
ùí@@ 607
่ö@@ 607
fJ@@ 607
hu@@ 607
ïi@@ 607
Lx@@ 607
Lü@@ 607
Oû@@ 607
ěç@@ 606
vé@@ 606
IV@@ 606
G?@@ 606
ï♪@@ 606
G/@@ 606
bN@@ 606
²£@@ 606
ir@@ 606
ï=@@ 606
gk@@ 606
ãx@@ 606
d!@@ 606
sอ@@ 606
X$@@ 606
ha@@ 606
ยร@@ 606
6m@@ 606
ZN@@ 606
sÅ@@ 606
ùó@@ 606
Fร@@ 606
Oh@@ 606
ī8@@ 606
Eé@@ 606
cx@@ 606
Hx@@ 606
d∇@@ 606
ïl@@ 606
Gá@@ 606
d.@@ 606
j♪@@ 606
Čë@@ 606
ã£@@ 606
st@@ 606
Rø@@ 606
āV@@ 605
ti@@ 605
1)@@ 605
CK@@ 605
qm@@ 605
ย=@@ 605
w,@@ 605
ě^@@ 605
t5@@ 605
48@@ 605
w$@@ 605
2p@@ 605
Su@@ 605
en@@ 605
gi@@ 605
Mi@@ 605
gÇ@@ 605
Aç@@ 605
3m@@ 605
ùV@@ 605
cm@@ 605
ěí@@ 605
L♪@@ 605
7£@@ 605
s♪@@ 605
Lh@@ 605
X)@@ 605
j=@@ 605
īē@@ 605
f^@@ 605
vz@@ 605
"u@@ 605
wl@@ 605
äl@@ 605
B*@@ 605
jJ@@ 605
ul@@ 605
āi@@ 605
1=@@ 604
g,@@ 604
BÇ@@ 604
f-@@ 604
Xy@@ 604
+x@@ 604
O/@@ 604
#û@@ 604
fr@@ 604
4$@@ 604
s%@@ 604
♫=@@ 604
c^@@ 604
G0@@ 604
àü@@ 604
Gร@@ 604
C9@@ 604
er@@ 604
wē@@ 604
ïu@@ 604
Fอ@@ 604
àN@@ 604
ùl@@ 604
d5@@ 604
my@@ 604
7é@@ 603
²n@@ 603
Tk@@ 603
&5@@ 603
B^@@ 603
:ö@@ 603
b!@@ 603
f9@@ 603
Wē@@ 603
no@@ 603
tø@@ 603
On@@ 603
sÇ@@ 603
ěÇ@@ 603
Qy@@ 603
2n@@ 603
d%@@ 603
AS@@ 603
gg@@ 603
E=@@ 603
c/@@ 603
LN@@ 603
Čl@@ 603
gÅ@@ 603
êl@@ 603
2=@@ 603
j)@@ 603
ī9@@ 603
Dø@@ 603
cu@@ 603
āó@@ 603
Hz@@ 603
s-@@ 603
2@@@ 603
ùy@@ 602
#ē@@ 602
jÅ@@ 602
vn@@ 602
75@@ 602
ย—@@ 602
ย)@@ 602
br@@ 602
1x@@ 602
qy@@ 602
Px@@ 602
Lē@@ 602
sí@@ 602
ê♪@@ 602
Dé@@ 602
qö@@ 602
j5@@ 602
vr@@ 602
Yx@@ 602
E@@@ 602
äk@@ 602
&k@@ 602
H9@@ 602
Z–@@ 601
Em@@ 601
Is@@ 601
j£@@ 601
c9@@ 601
Cn@@ 601
ย£@@ 601
4x@@ 601
RJ@@ 601
wK@@ 601
Iy@@ 601
gอ@@ 601
sp@@ 601
6/@@ 601
äá@@ 601
Dè@@ 601
bè@@ 601
ěl@@ 601
Čn@@ 600
ย!@@ 600
w’@@ 600
²ø@@ 600
Ad@@ 600
No@@ 600
♫p@@ 600
M.@@ 600
Či@@ 600
Ur@@ 600
f%@@ 600
g.@@ 600
ê∇@@ 600
po@@ 600
Ai@@ 600
v.@@ 600
dë@@ 600
tn@@ 599
tó@@ 599
mb@@ 599
Fe@@ 599
Ci@@ 598
Mm@@ 598
"5@@ 598
Ay@@ 598
dl@@ 598
xy@@ 597
sm@@ 597
D-@@ 597
Bu@@ 597
pp@@ 597
St@@ 597
Ap@@ 596
Zi@@ 596
"W@@ 596
ad@@ 596
tw@@ 596
hi@@ 595
dh@@ 595
tr@@ 595
Qa@@ 595
sl@@ 594
cr@@ 594
dy@@ 594
Lu@@ 594
ke@@ 593
RN@@ 593
gn@@ 593
bm@@ 593
TE@@ 592
Sk@@ 591
Am@@ 591
cy@@ 590
em@@ 590
yn@@ 589
wi@@ 589
Go@@ 589
UN@@ 589
70@@ 589
ga@@ 588
4.@@ 588
Dr@@ 588
Gr@@ 588
ev@@ 587
sc@@ 587
ju@@ 587
sw@@ 587
In@@ 587
Gu@@ 586
he@@ 586
se@@ 586
so@@ 586
ru@@ 585
we@@ 585
ut@@ 585
dr@@ 585
Cu@@ 584
yp@@ 584
Gh@@ 584
mu@@ 584
me@@ 583
ce@@ 583
fa@@ 583
Op@@ 583
to@@ 582
Pe@@ 582
Wh@@ 582
Mc@@ 582
ID@@ 582
el@@ 582
ol@@ 582
pu@@ 581
Ba@@ 581
fo@@ 581
Ye@@ 581
ve@@ 580
gy@@ 580
Ei@@ 580
si@@ 580
Ro@@ 580
um@@ 580
gm@@ 579
co@@ 578
hy@@ 578
ck@@ 577
Sh@@ 577
na@@ 576
jo@@ 576
bs@@ 575
eu@@ 575
ki@@ 575
ok@@ 574
bo@@ 574
Eu@@ 573
Fa@@ 573
Ti@@ 573
le@@ 573
Fi@@ 573
Se@@ 572
ta@@ 572
mi@@ 571
Ru@@ 571
ig@@ 571
Cl@@ 571
Li@@ 570
va@@ 569
Du@@ 569
Ha@@ 568
pe@@ 568
ak@@ 568
Ta@@ 567
ri@@ 567
su@@ 567
gr@@ 566
To@@ 566
is@@ 566
im@@ 566
nu@@ 565
Gi@@ 565
Hy@@ 565
ax@@ 564
Ne@@ 564
Ac@@ 564
Hi@@ 564
of@@ 563
lo@@ 562
Do@@ 560
Me@@ 560
ty@@ 560
Bo@@ 559
Pi@@ 558
sa@@ 558
Da@@ 557
Na@@ 557
e-@@ 557
ni@@ 556
Po@@ 556
Tu@@ 554
am@@ 554
Sy@@ 552
Mo@@ 551
up@@ 550
Ra@@ 550
Wi@@ 550
Sa@@ 548
pi@@ 548
aw@@ 548
La@@ 547
Ge@@ 547
ro@@ 547
oc@@ 546
af@@ 546
tt@@ 546
ed@@ 543
So@@ 543
Bi@@ 543
Pa@@ 542
id@@ 542
ey@@ 539
ys@@ 539
av@@ 537
Re@@ 537
ra@@ 536
ow@@ 536
Lo@@ 536
et@@ 535
Jo@@ 531
ho@@ 531
Co@@ 531
la@@ 530
ss@@ 528
da@@ 528
Ca@@ 528
Le@@ 527
Ma@@ 527
ll@@ 526
ba@@ 526
ct@@ 526
De@@ 524
We@@ 523
ep@@ 522
o-@@ 522
ei@@ 516
ef@@ 515
ja@@ 513
ai@@ 512
ea@@ 510
mm@@ 508
ob@@ 504
pa@@ 504
oo@@ 502
eg@@ 493
ew@@ 493
is 23
ke 20
So 20
ow 20
ds 20
up 18
on 18
an 18
as 17
ce 17
ks 17
my 17
ty 16
gs 16
ad 16
ed 16
ly 16
ar 16
ms 15
ws 15
er 15
We 15
ok 15
wn 15
ic 15
le 15
." 15
"I 15
me 15
of 15
be 14
ve 14
so 14
dn 14
go 14
th 14
se 14
ge 14
ut 14
re 14
gy 13
om 13
nd 13
to 12
;" 12
he 12
He 12
ll 12
if 12
en 11
op 11
ts 11
we 11
et 11
xt 11
ou 11
by 11
dy 11
ch 11
il 11
it 11
al 11
at 10
10 10
ns 10
gh 10
ep 10
It 10
hum@@ 10
ld 10
od 10
ue 10
cy 10
ps 10
de 9
el 9
id 9
hel@@ 9
col@@ 9
hop@@ 9
see@@ 9
org@@ 9
st 9
ir 9
ari@@ 9
in 9
par@@ 8
nat@@ 8
&#9@@ 8
som@@ 8
ft 8
duc@@ 8
bli@@ 8
vel@@ 8
ey 8
ze 8
mar@@ 7
mil@@ 7
int@@ 7
cho@@ 7
lar@@ 7
gin@@ 7
and@@ 7
ter@@ 7
mon@@ 7
us 7
oun@@ 7
pla@@ 7
mus@@ 7
tic@@ 7
cor@@ 7
oll@@ 7
ys 7
aga@@ 7
car@@ 7
um 7
or 7
cen@@ 7
no 7
cre@@ 7
"Wh@@ 7
man@@ 7
cli@@ 6
tra@@ 6
te 6
com@@ 6
eff@@ 6
whe@@ 6
low@@ 6
ful@@ 6
con@@ 6
"( 6
stu@@ 6
sec@@ 6
ff 6
may@@ 6
ach@@ 6
cul@@ 6
am 6
"Th@@ 6
sen@@ 6
fe 6
tim@@ 6
mor@@ 6
end@@ 6
vir@@ 6
ess@@ 6
cep@@ 6
bil@@ 6
min@@ 6
fri@@ 6
sch@@ 6
sti@@ 6
bas@@ 6
hal@@ 6
per@@ 5
ous@@ 5
es 5
nec@@ 5
exa@@ 5
do 5
mat@@ 5
dri@@ 5
sol@@ 5
bus@@ 5
der@@ 5
?" 5
spe@@ 5
str@@ 5
fac@@ 5
ry 5
gra@@ 5
ide@@ 5
shi@@ 5
eri@@ 5
fir@@ 5
dis@@ 5
bra@@ 5
pre@@ 5
ima@@ 5
out@@ 5
ell@@ 5
ste@@ 5
ay 5
sur@@ 5
tur@@ 5
sel@@ 5
tri@@ 5
all@@ 5
pri@@ 5
wor@@ 5
cap@@ 4
bot@@ 4
des@@ 4
kno@@ 4
bre@@ 4
pow@@ 4
imp@@ 4
mom@@ 4
pro@@ 4
any@@ 4
off@@ 4
umb@@ 4
cou@@ 4
dat@@ 4
ici@@ 4
tal@@ 4
can@@ 4
dre@@ 4
val@@ 4
pic@@ 4
lob@@ 4
ill@@ 4
ali@@ 4
bac@@ 4
cur@@ 4
loo@@ 4
ech@@ 3
gro@@ 3
app@@ 3
ear@@ 3
tre@@ 3
pos@@ 3
gre@@ 3
are@@ 3
bor@@ 3
the@@ 3
sci@@ 3
eci@@ 3
wal@@ 3
ing@@ 3
ser@@ 3
wan@@ 3
opp@@ 3
est@@ 3
ent@@ 3
thr@@ 2
fam@@ 2
cri@@ 2
not 2
inv@@ 2
our@@ 2
ten@@ 2
tiv@@ 2
nee@@ 2
ver@@ 2
uni@@ 2
wom@@ 2
tly 2
cer@@ 2
all 1
ces 1
war@@ 1
You 1
gen@@ 1
und@@ 1
"If 1
ays 1
ten 1
ems 1
ine 1
you 1
"It 1
thin@@ 1
for@@ 1
over@@ 1
fin@@ 1
way 1
res@@ 1
lit@@ 1
ort@@ 1
rec@@ 1
put 1
exp@@ 1
its 1
ger 1
ome 1
"So 1
sta@@ 1
few 1
got 1
enti@@ 1
