, 116815
the 76556
." 51555
to 49793
. 47547
of 45069
a 43093
and 42960
that 35923
in 30710
I 28868
is 25092
you 23421
it 23355
we 22672
&quot; 22314
&apos;s 21576
this 16008
on 12612
was 11888
for 11378
are 11238
have 10744
they 10290
with 9529
can 9261
"And 9085
re@@ 9060
&apos;t 8715
at 8548
what 8418
ing 8347
ed 8164
about 8152
be 8101
an 7959
— 7957
as 7949
es 7815
e@@ 7773
or 7713
s 7576
all 7519
And 7518
s@@ 7130
not 7113
one 7035
my 6695
do 6669
b@@ 6525
people 6416
&apos;re 6372
our 6370
there 6352
like 6337
d@@ 6264
c@@ 6217
g@@ 6002
from 5996
f@@ 5989
so 5973
-@@ 5839
y 5790
? 5716
er 5648
o@@ 5630
me 5630
but 5598
: 5535
) 5454
just 5335
S@@ 5102
l@@ 5102
in@@ 5075
i@@ 5045
very 5035
out 4995
de@@ 4983
en@@ 4918
these 4874
by 4830
if 4759
t@@ 4732
them 4639
a@@ 4638
ri@@ 4604
more 4599
ers 4561
"So 4556
u@@ 4553
when 4483
li@@ 4478
up 4354
di@@ 4348
con@@ 4324
st@@ 4295
us 4295
had 4269
C@@ 4241
because 4196
r@@ 4193
know 4175
how 4152
their 4143
going 4138
( 4136
v@@ 4124
see 4063
er@@ 4054
la@@ 4037
were 4019
ma@@ 3991
ly 3938
he 3904
think 3896
It 3880
your 3866
would 3849
get 3840
So 3817
ra@@ 3812
who 3799
really 3791
ro@@ 3695
y@@ 3647
ti@@ 3632
t 3618
time 3601
which 3589
d 3586
ar@@ 3578
&apos;ve 3560
ac@@ 3537
e 3537
way 3517
p@@ 3488
al 3453
n 3355
where 3336
world 3335
&apos;m 3310
h@@ 3308
A@@ 3288
then 3266
mi@@ 3265
B@@ 3255
don 3243
m@@ 3236
has 3228
here 3219
into 3216
le@@ 3211
We 3197
M@@ 3196
"I 3175
ta@@ 3164
some 3137
tion 3130
an@@ 3105
P@@ 3097
will 3088
ex@@ 3087
w@@ 3077
m 3076
ce 3059
?" 3032
un@@ 2981
actually 2981
vi@@ 2979
other 2974
years 2971
se 2931
ci@@ 2926
or@@ 2925
now 2912
st 2888
se@@ 2881
al@@ 2874
n@@ 2844
o 2837
sp@@ 2823
Laughter 2809
co@@ 2798
could 2796
ent 2791
things 2789
for@@ 2751
been 2745
go 2739
want 2731
"But 2717
ve 2698
ds 2697
D@@ 2693
make 2673
The 2636
"@@ 2619
on@@ 2598
ts 2574
those 2554
l 2543
z@@ 2518
T@@ 2515
ity 2507
el@@ 2499
than 2489
E@@ 2451
le 2439
But 2439
sta@@ 2422
si@@ 2421
right 2396
something 2394
much 2390
su@@ 2363
ad@@ 2357
pre@@ 2344
H@@ 2334
no 2326
red 2296
en 2284
pa@@ 2276
said 2264
first 2248
fi@@ 2243
ous 2238
tra@@ 2229
"It 2225
two 2217
ation 2210
also 2209
sh@@ 2205
"We 2205
k 2201
G@@ 2196
W@@ 2188
work 2181
thing 2181
most 2179
day 2156
even 2150
life 2137
de 2130
back 2123
look 2112
many 2108
me@@ 2094
ss 2082
ge 2081
"The 2079
need 2076
mo@@ 2070
as@@ 2066
at@@ 2060
over 2049
only 2035
"Now 2033
This 2016
cu@@ 2015
little 2005
tions 1999
th@@ 1998
O@@ 1998
ch 1989
te@@ 1985
na@@ 1985
got 1977
F@@ 1971
to@@ 1968
th 1962
able 1962
ons 1946
his 1944
ec@@ 1943
ver@@ 1939
lot 1934
Applause 1933
we@@ 1932
take 1923
am@@ 1896
ting 1893
ding 1885
c 1872
bi@@ 1870
she 1869
it@@ 1866
You 1860
new 1858
be@@ 1857
il@@ 1857
ne@@ 1851
N@@ 1845
say 1838
om@@ 1837
os@@ 1835
ck 1827
ag@@ 1822
around 1809
fe@@ 1808
ha@@ 1798
ble 1794
lo@@ 1784
ap@@ 1765
ou@@ 1756
im@@ 1752
ate 1752
L@@ 1746
its 1742
did 1730
gi@@ 1725
come 1721
"In 1702
different 1701
ry 1698
sc@@ 1697
op@@ 1696
lu@@ 1692
wi@@ 1691
use 1683
ls 1681
every 1670
They 1670
R@@ 1658
ev@@ 1658
through 1657
I@@ 1647
com@@ 1638
et@@ 1635
her 1622
ol@@ 1621
kind 1618
et 1614
good 1614
down 1584
x@@ 1583
per@@ 1582
same 1572
sa@@ 1566
ted 1557
em@@ 1553
r 1544
ment 1540
end 1529
bo@@ 1522
cal 1515
tu@@ 1514
bu@@ 1513
do@@ 1505
being 1499
pro@@ 1498
"( 1490
own 1481
re 1477
any 1475
That 1473
ect 1467
&apos;ll 1462
les 1461
he@@ 1457
ser@@ 1452
hi@@ 1451
pla@@ 1438
h 1437
ter@@ 1430
ru@@ 1394
k@@ 1387
What 1378
ght 1377
au@@ 1375
put 1374
gra@@ 1373
percent 1372
ded 1370
pi@@ 1369
ine 1364
doing 1364
ence 1362
ely 1353
ot@@ 1353
called 1351
ant 1348
so@@ 1341
made 1341
J@@ 1332
change 1330
inter@@ 1326
ents 1316
find 1310
let 1310
ent@@ 1308
year 1298
ved 1297
ying 1296
water 1289
ter 1282
ves 1281
tell 1281
gh@@ 1276
K@@ 1274
three 1270
p 1265
&apos;d 1262
cre@@ 1261
well 1249
led 1247
ling 1246
ab@@ 1240
j@@ 1238
ver 1230
ur@@ 1228
"You 1221
started 1220
po@@ 1216
; 1215
ar 1213
"This 1212
might 1205
A 1204
Thank 1203
gen@@ 1202
ever 1195
today 1192
sts 1189
didn 1187
fact 1180
ks 1170
der 1170
human 1166
pri@@ 1164
"O@@ 1163
1@@ 1162
why 1159
ph@@ 1159
ose 1159
ng@@ 1155
am 1150
ob@@ 1146
after 1146
"A@@ 1145
low 1145
ch@@ 1141
pl@@ 1140
together 1140
qu@@ 1133
lic@@ 1130
g 1129
wor@@ 1128
problem 1119
should 1113
important 1107
idea 1104
sti@@ 1103
ans 1099
before 1097
ated 1094
lar 1092
"If 1092
est 1091
pe@@ 1090
better 1090
story 1085
fu@@ 1085
no@@ 1078
pu@@ 1077
great 1074
never 1073
sh 1072
ss@@ 1066
pos@@ 1064
ot 1063
last 1060
found 1057
went 1057
w 1055
body 1055
sion 1052
ors 1050
ic@@ 1050
comp@@ 1046
inv@@ 1045
part 1045
still 1045
enti@@ 1040
tri@@ 1038
gu@@ 1038
the@@ 1037
du@@ 1034
"They 1033
car@@ 1033
off 1033
big 1032
tic 1026
ago 1021
thought 1016
bit 1015
give 1013
is@@ 1006
ning 1005
ities 1004
start 1004
less 1002
few 1001
There 1001
place 997
ty 997
another 995
ite 994
ep@@ 994
ck@@ 993
x 992
od 990
ins 988
used 985
pe 979
ps 975
man@@ 975
him 971
course 970
ge@@ 970
talk 969
question 969
each 965
V@@ 961
"S@@ 960
2@@ 958
sure 958
ful 956
brain 956
old 954
ets 951
fac@@ 950
ms 949
ked 944
next 943
man 939
came 935
too 933
als 932
tre@@ 928
king 928
mu@@ 922
example 919
does 919
ses 918
col@@ 917
"Well 915
par@@ 913
ating 913
system 911
ni@@ 909
looking 898
long 897
wa@@ 896
ally 890
show 887
res 880
between 876
cor@@ 875
min@@ 875
again 875
mean 871
age 870
fin@@ 869
ations 869
mar@@ 868
doesn 868
understand 868
ssion 867
da@@ 858
live 857
gre@@ 855
love 853
point 853
der@@ 853
women 848
sur@@ 846
cs 846
rec@@ 841
Now 840
ori@@ 837
medi@@ 837
ad 835
any@@ 834
light 833
ld 833
done 829
He 829
sha@@ 828
onal 828
tive 826
prot@@ 824
help 819
3@@ 818
ut@@ 818
data 818
"When 816
ssi@@ 816
ving 814
cha@@ 804
b 803
ai@@ 797
iti@@ 796
wanted 795
How 792
stre@@ 791
ll 790
away 790
rou@@ 787
trans@@ 787
believe 786
dri@@ 785
ral 785
ther@@ 783
using 781
call 779
school 778
ther 778
bre@@ 777
technology 777
may 771
ore 770
cally 769
try 768
trying 767
sy@@ 767
produc@@ 767
children 766
son 766
ach 765
person 764
oun@@ 762
cap@@ 760
ran@@ 760
&apos; 759
room 756
10 756
pr@@ 755
line 755
city 753
feel 753
cho@@ 753
sig@@ 751
ve@@ 751
working 749
ju@@ 748
exp@@ 748
rat@@ 747
mon@@ 743
int@@ 742
lan@@ 742
rac@@ 740
always 740
low@@ 739
ness 737
real 735
maybe 732
rate 728
ws 727
means 727
i 724
information 724
wh@@ 720
U@@ 718
supp@@ 715
tru@@ 714
times 711
sec@@ 711
form 710
star@@ 709
country 708
thinking 706
create 703
million 700
f 698
small 697
sk@@ 697
everything 696
19@@ 696
hu@@ 695
ngs 695
ition 693
ory 693
whole 692
number 692
"T@@ 690
land 690
ars 690
dre@@ 688
&quot;" 687
took 686
har@@ 686
become 685
dis@@ 685
respon@@ 684
best 684
ies 684
money 683
cra@@ 681
making 679
home 678
"W@@ 677
comes 673
energy 672
sub@@ 668
future 668
space 667
Let 667
possible 667
nal 667
ster 666
wat@@ 661
bri@@ 660
ine@@ 659
ently 658
inf@@ 657
.@@ 657
ga@@ 655
countries 654
ue 652
act 652
tor 651
sort 650
ance 650
show@@ 647
ard 646
cal@@ 646
four 645
men@@ 645
stu@@ 643
under@@ 642
stic 642
ze 641
side 641
lar@@ 639
Th@@ 638
cla@@ 638
ho@@ 638
dec@@ 638
read 637
social 637
oc@@ 636
science 636
high@@ 635
getting 635
cells 635
tr@@ 634
enough 633
left 633
"There 629
set 629
tly 628
kids 626
second 626
gener@@ 625
ways 623
ected 620
ic 620
ship 620
days 619
quite 617
fore@@ 616
us@@ 614
told 614
ona@@ 614
ak@@ 613
gg@@ 613
food 613
ba@@ 612
five 612
"That 612
book 612
plan@@ 611
ome 610
case 610
go@@ 609
stri@@ 608
pp@@ 606
ask 605
ang@@ 604
happened 604
without 603
pretty 603
lives 602
"H@@ 600
des 600
oper@@ 600
ective 600
ture 599
ned 598
cer@@ 597
hard 597
ments 597
tal 596
living 595
ca@@ 595
ce@@ 594
Well 594
ces 593
che@@ 593
ess@@ 592
bra@@ 592
ty@@ 591
ol 591
pai@@ 589
power 589
ill 586
probably 586
hand 586
across 584
ced 583
sense 581
hel@@ 581
ary 580
saw 578
"M@@ 577
later 576
build 576
ke@@ 576
ously 576
phot@@ 575
ort 572
ase 572
talking 571
nu@@ 570
"He 569
experience 569
4@@ 568
5@@ 568
coming 568
family 567
asked 567
Y@@ 567
seen 567
care 566
ke 565
50 564
while 563
half 563
learn 562
ali@@ 561
gs 561
cam@@ 560
mp@@ 560
sed 560
"B@@ 559
head 559
almost 559
eff@@ 559
interesting 558
works 558
struc@@ 555
men 555
ok@@ 555
public 554
iting 554
ants 553
art 552
far 550
fai@@ 550
moment 549
"E@@ 548
stra@@ 548
20 548
fil@@ 548
speci@@ 547
te 547
nor@@ 547
ste@@ 547
ell 546
anything 545
sen@@ 545
ia 543
lin@@ 543
simple 543
shed 542
chan@@ 542
though 542
,000 541
ven 541
ow@@ 541
picture 541
happen 541
ner 540
inside 539
Earth 539
ere 538
"What 537
building 536
shi@@ 536
such 535
words 535
ming 534
ber@@ 531
over@@ 531
health 531
problems 531
Ch@@ 530
cl@@ 530
ection 529
makes 528
disco@@ 528
billion 527
jo@@ 526
young 526
dra@@ 526
cy 525
wal@@ 524
arti@@ 523
dollars 523
5 522
mind 522
months 521
someone 521
ast 521
single 520
stuff 520
ing@@ 520
happens 519
play 519
reason 519
else 519
design 518
fo@@ 518
face 518
est@@ 517
ki@@ 517
S 517
deci@@ 516
matter 516
ences 516
planet 515
20@@ 514
ined 514
ghts 513
cancer 513
ssed 512
project 511
av@@ 511
"N@@ 511
id@@ 511
ul@@ 511
mb@@ 510
cle 510
sing 510
um 509
med 509
els 509
often 509
tures 505
move 504
table 504
nothing 504
desig@@ 503
car 503
teach@@ 503
nation 502
high 502
ten@@ 502
conn@@ 501
"C@@ 501
whether 501
ute 500
cks 499
tal@@ 499
having 499
answer 499
develop@@ 498
7@@ 498
bio@@ 497
process 496
"As 496
war@@ 496
turn 496
ens 496
el 495
community 493
says 493
bility 493
imp@@ 493
myself 493
! 492
already 489
ster@@ 489
ges 488
wrong 488
"For 487
rela@@ 487
ement 487
ative 487
bot@@ 487
looked 486
Why 486
order 484
ability 484
bly 484
rap@@ 481
qui@@ 481
duc@@ 481
yet 478
sel@@ 477
af@@ 477
ped 477
fre@@ 476
remember 475
ones 474
pat@@ 473
0@@ 470
exi@@ 469
incre@@ 469
mat@@ 468
top 467
imagine 467
os 467
lies 466
contin@@ 466
wn 464
sto@@ 463
oi@@ 463
"Because 463
amazing 463
learned 462
ys 462
fe 462
goes 462
disease 462
hope 459
ear@@ 459
nature 457
bad 457
late 457
tors 456
d-@@ 455
cent@@ 455
fa@@ 455
zed 454
2 454
rai@@ 454
gest 453
K 453
exc@@ 452
logi@@ 451
New 450
fic 450
organiz@@ 450
diti@@ 449
e-@@ 449
tel@@ 449
mic@@ 448
ases 448
both 448
ched 447
6@@ 446
global 446
students 446
once 445
cial 445
dent 444
fic@@ 444
ns 443
cul@@ 443
true 443
♫ 443
dic@@ 441
group 440
up@@ 439
logy 439
business 438
wr@@ 438
ssing 438
3 437
against 436
looks 436
lly 436
ring 435
wasn 434
species 434
vel@@ 434
individu@@ 433
study 433
pan@@ 432
keep 432
United 432
job 432
direc@@ 431
ering 431
heard 431
dies 430
cou@@ 430
decided 430
language 430
friends 430
experim@@ 430
beautiful 428
lead@@ 428
rop@@ 428
within 428
ings 427
word 427
"Th@@ 426
vice 426
&#91; 426
control 425
Ma@@ 425
fully 425
six 424
government 424
research 424
ics 424
built 423
open 423
animals 423
ourselves 423
test 423
tation 422
places 421
sometimes 421
isn 421
piece 421
saying 421
&#93; 421
far@@ 419
per 419
ler 419
can@@ 418
"P@@ 417
sions 416
child 415
out@@ 415
history 415
bring 414
education 413
200@@ 413
culture 413
list@@ 413
ft 412
basically 412
vac@@ 412
Ri@@ 412
nat@@ 411
questions 411
thre@@ 410
cau@@ 410
turns 410
mor@@ 409
op 408
kil@@ 408
eng@@ 407
mag@@ 407
ati@@ 407
share 406
dge 406
stan@@ 406
lea@@ 405
phone 405
under 404
30 403
ects 402
mer 402
ideas 402
0s 401
pic@@ 401
learning 401
until 400
blo@@ 400
lit@@ 400
ant@@ 399
stop 399
themselves 398
dence 398
mea@@ 398
exactly 398
stories 398
completely 397
Re@@ 397
ten 397
sli@@ 397
In@@ 397
bor@@ 396
val@@ 396
created 395
jects 395
ig@@ 395
clear 395
became 395
dar@@ 395
ak 395
stance 394
soci@@ 394
couple 394
level 394
cy@@ 394
view 394
heart 393
fish 393
gets 391
cel@@ 391
ery 391
run 390
Li@@ 390
worked 390
her@@ 390
mother 390
colle@@ 390
sive 389
known 389
appro@@ 388
"I@@ 388
States 388
guy 388
cell 388
ching 388
happening 388
Africa 387
ground 387
taking 387
indu@@ 387
ited 387
reality 387
coll@@ 385
ena@@ 385
knew 385
9 385
society 385
national 384
house 384
parti@@ 384
ote 384
bro@@ 384
cr@@ 384
evi@@ 383
doc@@ 383
company 383
app@@ 382
cities 381
solu@@ 381
some@@ 381
computer 380
vered 380
thousands 380
environment 379
hours 379
hear 379
clos@@ 377
provi@@ 377
ong@@ 377
changed 377
sted 377
sm 377
itive 376
physi@@ 376
everyone 376
fer@@ 376
state 376
She 376
These 375
logical 375
universe 375
itself 375
mos@@ 375
instead 375
Because 375
8@@ 374
hy@@ 374
huge 374
4 374
dom 374
news 373
run@@ 373
sound 373
ven@@ 372
omi@@ 372
wing 372
bec@@ 371
sue 371
vation 371
det@@ 371
100 370
No 370
phi@@ 369
front 369
ris@@ 369
woman 369
count@@ 368
ake 368
ration 367
0,000 366
7 366
name 366
chi@@ 366
must 366
ters 366
sses 365
om 365
spe@@ 365
que@@ 365
cept 365
night 365
" 364
prin@@ 364
tually 363
ir@@ 363
bed 363
companies 363
ach@@ 362
somebody 362
entire 361
kinds 361
happy 361
others 361
ner@@ 361
ders 360
trac@@ 360
based 360
t-@@ 360
shing 359
ounds 359
radi@@ 359
consi@@ 359
fl@@ 358
model 358
ware 358
difficult 358
ome@@ 358
sting 357
ital 357
Internet 357
wha@@ 356
allow@@ 356
stry 356
ffi@@ 355
ur 355
tan@@ 355
depen@@ 355
past 354
video 354
olved 354
figure 354
ism 353
gave 353
omes 352
pen@@ 352
engine@@ 352
dy 351
wo@@ 351
couldn 351
prop@@ 350
see@@ 350
thy 350
scienti@@ 350
systems 349
por@@ 349
elec@@ 348
easy 348
America 348
neur@@ 348
ell@@ 348
yed 347
ess 347
ree 347
ping 346
communic@@ 346
lation 345
ros@@ 345
since 345
recor@@ 345
tiv@@ 344
inclu@@ 344
tual 343
spi@@ 342
large 342
wards 342
American 342
sol@@ 342
music 342
rather 341
everybody 341
kay 341
atta@@ 341
"A 340
han@@ 340
rely 340
mer@@ 340
wit@@ 340
structure 339
ple 339
given 339
key 339
kno@@ 339
olution 339
conver@@ 338
cli@@ 338
image 338
size 338
My 338
ject 338
ay 337
not@@ 337
equ@@ 337
tle 336
mul@@ 336
care@@ 335
resi@@ 335
ential 335
Here 335
9@@ 334
focu@@ 334
cing 334
pain@@ 333
cle@@ 333
da 333
ented 333
One 333
rest 333
sor@@ 332
vari@@ 332
ues 332
row 332
stru@@ 332
natural 332
dly 331
finally 331
anti@@ 330
difference 330
ind 329
early 328
along 328
lots 328
least 327
dd@@ 327
turned 327
tur@@ 327
mit@@ 327
outh 327
ext 327
regi@@ 326
win@@ 325
den 325
D 325
particular 325
igh@@ 325
8 325
Nor@@ 325
ates 325
team 325
walk 324
bal@@ 324
action 324
ots 324
mati@@ 324
yourself 324
scale 323
outside 323
ening 323
ples 323
era 323
bir@@ 323
deli@@ 323
cine 323
non@@ 323
bl@@ 323
"D@@ 322
econom@@ 322
met@@ 322
activ@@ 321
ining 321
free 321
emoti@@ 321
cei@@ 321
ow 320
cles 320
rob@@ 320
sources 319
field 319
rele@@ 319
offi@@ 318
simply 318
succe@@ 318
cep@@ 318
"One 318
demo@@ 318
fami@@ 317
behind 317
expla@@ 317
electri@@ 317
viol@@ 317
mem@@ 317
taken 316
China 316
takes 316
cir@@ 316
jour@@ 316
V 315
during 315
relation@@ 315
eyes 315
patients 315
nate 314
tally 314
off@@ 314
int 314
TED 314
sho@@ 314
pol@@ 313
den@@ 313
compa@@ 313
ban@@ 312
air 312
bel@@ 312
Au@@ 312
minutes 312
oms 312
realized 312
survi@@ 312
week 312
ost 312
friend 311
pur@@ 311
ini@@ 311
ene@@ 310
ical 310
grow 310
bil@@ 310
eople 310
telling 310
ka@@ 309
ton 309
super@@ 309
bab@@ 309
uni@@ 308
flo@@ 308
mal 308
surpri@@ 308
inno@@ 308
chemi@@ 308
ron@@ 308
died 308
self 308
tar@@ 308
aliz@@ 307
tain@@ 307
1 307
uro@@ 307
York 304
needed 304
cos@@ 304
00 304
fit 304
Ar@@ 304
predic@@ 303
population 303
weeks 303
char@@ 303
pot@@ 303
gue@@ 303
certain 302
dr@@ 302
grou@@ 302
15 302
put@@ 301
bac@@ 301
ye@@ 300
reas@@ 300
full 299
born 299
cont@@ 299
inst@@ 299
quickly 298
iz@@ 298
fol@@ 298
speak 298
solve 298
ong 298
third 298
seeing 297
adv@@ 297
bur@@ 297
extre@@ 297
parents 296
spend 296
are@@ 296
risk 296
great@@ 296
ey 295
media 295
inc@@ 295
cat@@ 294
maj@@ 294
century 294
ature 294
Al@@ 294
war 294
aff@@ 294
mic 294
cannot 293
than@@ 293
ered 293
Eng@@ 293
powerful 293
bar@@ 292
ines 292
ide@@ 292
middle 292
bat@@ 292
DNA 292
self-@@ 291
reli@@ 291
political 291
nam@@ 291
hor@@ 291
close 291
felt 291
work@@ 290
"F@@ 290
xi@@ 290
ries 290
ff@@ 290
guys 290
speak@@ 290
amount 289
cri@@ 289
cur@@ 288
sible 288
situ@@ 288
inspi@@ 288
tem@@ 288
messa@@ 288
ecting 287
T 287
cost 287
itu@@ 287
perhaps 286
ari@@ 286
esti@@ 286
pay 286
scientists 286
practi@@ 286
obvi@@ 286
Mi@@ 286
Gre@@ 286
lost 286
plo@@ 286
sit@@ 285
site 285
poor 285
Is@@ 285
stud@@ 285
parts 285
If 285
hands 284
challenge 284
sci@@ 284
ank 283
began 283
cars 283
conv@@ 283
mental 283
father 283
In 283
archit@@ 282
common 282
ice 282
leave 281
seven 281
machine 281
tou@@ 281
follow@@ 280
oti@@ 280
longer 280
climate 280
M 280
won 280
transp@@ 279
poli@@ 279
every@@ 278
aring 278
An@@ 278
terms 278
moving 277
needs 277
tried 277
human@@ 277
either 277
eti@@ 277
sequ@@ 277
rd 277
shar@@ 277
antly 276
numbers 276
ir 276
ef@@ 276
heal@@ 276
source 275
6 275
fundamen@@ 275
market 275
dig@@ 274
anal@@ 274
ran 274
anima@@ 273
B 273
fla@@ 273
possi@@ 273
smar@@ 273
ches 273
humans 273
ssive 272
pt 272
met 272
spent 272
images 272
list 272
physical 272
differ@@ 271
cop@@ 271
scre@@ 271
sug@@ 271
leg@@ 271
patient 271
fied 271
que 270
descri@@ 270
giving 270
hon@@ 270
♪ 270
il 269
y-@@ 269
green 269
alone 269
curr@@ 269
defin@@ 269
All 268
box 268
pes 268
dru@@ 268
larly 267
ap 267
Lo@@ 267
our@@ 266
politi@@ 266
wouldn 266
dience 266
beg@@ 266
black 265
attention 265
ok 265
read@@ 265
ney 265
manag@@ 264
changes 264
preci@@ 264
likely 264
die 264
incredible 263
ink 263
vil@@ 263
wonderful 263
ocean 263
nec@@ 263
blood 263
ths 263
Le@@ 263
"These 263
appe@@ 262
scho@@ 262
material 262
od@@ 261
beginning 261
func@@ 261
sitting 260
entially 260
seems 260
movi@@ 260
network 260
id 260
requi@@ 260
writ@@ 260
books 260
ma 260
noti@@ 260
stai@@ 260
ber 259
access 259
surface 259
ope@@ 259
lish 259
sual 259
rok@@ 258
feeling 258
hol@@ 257
ast@@ 257
Music 257
perf@@ 257
cient 256
ories 256
step 256
"She 256
quality 256
hundreds 256
mate 256
grand@@ 256
ith 255
ain 255
sent@@ 255
Yeah 255
ograph@@ 255
sation 254
area 254
bene@@ 254
movement 254
ads 254
absol@@ 254
environ@@ 254
knowledge 254
rit@@ 254
stor@@ 253
zy 253
deal 253
gone 253
los@@ 253
produce 253
fas@@ 252
local 252
areas 252
labo@@ 252
back@@ 252
forward 252
lated 252
profe@@ 251
rst 251
mot@@ 251
interested 251
plant 251
developed 251
vel 250
proce@@ 250
univer@@ 250
realize 250
complex 250
"My 250
sudd@@ 250
Yes 250
fear 250
millions 250
behavior 250
ational 250
ffer@@ 249
gram@@ 249
rated 248
sand 248
ols 248
rev@@ 248
year-@@ 248
lab 248
opportunity 248
eight 247
paper 247
tain 247
olu@@ 247
blue 247
range 247
simi@@ 247
Oh 247
pres@@ 247
experi@@ 247
coura@@ 247
tever 246
death 246
main 246
dang@@ 246
average 246
understanding 246
value 246
osed 246
write 246
gla@@ 246
loc@@ 245
result 245
personal 245
vices 244
patter@@ 244
economic 244
impro@@ 244
pros@@ 244
wil@@ 244
literally 243
choice 243
theory 243
ssues 243
Wor@@ 243
growing 243
tools 243
voice 243
ed@@ 243
40 242
emer@@ 242
"Fi@@ 242
ward 242
12 242
technologi@@ 242
gar@@ 241
program 241
game 241
ordinary 241
easi@@ 241
repor@@ 241
ace 241
molecu@@ 241
India 240
changing 240
present 240
tiny 240
U.S@@ 240
ger 240
God 240
let@@ 240
tom 240
fy 240
sis 240
ace@@ 240
sit 239
brought 239
thou@@ 239
gger 239
asking 239
mean@@ 239
techni@@ 239
Just 238
mine 238
dition 238
recogni@@ 238
bon 238
fav@@ 238
hold 238
truth 238
eg@@ 238
drug 238
fast 237
sing@@ 237
... 237
din@@ 237
terri@@ 237
male 237
limit@@ 236
connected 236
challeng@@ 236
oke 236
deep 236
vie@@ 236
fri@@ 236
zing 235
oe@@ 235
ately 235
cess 235
sear@@ 235
nately 235
san@@ 235
invest@@ 235
growth 234
specially 234
hospit@@ 234
utely 234
cut 234
ause 234
eye 234
"At 233
Do 233
suc@@ 233
generation 233
chec@@ 233
mini@@ 233
ny 233
ety 232
sum@@ 232
girl 232
versity 232
intellig@@ 232
itiz@@ 232
ices 231
moti@@ 231
seri@@ 230
Jo@@ 230
poin@@ 230
ct 229
ima@@ 229
sma@@ 228
fal@@ 228
ste 226
ly@@ 226
Su@@ 226
11 226
G 226
bas@@ 225
tural 225
gir@@ 225
commun@@ 224
gen 224
omet@@ 223
achi@@ 223
ybe 223
rus 223
ould 223
og@@ 223
ue@@ 222
z 222
eni@@ 221
ath 221
Mar@@ 221
Z@@ 220
gh 220
lear@@ 220
rais@@ 220
Goog@@ 220
lap@@ 219
figu@@ 219
map 219
sia 219
publi@@ 219
ra 219
atu@@ 218
ats 216
nt@@ 215
my@@ 215
sity 215
mit 214
ut 214
of@@ 214
org@@ 214
bit@@ 213
open@@ 213
sil@@ 213
60 212
wai@@ 211
Uni@@ 211
organ@@ 209
resul@@ 209
dit@@ 209
yes 208
thi@@ 208
bli@@ 208
ape 207
ren@@ 207
stand 207
ech 207
materi@@ 206
but@@ 206
R 205
rong 205
incredi@@ 205
,@@ 205
particu@@ 204
thers 204
eli@@ 203
ep 203
fan@@ 202
fun@@ 202
exam@@ 201
beli@@ 201
yon@@ 201
sic 200
contro@@ 200
chin@@ 200
gro@@ 199
C 199
hen 199
sm@@ 198
secon@@ 198
want@@ 198
ani@@ 198
exper@@ 197
ram@@ 196
Ju@@ 196
happ@@ 196
tit@@ 196
buil@@ 196
nt 192
rup@@ 191
opti@@ 191
mom@@ 190
win 190
mil@@ 190
Wh@@ 190
mai@@ 190
popu@@ 189
tho@@ 189
stem 189
sof@@ 189
very@@ 189
fore 188
duce 188
ang 187
ready 186
gy 186
bun@@ 186
hund@@ 185
tt@@ 185
sap@@ 185
ah 185
O 184
devel@@ 183
rang@@ 182
Go@@ 180
mun@@ 180
pha@@ 179
25 178
dise@@ 177
dol@@ 177
Americ@@ 177
nally 176
199@@ 176
nan@@ 176
hal@@ 176
perc@@ 175
net@@ 175
fue@@ 174
ei@@ 173
)@@ 173
phon@@ 173
perso@@ 172
search 172
mak@@ 171
auti@@ 171
top@@ 171
lions 170
80 169
dat@@ 169
rop 168
sat@@ 168
sam@@ 166
aughter 166
sun 165
la 164
complet@@ 164
oni@@ 163
u 163
10@@ 163
mes 162
tai@@ 161
ous@@ 161
resp@@ 161
imag@@ 161
ends 161
scri@@ 159
tin@@ 159
divi@@ 158
won@@ 157
phen@@ 157
tn@@ 157
ket@@ 156
standing 156
sin@@ 156
18@@ 156
tun@@ 155
ame 154
ik@@ 154
pit@@ 152
educ@@ 152
long@@ 152
ton@@ 152
tail@@ 151
governm@@ 151
sent 150
Q@@ 150
bon@@ 150
ea@@ 149
net 148
ound 147
throu@@ 146
belie@@ 146
answ@@ 145
forma@@ 144
ris 144
lam@@ 143
ami@@ 143
mark@@ 142
70 141
wonder@@ 141
ero 141
whe@@ 140
real@@ 140
mbers 140
ya 140
E 140
200 140
und@@ 139
thin@@ 139
ta 139
nia 138
L 136
P 135
U.@@ 134
14 134
Afri@@ 134
ouse 133
piec@@ 133
ff 133
cour@@ 132
mel@@ 132
chil@@ 131
econ@@ 131
economi@@ 129
you@@ 129
dan@@ 129
500 128
rom 127
kin@@ 127
sul@@ 127
lai@@ 127
lack 126
paid 126
ours 126
liter@@ 126
cer 126
ek 126
nd 125
stead 124
ality 123
16 121
ama@@ 120
don@@ 120
fund@@ 120
wo 120
1.@@ 118
reco@@ 117
quic@@ 116
mber 116
formation 116
dia 116
nit@@ 115
behavi@@ 115
eth@@ 115
ecu@@ 115
ola 114
TE@@ 114
ca 114
fel@@ 113
etting 113
sat 113
ough 112
thu@@ 112
ouldn 112
pin@@ 112
set@@ 111
rong@@ 111
/ 111
eri@@ 111
..@@ 111
comple@@ 111
sun@@ 110
sn 110
90 110
dai@@ 108
Mu@@ 108
fron@@ 107
ably 107
whi@@ 107
dn 107
member 107
ny@@ 107
18 106
glob@@ 105
lob@@ 104
son@@ 104
pti@@ 104
abil@@ 103
ener@@ 103
import@@ 103
chim@@ 102
X@@ 101
bin@@ 101
pon@@ 101
ek@@ 100
oce@@ 100
tap@@ 99
opportun@@ 98
quot@@ 98
$ 98
ron 98
ser 98
ina 97
bam@@ 96
omen@@ 95
due 95
W 95
busin@@ 94
ross 94
fiel@@ 94
nee@@ 94
pow@@ 93
ale 93
teri@@ 93
langu@@ 93
!@@ 92
mov@@ 92
lue@@ 92
hair 92
power@@ 92
na 92
vide@@ 91
pap@@ 90
ana 89
ole 88
nati@@ 88
oy@@ 87
The@@ 87
simp@@ 87
lu 87
lion 87
spap@@ 86
tion@@ 86
tan 85
nai@@ 85
tat@@ 84
nm@@ 83
&apos;@@ 82
q 81
song 80
ogra@@ 79
tran@@ 78
H 77
leng@@ 76
ans@@ 76
N 75
F 75
ordi@@ 74
ro 74
nary 74
kit@@ 74
rapp@@ 74
lik@@ 74
nak@@ 73
ae@@ 73
compu@@ 73
rian 73
feel@@ 72
ddle 71
lig@@ 70
rot@@ 70
realiz@@ 70
App@@ 70
hos@@ 70
rand@@ 69
nap@@ 69
f-@@ 68
prob@@ 68
wan@@ 68
ne 68
pas@@ 68
tip@@ 67
utes 67
Inter@@ 66
000 66
’ 66
techno@@ 65
pm@@ 65
cham@@ 65
rit 65
ema@@ 65
gover@@ 65
interest@@ 65
inti@@ 65
- 65
osi@@ 63
si 62
kly 62
tati@@ 61
ha 60
poet@@ 60
entu@@ 60
stion 59
ena 58
pop@@ 57
sin 57
uk@@ 57
0 57
pati@@ 57
sically 56
tam@@ 56
ita 55
chai@@ 55
augh@@ 55
centu@@ 53
yo@@ 52
J 52
ssa@@ 52
phant 51
v 51
verage 51
ye 51
pen 50
recog@@ 50
haps 50
difficul@@ 50
sai@@ 50
pho@@ 50
ku@@ 50
tang@@ 49
tap 49
yi@@ 49
atten@@ 49
eks 49
che 49
wet@@ 49
é 48
phant@@ 48
oice 48
lot@@ 47
dam@@ 46
dia@@ 46
eli 46
wak@@ 45
stems 45
ning@@ 45
til 44
hai 44
tape 44
oy 44
NA 44
Ear@@ 43
rue@@ 43
questi@@ 43
rap 43
é@@ 43
lars 42
spa@@ 42
pit 42
sem@@ 42
chap@@ 41
li 41
rat 40
ae 40
sa 40
hai@@ 40
rian@@ 39
gram 39
Y 39
di 39
tm@@ 38
dot 38
kh@@ 38
&@@ 37
mon 37
Int@@ 37
ri 37
aim 36
beauti@@ 36
song@@ 36
ka 36
U 36
ph 36
compan@@ 35
thane 35
rought 35
yo 34
dren 34
with@@ 34
ana@@ 33
oks 32
bai@@ 32
sim@@ 31
phe@@ 31
nam 30
bet@@ 30
tin 30
mn@@ 30
X 30
sour@@ 30
tue 29
tty 29
yot@@ 29
itam@@ 29
ona 28
ela 28
chang@@ 28
á@@ 28
kt@@ 28
mol@@ 27
ti 27
lak@@ 26
oen@@ 26
chop@@ 26
oet 26
kn@@ 26
ain@@ 25
knowle@@ 25
ew 25
snap@@ 25
_ 25
Yor@@ 24
ao 24
enue@@ 24
selves 24
ems 24
ai 23
ysi@@ 23
Q 23
tua@@ 23
í@@ 23
year@@ 23
proble@@ 23
nin@@ 22
eci@@ 22
chu@@ 22
bi 22
ki 22
begin@@ 22
ken@@ 22
wam@@ 22
sak@@ 21
mann 21
ou 21
wow 21
# 21
ini 21
= 20
tha@@ 20
port@@ 20
reds 20
+ 20
q@@ 20
ó@@ 20
sands 20
gether 19
sue@@ 19
ya@@ 19
know@@ 19
racti@@ 19
del 19
eas@@ 19
mare 19
wan 18
hat 18
tates 18
uan@@ 18
tha 18
wom@@ 18
san 18
actly 18
du 18
nap 17
Z 17
chit@@ 17
ã@@ 17
phan@@ 16
ç@@ 16
yu@@ 16
ween 16
nais@@ 16
ount 16
sot@@ 15
tue@@ 15
tak@@ 15
eah 15
viron@@ 15
ng 15
hind 14
mi 14
beha@@ 14
kar@@ 14
wi 14
amen@@ 14
% 14
chon@@ 14
pa 14
chat 14
kit 14
oko 13
mach@@ 13
pok@@ 13
lai 13
grow@@ 13
ono 13
chut@@ 13
chin 13
bang@@ 13
^ 13
som@@ 12
cha 12
miti@@ 12
mat 12
pan 12
mong@@ 12
snu@@ 12
apos@@ 11
chatt@@ 11
nae 11
chal@@ 11
ni 11
thon@@ 11
intel@@ 11
ö@@ 11
thrit@@ 11
chant@@ 11
chant 10
ild 10
mum@@ 10
bin 10
eng 10
mong 10
plet@@ 10
ru 10
nuan@@ 10
kan@@ 10
cho 10
aman@@ 10
nom@@ 9
nan 9
rot 9
yan@@ 9
ko@@ 9
tat 9
phe 9
sia@@ 9
nex@@ 9
kna@@ 9
tu 9
uar@@ 8
rt@@ 8
chok@@ 8
lae 8
—@@ 8
fa 8
atre 8
ani 8
sung@@ 8
chi 8
è@@ 8
j 8
oet@@ 7
ko 7
pnot@@ 7
wok@@ 7
ael 7
due@@ 7
nn 7
sen 7
ying@@ 7
lang 7
luk@@ 7
din 7
♫@@ 7
nton@@ 7
snat@@ 7
ao@@ 7
pon 7
ü@@ 7
oni 6
sang@@ 6
tok@@ 6
stap@@ 6
chat@@ 6
tuat@@ 6
;" 6
phom@@ 6
ua@@ 6
nut@@ 6
nna 6
thel 5
dividu@@ 5
rak@@ 5
yak@@ 5
rao@@ 5
ï@@ 5
nun@@ 5
kap@@ 5
sn@@ 5
non 5
tham 5
nited 5
nik 5
kon@@ 5
kan 5
&#93@@ 5
dah 5
chot@@ 4
yun@@ 4
@ 4
yu 4
buk@@ 4
sung 4
yon 4
bni@@ 4
rue 4
pai 4
pant@@ 4
wng@@ 4
np@@ 4
ngo 4
nai 4
look@@ 4
wik@@ 4
kun@@ 4
อ@@ 4
tam 3
thai 3
yong@@ 3
hu 3
tech@@ 3
thot@@ 3
bt@@ 3
meni@@ 3
Amer@@ 3
kho@@ 3
wok 3
² 3
á 3
that@@ 3
tham@@ 3
oi 3
kham 3
hua@@ 3
kh 3
chom@@ 3
ik 3
kon 3
anak@@ 3
lt@@ 3
♪@@ 3
etu@@ 3
your@@ 3
lang@@ 3
è 3
ø@@ 3
phu@@ 3
ñ@@ 3
aen@@ 3
cht@@ 3
chn@@ 3
raok@@ 3
khi 3
fang@@ 3
nu 3
yao@@ 2
khar 2
knu@@ 2
theon 2
bant@@ 2
ô@@ 2
happen@@ 2
phet@@ 2
ican 2
satan@@ 2
pn@@ 2
kham@@ 2
fficul@@ 2
mis 2
kang@@ 2
dai 2
£ 2
peni@@ 2
ika 2
ople 2
wang@@ 2
yin@@ 2
lok@@ 2
mt@@ 2
– 2
pi 2
wt 2
nop@@ 2
pang@@ 2
yk@@ 2
pap 2
khan 2
bae@@ 2
ร 2
่ 2
í 2
mt 2
à 2
tn 2
nian@@ 2
ä@@ 2
ngt@@ 2
sai 2
Á@@ 2
sam 2
phon 2
okat@@ 1
su 1
wong 1
chai 1
chen@@ 1
eon 1
nati 1
∇ 1
τ 1
ú 1
oen 1
lae@@ 1
nak 1
ikar@@ 1
” 1
ā@@ 1
naka 1
mai 1
siati@@ 1
hel 1
kat 1
khon@@ 1
kha 1
û@@ 1
ě@@ 1
ó 1
ī@@ 1
ttop@@ 1
kat@@ 1
them@@ 1
yom@@ 1
mue@@ 1
anai@@ 1
oei@@ 1
kher@@ 1
khe@@ 1
sut 1
chon 1
Č@@ 1
lak 1
anti 1
aep@@ 1
thi 1
anai 1
tai 1
yok@@ 1
yak 1
oep@@ 1
Å@@ 1
ø 1
khop@@ 1
ngo@@ 1
chak 1
knap@@ 1
¿ 1
thim@@ 1
ย@@ 1
ย 1
anni 1
Ă@@ 1
Ť 1
* 1
ì 1
khan@@ 1
.t@@ 1
khi@@ 1
É@@ 1
chum@@ 1
tak 1
samp@@ 1
kai@@ 1
tatt@@ 1
tun 1
yi 1
suk@@ 1
uem 1
