, 119414
the 78008
." 51758
to 49475
. 48991
of 45878
a 44578
and 42992
that 35505
in 32366
I 29186
is 26518
it 24939
you 23897
&quot; 22635
&apos;s 21923
we 21910
this 16451
on 12442
was 12439
are 11964
es 11782
s 11669
ed 11351
for 11306
c@@ 10921
have 10735
ing 10351
they 10205
with 9624
an 9329
can 9260
"And 9128
— 9105
at 9065
&apos;t 8611
as 8546
what 8492
in@@ 8311
be 8270
re@@ 8043
about 8037
all 7969
And 7935
or 7563
not 7436
f@@ 7052
one 6877
do 6728
s@@ 6715
&apos;re 6513
my 6496
there 6450
like 6407
our 6063
from 6027
so 6012
e@@ 5974
people 5970
b@@ 5957
g@@ 5886
? 5837
en@@ 5829
-@@ 5759
but 5617
er 5590
ation 5550
d@@ 5549
: 5546
me 5464
just 5458
) 5449
a@@ 5408
p@@ 5392
y 5369
al 5281
u@@ 5132
very 5123
e 5017
w@@ 4956
"So 4895
S@@ 4889
out 4886
if 4854
by 4785
these 4757
i@@ 4721
st@@ 4624
ri@@ 4563
more 4524
up 4520
know 4489
them 4487
us 4459
de@@ 4454
going 4429
t 4419
an@@ 4355
had 4312
he 4305
y@@ 4298
con@@ 4287
because 4225
ar@@ 4188
when 4154
( 4141
t@@ 4107
It 4074
were 4065
se@@ 4014
think 4004
ro@@ 3999
ate 3992
how 3985
their 3960
see 3953
which 3893
ts 3872
ent 3865
al@@ 3859
m@@ 3844
So 3836
who 3814
h@@ 3814
th@@ 3779
get 3776
n@@ 3773
C@@ 3767
your 3747
would 3702
really 3676
it@@ 3654
time 3648
l@@ 3632
&apos;ve 3528
li@@ 3483
way 3447
A@@ 3433
here 3432
&apos;m 3382
ac@@ 3373
where 3360
then 3350
ex@@ 3338
B@@ 3332
actually 3289
ity 3288
has 3280
some 3230
d 3230
We 3191
ers 3188
M@@ 3184
world 3182
don 3178
n 3154
will 3149
o@@ 3135
"I 3129
ra@@ 3124
now 3102
Laughter 3081
?" 3066
en 3054
di@@ 3021
years 3011
into 2996
on@@ 2983
er@@ 2958
ly 2955
ce 2931
at@@ 2922
ds 2911
un@@ 2911
could 2894
The 2888
been 2807
other 2801
make 2794
things 2762
go 2744
D@@ 2662
or@@ 2649
"But 2644
want 2606
as@@ 2601
ally 2592
se 2577
able 2569
il@@ 2563
su@@ 2561
ting 2560
mo@@ 2543
m 2527
ci@@ 2516
et@@ 2514
ar 2512
But 2500
T@@ 2494
right 2486
something 2478
P@@ 2458
work 2442
le@@ 2439
than 2429
pro@@ 2424
im@@ 2414
H@@ 2409
ph@@ 2407
thing 2390
much 2375
first 2351
over 2335
ch@@ 2333
ti@@ 2329
said 2325
el@@ 2320
v@@ 2318
sh@@ 2314
"It 2277
lo@@ 2274
those 2268
am@@ 2260
em@@ 2259
ence 2254
no 2253
also 2243
si@@ 2240
red 2238
ec@@ 2229
ous 2227
for@@ 2210
two 2204
"The 2175
r@@ 2169
This 2168
no@@ 2164
back 2160
ne@@ 2156
E@@ 2118
G@@ 2104
I@@ 2096
"Now 2092
k 2091
x@@ 2089
p 2079
little 2077
o 2077
R@@ 2076
ge 2070
got 2064
even 2057
po@@ 2056
only 2055
ad@@ 2048
"We 2034
to@@ 2030
its 2023
st 2010
th 2010
k@@ 2004
most 2002
est 1996
she 1992
look 1990
many 1987
ine 1984
bu@@ 1967
op@@ 1966
ch 1965
You 1959
life 1955
ur@@ 1953
say 1950
ta@@ 1946
la@@ 1934
fi@@ 1932
ru@@ 1921
ic 1920
ve 1915
tion 1911
F@@ 1910
take 1906
et 1897
ated 1886
ter@@ 1882
ou@@ 1876
L@@ 1876
es@@ 1874
W@@ 1872
his 1871
ent@@ 1869
vi@@ 1869
new 1865
ma@@ 1865
1@@ 1858
kind 1857
need 1853
did 1850
qu@@ 1832
O@@ 1830
sp@@ 1820
lot 1819
be@@ 1804
Applause 1792
come 1770
pre@@ 1766
de 1756
N@@ 1756
we@@ 1749
age 1749
tra@@ 1746
ations 1736
ab@@ 1736
sion 1734
around 1734
om@@ 1720
co@@ 1720
ag@@ 1718
com@@ 1717
bo@@ 1714
her 1711
pa@@ 1705
different 1701
is@@ 1697
ess 1686
day 1683
ted 1675
through 1672
use 1666
They 1662
same 1645
te@@ 1641
ob@@ 1641
ding 1639
down 1635
"In 1634
ot@@ 1631
h 1630
ic@@ 1623
good 1612
ct 1607
ment 1601
g 1600
do@@ 1590
per@@ 1580
pe@@ 1552
old 1552
&apos;ll 1542
ical 1524
ver@@ 1518
"( 1515
being 1511
cre@@ 1510
ever 1507
king 1507
J@@ 1501
inter@@ 1489
ons 1483
That 1481
every 1478
r 1477
me@@ 1477
ck 1475
any 1468
ol@@ 1465
put 1461
le 1455
c 1444
ry 1439
ul@@ 1428
A 1426
ap@@ 1425
ni@@ 1422
doing 1414
"A@@ 1412
ant 1410
What 1407
bi@@ 1389
percent 1388
od 1384
dis@@ 1374
ble 1361
sc@@ 1354
tri@@ 1353
; 1351
called 1347
ary 1326
&apos;d 1316
ho@@ 1309
cal 1308
made 1306
tu@@ 1303
end 1302
♫ 1297
ved 1295
ating 1293
"This 1283
change 1267
ice 1267
"You 1266
three 1261
ter 1259
us@@ 1257
cor@@ 1254
fact 1248
year 1239
pos@@ 1238
gh@@ 1235
tell 1233
car@@ 1233
gre@@ 1219
human 1218
ps 1215
why 1215
find 1209
als 1207
K@@ 1200
ying 1200
let 1193
well 1192
today 1191
gu@@ 1189
ely 1183
bl@@ 1181
ed@@ 1181
didn 1170
tre@@ 1168
pri@@ 1164
au@@ 1162
used 1158
rec@@ 1158
pres@@ 1156
l 1152
av@@ 1150
x 1147
fin@@ 1146
started 1144
z@@ 1142
ep@@ 1141
ess@@ 1139
"S@@ 1132
ut@@ 1128
"If 1127
part 1127
low 1127
great 1126
better 1123
pl@@ 1119
ill@@ 1118
ist 1117
own 1116
Thank 1114
ded 1114
sol@@ 1113
ke 1112
after 1107
der 1106
wing 1104
ite 1103
id 1100
am 1100
ad 1099
est@@ 1095
fe@@ 1095
wor@@ 1089
before 1087
idea 1084
together 1074
talk 1073
gi@@ 1072
body 1071
important 1071
b 1067
col@@ 1065
"They 1063
2@@ 1063
gs 1063
still 1059
place 1059
ther 1058
el 1058
spe@@ 1057
off 1057
big 1055
last 1053
ning 1053
acc@@ 1052
went 1050
ces 1048
ev@@ 1047
problem 1046
should 1046
par@@ 1045
sho@@ 1045
lic@@ 1042
oun@@ 1040
ks 1039
re 1038
ans 1037
next 1037
thought 1037
ir@@ 1036
ght 1035
ins 1034
technology 1033
another 1031
system 1028
sen@@ 1024
w 1023
might 1021
There 1020
ago 1016
ition 1009
give 1009
never 1005
ked 1004
ser@@ 1004
course 1004
ty 1000
min@@ 998
mi@@ 997
onal 994
ws 994
women 994
ight 992
du@@ 991
comp@@ 979
story 978
medi@@ 976
um@@ 976
bit 975
form@@ 974
few 973
cu@@ 972
all@@ 972
fac@@ 972
na@@ 972
ction 971
od@@ 970
lu@@ 967
him 967
ses 963
brain 960
"O@@ 956
each 953
start 952
gra@@ 951
ves 950
Ch@@ 948
iz@@ 941
ger 941
ig@@ 938
sk@@ 936
too 935
show 933
pi@@ 929
ful 929
so@@ 929
again 926
data 925
came 923
ets 923
plan@@ 920
between 918
ast 916
ments 912
mean 911
does 910
found 908
ors 907
id@@ 907
ot 907
V@@ 904
ue 903
comes 902
ran@@ 900
cl@@ 896
wi@@ 893
der@@ 892
sm@@ 890
under@@ 888
point 888
less 888
i 888
ative 883
"Well 881
example 880
man 879
ters 879
3@@ 876
ure 875
fa@@ 873
produc@@ 872
ist@@ 871
ance 869
sing 865
gen@@ 862
cap@@ 858
sts 856
&apos; 856
cul@@ 849
ms 848
sa@@ 847
cur@@ 845
Th@@ 845
understand 844
os@@ 842
water 842
cho@@ 842
looking 842
live 840
mil@@ 838
fu@@ 836
he@@ 833
wanted 833
"@@ 832
sort 830
ard 829
question 827
try 826
He 823
using 821
Now 821
sed 821
ents 817
per 816
children 815
gener@@ 813
any@@ 812
Y@@ 810
long 809
doesn 808
f 805
tly 801
il 798
real 796
done 796
trying 795
ju@@ 794
working 792
10 786
always 784
cy 784
tru@@ 783
pe 783
pen@@ 783
ach 781
ics 777
may 776
person 775
.@@ 774
mar@@ 772
ings 771
ay 770
por@@ 769
ck@@ 767
men@@ 765
love 765
ear@@ 765
enti@@ 762
information 762
wh@@ 758
power 755
shi@@ 754
ill 754
million 753
ati@@ 753
ten@@ 752
sub@@ 749
light 749
whole 748
away 746
ing@@ 746
"Th@@ 744
coming 735
19@@ 735
means 734
help 732
bre@@ 731
call 730
blo@@ 729
room 728
form 726
exc@@ 726
ici@@ 725
man@@ 724
making 724
son 724
ones 723
les 723
rem@@ 723
believe 722
feel 722
ving 720
country 719
eng@@ 714
"H@@ 714
small 712
create 712
met@@ 712
took 712
ies 711
cted 711
over@@ 708
city 706
How 704
trans@@ 704
sig@@ 703
ently 703
maybe 703
ory 703
colle@@ 702
energy 702
conne@@ 700
are@@ 700
high@@ 699
rou@@ 694
school 693
&quot;" 691
ver 690
"When 689
gg@@ 688
dan@@ 688
mis@@ 688
mon@@ 686
sur@@ 685
sup@@ 684
art 684
become 683
sive 682
home 681
Wh@@ 680
rel@@ 679
"There 675
develop@@ 674
wn 672
um 671
four 670
enough 669
cti@@ 668
val@@ 667
future 667
pla@@ 666
"That 666
second 666
wed 664
thinking 664
pic@@ 663
ities 662
sure 662
quite 661
side 661
everything 661
sta@@ 657
e-@@ 657
men 657
getting 656
design 655
possible 655
dri@@ 655
tro@@ 654
mor@@ 654
off@@ 653
money 651
ase 651
ei@@ 650
science 650
sy@@ 650
ast@@ 648
sense 647
star@@ 647
left 647
ak@@ 646
ral 646
ome 646
line 646
mu@@ 645
tor 645
without 645
space 643
wa@@ 642
ect 641
rat@@ 640
ga@@ 639
des@@ 638
dre@@ 637
number 637
five 635
tive 634
book 633
ways 631
ov@@ 631
best 630
interesting 629
! 628
iti@@ 625
times 625
ha@@ 625
hun@@ 623
sto@@ 622
clo@@ 622
ali@@ 620
set 620
equ@@ 618
saw 618
not@@ 617
cer@@ 615
ty@@ 614
ir 614
act 614
ose 614
care 612
fol@@ 611
ven 611
5@@ 611
mer@@ 611
wat@@ 610
"He 610
happened 609
cri@@ 609
ital 607
inv@@ 607
ese 606
ned 606
can@@ 602
ls 602
ell 601
ari@@ 600
ately 598
case 598
ef@@ 597
mat@@ 597
ell@@ 595
4@@ 594
pretty 594
building 593
physi@@ 593
tw@@ 591
ore 590
ness 588
tal@@ 587
ously 586
mem@@ 586
talking 585
lives 585
sions 585
told 584
move 584
the@@ 581
fun@@ 581
rit@@ 581
kids 580
social 579
having 579
stan@@ 579
,000 579
ality 579
probably 578
pas@@ 578
ced 576
coun@@ 575
"L@@ 575
20@@ 575
though 575
across 571
seen 569
ner 569
Well 569
ined 568
ge@@ 567
ish 567
oc@@ 567
ther@@ 566
cells 566
asked 564
ship 564
half 563
experience 563
countries 562
ve@@ 562
50 562
hel@@ 562
"What 561
br@@ 561
family 559
young 559
living 557
flo@@ 557
"E@@ 557
bra@@ 557
har@@ 556
5 554
res@@ 554
fore@@ 553
af@@ 552
det@@ 552
evol@@ 552
kay 552
happen 551
"B@@ 551
8@@ 550
stre@@ 549
while 549
anything 549
ability 548
ution 548
fl@@ 548
beg@@ 548
turn 545
such 545
ol 544
simple 544
cra@@ 543
em 543
pp@@ 543
fo@@ 543
cha@@ 542
ff@@ 542
war@@ 542
build 541
days 541
ism 541
process 539
makes 537
led 537
computer 537
happens 536
works 536
tions 536
fic 535
lin@@ 535
cle 535
dra@@ 533
jo@@ 532
ited 532
stuff 532
speci@@ 531
ders 530
cam@@ 530
lan@@ 529
goes 527
7@@ 527
U@@ 526
respon@@ 526
gro@@ 526
ber@@ 526
ates 526
chan@@ 526
car 526
nu@@ 525
hard 524
cent@@ 524
face 524
vers@@ 523
hand 523
bro@@ 522
top 522
dro@@ 520
allo@@ 520
ghts 519
tech@@ 519
vo@@ 519
da@@ 517
ani@@ 516
says 516
ask 516
Earth 516
often 515
ns 514
already 514
order 514
dollars 514
polit@@ 513
later 513
deci@@ 510
ki@@ 510
ys 509
lar@@ 508
contin@@ 508
ut 508
head 506
ept 505
tim@@ 505
S 505
stri@@ 504
clas@@ 503
organiz@@ 502
ia 502
prin@@ 501
sic 501
ines 501
port 500
fe 500
gl@@ 500
fic@@ 499
ily 499
ong 499
ere 499
community 499
"F@@ 498
eff@@ 498
ward 497
eri@@ 497
go@@ 497
Africa 496
20 496
4 494
almost 493
oper@@ 493
ger@@ 492
single 492
sor@@ 492
both 492
desig@@ 491
Ju@@ 491
0@@ 491
play 491
whether 491
writ@@ 491
picture 490
inside 490
sl@@ 490
ba@@ 490
hi@@ 489
Mar@@ 489
♪ 489
6@@ 488
health 488
duc@@ 488
moment 487
amazing 486
looked 484
chall@@ 483
prote@@ 483
far 482
te 482
cks 482
fil@@ 482
Why 482
high 481
direc@@ 480
answer 479
clear 478
hope 478
inf@@ 478
New 478
succ@@ 478
nothing 478
mot@@ 476
food 476
2 475
public 475
res 475
bers 475
00 475
read 474
basically 474
bad 473
business 472
ath 472
tran@@ 472
"C@@ 472
ences 471
saying 471
species 471
olog@@ 471
bly 470
tures 470
myself 470
bor@@ 469
reason 469
remember 469
ens 469
imagine 468
mother 468
os 468
history 467
project 466
else 466
night 465
str@@ 463
j@@ 463
keep 462
den@@ 462
someone 462
table 461
job 461
planet 461
net@@ 460
learn 459
yet 459
ep 458
looks 458
nature 458
ave 457
vice 457
words 457
beautiful 456
"M@@ 455
fer@@ 455
months 455
once 454
land 453
plo@@ 452
ft 451
phone 451
within 450
music 450
problems 449
wal@@ 448
sli@@ 447
government 447
ank 446
sum@@ 446
aliz@@ 445
group 444
lea@@ 444
woman 443
vis@@ 443
200@@ 441
Let 439
hy@@ 439
han@@ 439
sh 438
incredi@@ 438
built 438
9@@ 438
0s 438
incre@@ 436
bring 436
tr@@ 436
ctive 436
pped 436
fra@@ 435
"T@@ 434
"For 434
iting 434
feel@@ 434
ched 434
U.@@ 434
open 432
mas@@ 432
billion 431
global 431
3 430
standing 429
om 429
pon@@ 429
vely 429
hor@@ 429
pol@@ 429
bri@@ 428
ile 428
six 428
ple 428
30 427
radi@@ 426
sel@@ 426
wasn 426
exactly 426
wrong 425
matter 425
word 425
mag@@ 425
ind 424
heard 424
places 423
completely 423
"As 423
itive 423
gets 423
ur 422
arti@@ 422
ture 421
guy 421
qui@@ 421
view 420
ele@@ 420
comm@@ 420
ols 420
stories 420
6 419
until 419
ases 419
mind 419
true 419
ca@@ 418
decided 418
video 418
ement 417
friends 417
child 416
0,000 415
resul@@ 415
9 414
cat@@ 414
ow 413
clim@@ 413
shed 413
These 413
stra@@ 413
wer 412
din@@ 411
cell 410
ras@@ 409
atic 409
fre@@ 409
cancer 409
house 408
cs 408
win@@ 407
taking 407
appro@@ 407
under 407
igh@@ 407
In@@ 407
fully 407
stru@@ 406
tors 406
7 406
pan@@ 406
level 405
individu@@ 405
against 404
She 404
United 403
jects 402
ey 402
study 402
ion 402
run 401
ideas 401
piece 401
ples 400
learned 400
ori@@ 400
society 399
arly 399
ject 399
viol@@ 398
ail@@ 398
cally 398
ne 398
large 397
kinds 397
control 397
particular 397
culture 397
Internet 396
since 395
"Because 394
No 394
Ma@@ 393
bab@@ 393
gran@@ 393
da 390
must 390
ke@@ 390
cities 389
ten 389
couple 389
My 388
D 388
language 388
eni@@ 387
company 386
heart 386
ban@@ 385
yed 385
America 385
ick 384
research 384
animals 384
isn 383
effec@@ 383
og@@ 382
hear 382
model 381
knew 381
En@@ 381
"D@@ 380
pul@@ 380
ren@@ 380
education 379
expla@@ 379
state 378
taken 378
’ 378
her@@ 378
sil@@ 378
happening 377
&#91; 377
sit@@ 377
turns 377
sist@@ 377
tual 377
structure 376
bur@@ 376
tur@@ 376
national 375
itself 375
worked 375
&#93; 374
thre@@ 374
progra@@ 374
disease 374
ber 373
elec@@ 373
became 373
experim@@ 373
sometimes 371
everyone 371
dom 371
hol@@ 371
century 371
ach@@ 370
name 370
Euro@@ 370
aw@@ 369
ling 368
dig@@ 368
mal@@ 368
cau@@ 367
huge 367
instead 367
Because 366
share 366
"N@@ 366
early 365
ching 364
part@@ 364
front 364
meas@@ 364
che@@ 364
communic@@ 363
created 363
based 363
hours 363
questions 363
appe@@ 362
ordin@@ 362
pt 362
imp@@ 362
behavi@@ 362
self 362
rather 361
pu@@ 361
some@@ 361
den 360
Mu@@ 360
seri@@ 359
pain@@ 359
soci@@ 359
themselves 359
dly 358
"P@@ 358
pra@@ 358
liter@@ 358
med 358
changed 358
States 358
va@@ 358
universe 358
ner@@ 358
least 357
lim@@ 357
innov@@ 357
ourselves 357
teach@@ 356
discover@@ 356
dar@@ 355
ak 355
cir@@ 355
ply 355
stop 355
ere@@ 354
action 354
put@@ 354
couldn 354
American 354
tom@@ 353
somebody 353
TED 353
outh 352
photogra@@ 352
cial 351
list@@ 351
entire 351
ational 351
tain@@ 351
engine@@ 351
bed 351
ically 350
ems 350
ry@@ 350
pot@@ 350
everybody 349
bar@@ 349
opport@@ 348
thousands 348
ste@@ 348
sequ@@ 348
jour@@ 348
war 347
ery 347
ature 347
outside 346
India 346
test 346
aff@@ 346
turned 346
posed 346
known 346
Here 346
fish 346
conc@@ 345
black 345
along 345
tem@@ 345
sound 344
ual 344
students 344
mes@@ 343
biolog@@ 343
expe@@ 343
others 341
difficult 341
ground 341
ential 341
won 340
sid@@ 340
conf@@ 339
past 339
ape 339
adv@@ 339
bir@@ 339
China 338
squ@@ 338
One 338
atta@@ 338
key 337
ton 337
ping 337
interest@@ 336
jec@@ 336
seeing 334
issue 334
cou@@ 334
reas@@ 334
vari@@ 334
behind 334
tot@@ 334
raz@@ 334
cal@@ 334
ining 333
ll 333
growth 333
scre@@ 333
foc@@ 332
cost 332
gic 332
utions 331
sible 331
8 331
ming 331
moving 330
ening 330
ctions 330
maj@@ 329
environment 329
tal 329
sibil@@ 329
given 328
d-@@ 328
beginning 328
Ar@@ 328
during 327
bot@@ 327
news 327
far@@ 327
100 327
imag@@ 327
reality 327
T 326
dest@@ 326
machine 326
hum@@ 326
image 326
ute 325
shor@@ 325
ages 325
eyes 325
cing 324
"W@@ 324
wan@@ 324
kno@@ 323
"A 323
out@@ 323
air 322
"Wh@@ 322
felt 322
relation@@ 322
An@@ 322
inclu@@ 321
survi@@ 321
York 321
scale 321
stance 321
ka@@ 321
wo@@ 321
mer 321
fiel@@ 321
natural 321
parti@@ 321
leave 320
systems 320
self-@@ 319
15 319
tion@@ 319
father 319
bel@@ 318
mul@@ 318
needed 318
pur@@ 318
free 318
cle@@ 317
Con@@ 317
instit@@ 317
poin@@ 316
ented 316
famili@@ 316
area 316
companies 316
parents 316
close 316
minutes 316
spi@@ 316
Al@@ 316
"R@@ 315
activ@@ 315
ering 315
inde@@ 315
terms 315
longer 315
size 315
mol@@ 315
difference 315
fle@@ 314
figure 314
mic 314
recor@@ 314
ges 313
eks 313
audi@@ 313
milli@@ 313
itions 312
anim@@ 312
tan@@ 312
del@@ 312
takes 311
tun@@ 311
market 311
third 311
gave 311
leg@@ 310
care@@ 310
them@@ 310
local 309
u 309
team 309
If 309
guys 309
extra@@ 309
full 308
sec@@ 308
met 307
tou@@ 307
population 307
1 306
V 306
girl 306
ace 305
wards 305
finally 305
ok 305
beli@@ 304
obvi@@ 304
happy 303
powerful 303
ots 303
walk 302
what@@ 302
friend 302
"One 302
thy 302
electri@@ 302
row 302
oil 302
rin@@ 302
needs 301
realiz@@ 301
Oh 301
stat@@ 300
wonderful 300
kill@@ 300
impro@@ 299
o-@@ 299
ures 299
learning 299
easy 298
ues 298
quickly 298
add@@ 297
perhaps 297
surpri@@ 297
micro@@ 296
exist@@ 296
cy@@ 296
surface 296
tin@@ 296
economic 295
ven@@ 295
manag@@ 295
invest@@ 295
ron@@ 295
sw@@ 295
sour@@ 294
ging 294
studi@@ 294
hosp@@ 294
lots 294
week 294
proc@@ 294
bil@@ 294
dent 294
plant 294
heal@@ 293
middle 293
invol@@ 293
lik@@ 293
sym@@ 293
predi@@ 292
norm@@ 291
movement 291
work@@ 291
air@@ 291
ack 291
In 291
ny 291
test@@ 291
Yeah 291
consi@@ 291
present 290
disc@@ 290
ize 290
tle 290
ocean 290
patients 290
ads 289
Nor@@ 289
OK 289
spo@@ 289
sim@@ 289
common 288
born 288
ben@@ 288
descri@@ 287
simply 287
grow 287
els 287
All 287
expl@@ 287
solution 286
compl@@ 286
op 286
mental 286
stage 286
des 286
economy 285
mark@@ 285
absol@@ 285
ise 285
priv@@ 285
consci@@ 285
ress 283
white 283
M 283
sage 283
trav@@ 283
clu@@ 283
patter@@ 283
rely 283
"&quot; 283
up@@ 283
... 283
ney 283
dru@@ 283
chit@@ 282
dec@@ 282
dl@@ 282
realized 282
write 282
lost 281
stron@@ 281
vision 281
humans 281
emot@@ 281
ye@@ 281
wers 281
charac@@ 280
unities 280
cond@@ 280
perf@@ 280
ices 280
let@@ 280
dom@@ 279
complex 279
ith 279
doc@@ 279
spend 279
stud@@ 279
wouldn 278
sha@@ 278
parts 278
app@@ 278
Gre@@ 278
tel@@ 277
resour@@ 277
compu@@ 277
intellig@@ 277
ale 277
certain 276
unity 276
eople 276
scientists 276
speak 276
sav@@ 275
alone 275
bacter@@ 275
ator 274
thers 274
game 274
telling 274
knowled@@ 273
atten@@ 273
hands 273
die 273
text 273
recogniz@@ 273
pose 273
ourself 273
lov@@ 273
ond 272
aster 272
shows 271
nologi@@ 271
rate 271
images 271
sit 270
step 270
changes 270
amount 270
ow@@ 270
super@@ 270
chem@@ 270
back@@ 270
ph 270
aver@@ 270
S. 270
pat@@ 270
dy 269
our@@ 269
ats 268
lau@@ 268
era 268
tain 268
"My 266
def@@ 266
trad@@ 265
gir@@ 265
vel@@ 265
publi@@ 265
oks 265
hom@@ 264
num@@ 264
art@@ 264
nal 264
chi@@ 264
eg@@ 264
demo@@ 263
Wor@@ 263
gone 263
risk 263
dist@@ 262
ater 262
enge 262
every@@ 261
wer@@ 261
inst@@ 260
B 260
prof@@ 259
ester@@ 259
stran@@ 259
ld 259
anti@@ 258
ped 258
fav@@ 258
gy 257
uro@@ 257
40 257
fundam@@ 257
sion@@ 257
ja@@ 256
ories 255
vol@@ 255
y-@@ 253
ran 253
issu@@ 252
ang@@ 252
bat@@ 251
pati@@ 251
eas@@ 251
bas@@ 250
argu@@ 250
P 250
bod@@ 250
anal@@ 248
Do 247
stry 246
situ@@ 245
nd 245
poli@@ 245
DN@@ 245
ee 244
year@@ 244
chang@@ 243
uni@@ 243
econo@@ 243
ete 243
mp@@ 243
ree 242
t-@@ 242
sever@@ 242
deli@@ 242
exam@@ 241
ide@@ 241
pers@@ 240
thou@@ 240
ili@@ 239
Re@@ 239
sy 239
"In@@ 239
C 238
ish@@ 238
indu@@ 238
organ@@ 238
regi@@ 237
shar@@ 237
produ@@ 237
revol@@ 236
got@@ 236
perc@@ 234
lon@@ 233
regul@@ 231
fri@@ 231
ore@@ 231
ye 231
n-@@ 231
orig@@ 230
Z@@ 230
robot@@ 230
grou@@ 229
ogra@@ 229
ace@@ 229
mobil@@ 227
material 227
ster 226
sear@@ 226
differ@@ 225
vie 225
sle@@ 225
ety 224
bal@@ 224
hear@@ 224
rst 224
vir@@ 224
tom 223
neu@@ 223
experi@@ 222
sud@@ 222
ause 221
univers@@ 221
vil 220
post@@ 219
yes 219
fy 218
G 218
Sh@@ 217
vid@@ 217
buil@@ 217
struc@@ 216
len@@ 215
gli@@ 215
im 214
mach@@ 214
ths 214
Mo@@ 213
12 213
Le@@ 213
ra 213
)" 213
happ@@ 212
genet@@ 212
tiny 212
my@@ 212
60 211
Fran@@ 211
contro@@ 210
Su@@ 210
sn@@ 209
religi@@ 208
pr@@ 208
tar@@ 206
achi@@ 206
stu@@ 206
ma 206
Afri@@ 205
gr@@ 205
ike 205
199@@ 205
ly@@ 205
"On 204
plac@@ 204
ah 204
nor@@ 203
progres@@ 202
zer@@ 202
stand 202
finan@@ 201
11 201
materi@@ 201
environ@@ 201
imes 200
lab@@ 200
scienti@@ 200
ash@@ 199
ode 199
san@@ 198
evid@@ 198
lear@@ 198
ready 197
hav@@ 197
Q@@ 197
Uni@@ 197
fam@@ 196
read@@ 196
Ger@@ 195
robot 195
tele@@ 195
K 194
viru@@ 194
ony 194
particul@@ 193
vin@@ 193
"G@@ 192
drug 191
ud@@ 190
tory 190
bol@@ 190
Google 190
govern@@ 189
,@@ 189
vide 188
hou@@ 188
ple@@ 188
hu@@ 188
ybe 187
Li@@ 186
25 186
secon@@ 186
sch@@ 186
De@@ 186
slo@@ 185
Se@@ 185
80 185
R 185
illi@@ 184
0-@@ 184
ich@@ 184
gh 183
minut@@ 183
Par@@ 183
sing@@ 183
tually 182
val 182
sem@@ 182
"To 182
Pro@@ 182
"U@@ 181
z 181
dol@@ 181
fore 180
devel@@ 180
strate@@ 179
perspe@@ 179
"I@@ 179
import@@ 178
temper@@ 177
mam@@ 176
ans@@ 175
ze 175
plan 175
mid@@ 175
F 174
diag@@ 174
omet@@ 173
infra@@ 173
ick@@ 173
set@@ 172
gradu@@ 172
ends 172
stor@@ 171
ada@@ 171
aughter 171
imen@@ 171
instru@@ 170
prev@@ 170
ould 169
dle 169
Bi@@ 169
call@@ 169
rup@@ 169
model@@ 168
popul@@ 167
gan@@ 166
sci@@ 166
dam@@ 166
rob@@ 166
tor@@ 165
ina 165
don@@ 164
500 163
throu@@ 162
dy@@ 162
astro@@ 162
ris 162
Americ@@ 161
period 161
tiv@@ 160
ok@@ 160
oday 160
Ne@@ 160
atom@@ 160
resear@@ 160
ole 160
ta 159
bin@@ 159
O 158
ead 158
anta@@ 157
fanta@@ 157
na 157
gri@@ 156
she@@ 155
0 155
ech@@ 155
scho@@ 155
gar@@ 154
mic@@ 154
dat@@ 154
ame 154
oh@@ 153
strat@@ 151
para@@ 151
person@@ 151
won@@ 151
depres@@ 151
ich 151
sam@@ 150
industri@@ 150
rom 149
org@@ 149
"No 149
educ@@ 149
whe@@ 147
ash 147
eve 147
ably 147
ny@@ 147
ros@@ 146
wonder@@ 146
uring 145
sti@@ 144
ideo 144
indi@@ 144
ost@@ 144
mak@@ 144
gres@@ 144
H 144
labor@@ 143
sent@@ 143
him@@ 142
power@@ 141
..@@ 141
nar@@ 141
profes@@ 140
18 140
Per@@ 140
udi@@ 140
augh@@ 140
ton@@ 139
nal@@ 139
ys@@ 138
ativ@@ 138
sin@@ 138
demon@@ 137
Lon@@ 137
glas@@ 137
plat@@ 136
ster@@ 135
thin@@ 135
of@@ 135
oso@@ 135
viliz@@ 134
reg@@ 133
ation@@ 133
ek@@ 132
pit@@ 131
by@@ 130
round 130
net 130
ana 130
70 129
isl@@ 129
esti@@ 129
plast@@ 129
E 129
kin@@ 128
X@@ 127
Bo@@ 127
ek 127
sul@@ 126
ird 125
glob@@ 124
cour@@ 124
ca 124
lev@@ 123
Indi@@ 123
ologi@@ 123
abil@@ 123
quot@@ 122
gol@@ 122
les@@ 122
nes@@ 122
pover@@ 121
Go@@ 121
beau@@ 121
dise@@ 120
pal@@ 119
rav@@ 119
ful@@ 119
/ 118
reli@@ 118
nan@@ 118
stati@@ 118
" 117
Po@@ 117
program@@ 117
Ta@@ 116
ouldn 116
ember 116
L 116
chil@@ 115
lion 115
nov@@ 115
TE@@ 113
mom 111
pus@@ 111
fel@@ 111
cell@@ 111
ody 110
ours 110
a-@@ 109
!" 109
kl@@ 109
get@@ 108
kilomet@@ 107
iv@@ 105
mog@@ 105
ez@@ 104
ret@@ 104
dolla@@ 103
ane 102
Dav@@ 101
tat@@ 101
ug@@ 101
&apos;@@ 100
nit@@ 100
ough 100
ris@@ 97
step@@ 97
need@@ 97
pros@@ 96
intel@@ 95
hal@@ 94
mir@@ 94
port@@ 93
ound 93
ie 93
Inter@@ 92
bud@@ 92
mel@@ 92
stro@@ 92
inform@@ 91
technolo@@ 91
fron@@ 91
az@@ 91
gal@@ 90
pred@@ 90
bac@@ 89
nat@@ 89
"Mo@@ 88
peri@@ 88
ff 88
nolo@@ 87
ka 87
q 87
W 86
magaz@@ 86
asn 85
busin@@ 83
laborat@@ 82
cc@@ 82
ano 82
pli@@ 81
lit@@ 81
ean 81
fig@@ 80
Pri@@ 80
vide@@ 80
youn@@ 79
dum@@ 78
$ 78
py@@ 78
syst@@ 78
iliz@@ 77
"Se@@ 77
So@@ 76
gla@@ 76
pt@@ 76
ever@@ 75
tol@@ 75
Ap@@ 75
ener@@ 74
"V@@ 74
rot@@ 74
dn 73
polo@@ 73
ern@@ 72
prob@@ 72
oking 71
cer 70
dit 70
vest@@ 70
atri@@ 70
ross 69
Na@@ 69
bed@@ 69
N 69
hist@@ 68
pret@@ 68
"K@@ 68
gor@@ 67
ob 66
rac@@ 65
plod@@ 65
nost@@ 65
enty 65
sil 64
py 64
ro 64
oe 63
langu@@ 63
kil@@ 63
bor 63
ew 63
move@@ 63
istori@@ 63
resh@@ 62
- 62
hotel 61
f-@@ 61
ves@@ 61
"Ch@@ 61
och@@ 61
amaz@@ 60
ono@@ 60
kit@@ 60
ena 60
bla@@ 60
dit@@ 60
haps 59
rab@@ 59
hot@@ 58
ches@@ 58
ego 58
la 58
red@@ 58
"Ta@@ 57
lo 57
bo 57
stup@@ 57
spa@@ 57
On 57
ha 56
eh@@ 56
ine@@ 56
sically 56
spra@@ 56
ts@@ 54
oro@@ 54
lig@@ 54
ba 54
zh@@ 54
amoun@@ 53
lad@@ 53
bli@@ 53
za 53
recog@@ 53
prost@@ 52
iny 52
rani@@ 51
hit@@ 50
tak@@ 50
vet@@ 50
nas 50
," 49
remen@@ 49
Ka@@ 49
gov@@ 49
dev@@ 48
di 48
ubi@@ 47
ala 47
mon 47
U 47
zy 46
tries 46
olo@@ 46
ira@@ 45
nee 45
eing 44
ali 44
kni@@ 44
bes@@ 44
X 43
chas@@ 43
bet@@ 43
J 43
eto@@ 43
ki 43
igh 42
&a@@ 42
momen@@ 42
Spa@@ 42
ko 41
ece 41
emy 41
vat@@ 40
ou 40
questi@@ 40
dren 40
kie 39
oz@@ 39
pois@@ 39
yti@@ 39
Y 39
obes@@ 39
ko@@ 38
ury 38
atel@@ 38
glu@@ 37
biologi@@ 37
nos@@ 37
ub@@ 36
sa 36
ik@@ 36
difficul@@ 36
proble@@ 35
pa 34
vor@@ 34
vy 34
god@@ 34
za@@ 34
aj@@ 34
ex 34
Ear@@ 33
Vo@@ 33
inning 33
ri 33
til 33
complet@@ 33
beauti@@ 33
compani@@ 32
♫@@ 32
mi 32
ti 32
biz@@ 31
emati@@ 31
mash@@ 31
bec@@ 30
chel@@ 30
ust@@ 30
"Per@@ 29
medit@@ 29
ural 29
ora 29
é@@ 29
rud@@ 28
ona 28
diff@@ 28
li 28
ram@@ 27
ysi@@ 27
nam 27
v 27
som@@ 27
know@@ 27
va 27
with@@ 27
á@@ 27
é 26
no-@@ 26
selves 26
ila 26
sni@@ 26
diz@@ 26
ii 26
nai@@ 25
dela 25
mo 25
gru@@ 25
dal@@ 25
q@@ 25
dach@@ 25
pad@@ 24
quick@@ 24
muni@@ 24
Q 24
ush@@ 24
tates 24
po 24
eli 24
_ 24
pis@@ 23
oder@@ 23
jaz@@ 22
gaz@@ 22
kra@@ 22
+ 22
jam 21
ga 21
= 21
zy@@ 21
god 21
Goog@@ 21
du 21
jar@@ 20
led@@ 20
rov@@ 20
iz 20
Ye@@ 20
kro@@ 20
chu@@ 20
alo 20
mere 20
thousan@@ 19
"Z@@ 19
rim 19
rush@@ 19
gie 19
wom@@ 19
jan@@ 19
pes@@ 19
dvi@@ 19
dov@@ 18
lich@@ 18
resur@@ 18
hotel@@ 18
Net 18
uch@@ 18
imo@@ 18
plot@@ 18
sov@@ 18
behav@@ 17
plause 17
envi@@ 17
nie 17
ous@@ 17
reb@@ 17
í@@ 17
Z 17
mest@@ 17
del 17
ami 17
ni 16
wron@@ 16
kli@@ 16
^ 16
"Po@@ 16
somet@@ 15
cher@@ 15
rost@@ 15
perim@@ 15
pod 15
ork 15
grow@@ 15
nim@@ 15
nich@@ 15
ween 15
Ot@@ 15
isk@@ 15
chi 15
mire 15
univer@@ 15
stal 14
beh@@ 14
Kit@@ 14
rod@@ 14
pered 14
ja 14
ono 14
nami 13
drug@@ 13
kru@@ 13
veli@@ 13
raj@@ 13
kat@@ 13
"Ne@@ 13
eny 13
ilo 13
sob@@ 12
ho 12
ku@@ 12
icul@@ 12
vid 12
stol@@ 12
kol@@ 12
esn 11
rast@@ 11
♪@@ 11
outsi@@ 11
isch@@ 11
uver@@ 11
look@@ 11
inst 11
dv@@ 11
actly 11
gi 11
opy@@ 11
nym 11
oda 10
som 10
ñ@@ 10
ã@@ 10
fut@@ 10
por 10
rom@@ 10
chety@@ 10
vas 10
ó@@ 10
bog@@ 10
imi 10
pole@@ 10
pute@@ 10
kan@@ 10
ym 9
niz@@ 9
ju 9
ö@@ 9
è@@ 9
zan@@ 9
oby 9
# 9
byl 9
Za@@ 8
yv@@ 8
rite 8
nau@@ 8
cht@@ 8
oru@@ 8
vo 8
% 8
ku 8
rov 8
vod@@ 8
igr@@ 8
sche 7
chet@@ 7
obo@@ 7
lem 7
kot@@ 7
kla@@ 7
munic@@ 7
kim 7
ych@@ 7
kar@@ 7
edin@@ 7
eta 7
hod@@ 7
nab@@ 7
kr@@ 7
ó 7
tem 7
zn@@ 7
tam 6
Od@@ 6
mesh@@ 6
spos@@ 6
iru@@ 6
—@@ 6
á 6
nik 6
kon@@ 6
Pos@@ 6
tu 6
ogo 5
@ 5
ev 5
"Na@@ 5
eto 5
ersh@@ 5
000 5
poch@@ 5
moz@@ 5
mech@@ 4
goro@@ 4
ili 4
funk@@ 4
mob@@ 4
material@@ 4
kih 4
nas@@ 4
chast@@ 4
ov 4
sta 4
Amer@@ 4
ert@@ 4
eno 4
eti 4
psi@@ 4
oni 4
dim 4
ç@@ 4
fak@@ 4
"Pos@@ 4
sv@@ 4
;" 4
trud@@ 4
ō 4
energi@@ 3
prover@@ 3
esch@@ 3
rak@@ 3
aja 3
usch@@ 3
jah 3
ô@@ 3
² 3
happen@@ 3
mog 3
kry@@ 3
ime@@ 3
obla@@ 3
enie 3
nited 3
jal 3
– 3
&#93@@ 3
kti@@ 2
tsi@@ 2
"Ka@@ 2
primer 2
tov@@ 2
imo 2
tsy 2
toge@@ 2
zv@@ 2
"Od@@ 2
ï@@ 2
zab@@ 2
horo@@ 2
enta 2
ø@@ 2
nikov 2
opis@@ 2
dollar@@ 2
gu 2
nach@@ 2
stav@@ 2
sam 2
nem 2
à 2
vs@@ 2
mir 2
kom 2
pod@@ 2
politi@@ 2
anie 2
fiz@@ 2
jut@@ 2
è 2
kv@@ 2
uma@@ 2
Da 2
uv@@ 2
sek@@ 1
‘ 1
kov 1
raz 1
kov@@ 1
tsv@@ 1
odin 1
prav@@ 1
É@@ 1
dav@@ 1
krup@@ 1
gov 1
∇ 1
τ 1
oshi@@ 1
ú 1
klet@@ 1
zr@@ 1
ysh@@ 1
kono@@ 1
indivi@@ 1
nado 1
vot 1
pust@@ 1
ej@@ 1
pri 1
kuda 1
deli 1
agod@@ 1
igra@@ 1
zd@@ 1
stvu@@ 1
sti 1
” 1
ā@@ 1
ople 1
ruet 1
kom@@ 1
shl@@ 1
£ 1
ä@@ 1
“ 1
ika 1
ilet@@ 1
sov 1
rez@@ 1
nev@@ 1
uspe@@ 1
zhen@@ 1
pere@@ 1
samo@@ 1
û@@ 1
dob@@ 1
ldn 1
ě@@ 1
ī@@ 1
byl@@ 1
lech@@ 1
nul@@ 1
po-@@ 1
kri@@ 1
ë@@ 1
pech@@ 1
stro 1
* 1
mn@@ 1
pom@@ 1
tov 1
\ 1
chto@@ 1
okol@@ 1
mov 1
universit@@ 1
nef@@ 1
nom 1
