,
.
."
the
to
a
&quot;
of
and
i
I
that
w
in
is
na
się
it
you
we
nie
&apos;s
z
do
że
u@@
this
po@@
z@@
o
s@@
on
:
my
re@@
was
d@@
jest
t@@
k@@
y
o@@
e@@
g@@
u
?
are
in@@
—
w@@
for
wy@@
i@@
m@@
s
an
ę
)
have
b@@
they
c@@
ą
by
st@@
with
"And
p@@
at
f@@
ar@@
nie@@
S@@
one
&apos;t
an@@
ro@@
as
l@@
can
what
mi@@
t
ing
-@@
And
ni@@
od@@
n@@
a@@
about
y@@
ów
(
be
ać
ki
or
wi@@
li@@
le@@
ach
jak
all
de@@
e
cz@@
j@@
ch@@
at@@
za@@
ra@@
P@@
co
en@@
es
M@@
cie
there
ed
not
&apos;re
al@@
ne
ć
prze@@
ci@@
m
er@@
ad@@
ł
n
si@@
na@@
from
me
r@@
sz@@
like
so
people
al
C@@
D@@
ka
pi@@
or@@
ac@@
T@@
our
ow@@
di@@
ce
on@@
k
but
go
ale
od
?"
bi@@
le
just
ly
ny
ty
B@@
W@@
very
ie
ob@@
h@@
O@@
tym
"So
te
out
ri@@
"I
up
v@@
ż@@
if
d
łem
ts
these
ł@@
er
ami
sp@@
them
sk@@
know
są
ła
ot@@
anie
ti@@
A@@
se@@
ation
he
To
con@@
czy
tak
had
do@@
roz@@
ają
em
because
no
think
am
going
It
tego
wa@@
ak@@
ie@@
no@@
as@@
their
za
liśmy
get
when
ej
So
us
fi@@
ty@@
G@@
je
te@@
am@@
przy@@
be@@
K@@
more
wie@@
pro@@
see
♫
om@@
które
lo@@
were
li
N@@
ę@@
time
E@@
op@@
which
"P@@
ate
ol@@
who
ży@@
how
ko@@
really
ania
here
en
mi
Z@@
ałem
your
p
su@@
me@@
czy@@
&apos;ve
uje
dla
would
tu@@
way
ego
po
ru@@
c
przez
ni
H@@
ers
bu@@
some
ch
don
ry@@
ze
where
ał
es@@
ło
any
vi@@
co@@
The
"@@
We
actually
bardzo
now
ych
nych
un@@
into
ies
cie@@
dz@@
we@@
mnie
ex@@
ich
has
ma
rz@@
ją
ku
ter@@
then
zy@@
ał@@
&apos;m
L@@
F@@
"S@@
ły
th@@
st
dzie@@
g
will
years
dy@@
-
been
mo@@
us@@
el@@
ds
kow@@
ować
I@@
dzi@@
world
lat
things
ag@@
kon@@
"To
enie
tylko
1@@
par@@
sh@@
"O@@
make
ym
other
ent
pod@@
R@@
tra@@
l
je@@
"(
il@@
could
ść
Laughter
wa
ta
ało
want
"M@@
"T@@
ten
ve
im@@
kę
ab@@
fe@@
tr@@
ą@@
lu@@
pre@@
ną
ar
ali@@
ała
something
per@@
Śmiech
th
wo@@
ali
pe@@
to@@
age
ane
rze@@
ne@@
right
ani@@
au@@
bo@@
ct
mie@@
J@@
enia
gra@@
pa@@
♪
nia
work
nym
ur@@
two
x@@
"But
ting
og@@
tu
pl@@
ha@@
sobie
A
może
ś@@
Nie
said
thing
rzy@@
cho@@
back
ały
But
du@@
cu@@
ności
she
nej
"It
ted
dow@@
"D@@
also
który
now@@
se
było
first
ma@@
W
This
,"
Ch@@
ous
min@@
able
spo@@
coś
ó@@
much
zd@@
gi@@
ludzi
nego
rac@@
em@@
nas
cji
więc
got
ent@@
aw@@
lot
bo
ry
for@@
dy
tow@@
"The
ck
et
tych
2@@
aj@@
than
life
ałam
de
ter
You
acji
ują
those
łam
row@@
ś
cy
ta@@
tion
dzie
most
ja
r
sy@@
jeśli
her
ków
uży@@
naj@@
kt@@
aliśmy
over
ca
"Z@@
amy
mar@@
być
"We
hi@@
look
czne
ally
"W@@
os@@
ap@@
&apos;
mu@@
ci
"W
his
też
cy@@
ll
sł@@
zost@@
aby
um@@
little
la@@
ń
kiedy
say
;
qu@@
even
ine
j
new
ność
pu@@
inter@@
only
kind
gdy
around
ści@@
już
tej
need
many
ko
ło@@
im
.@@
star@@
cznie
ony
3@@
"Now
he@@
ver@@
ph@@
take
pri@@
by@@
ka@@
down
V@@
use
re
produ@@
Applause
gre@@
ant
jemy
ona
zie@@
sc@@
day
kiem
bie@@
sz
ku@@
wać
king
"A@@
same
sion
through
go@@
cen@@
wiele
ź@@
tam
ding
so@@
did
eni@@
old
da
led
ou@@
come
est@@
ations
They
cal
pie@@
5
żeby
ąc
lin@@
lub
"N@@
"Nie
ad
ra
az@@
nich
low@@
10
można
"In
szcz@@
b
good
ir@@
ary
ca@@
la
mat@@
sen@@
sie@@
war@@
ró@@
ho@@
being
prac@@
put
ser@@
jako
problem
&apos;ll
łu@@
h
system
is@@
les
it@@
ludzie
był
ką
red
ń@@
roku
U@@
ang@@
wiel@@
dzi
ana
pew@@
ling
der
ści
nam
ces
wor@@
ce@@
jego
different
rzeczy
sposób
fin@@
every
gdzie
zw@@
...
com@@
&apos;d
wal@@
br@@
ated
ist@@
jej
ment
sa@@
więcej
ction
car@@
doing
That
low
ze@@
"A
która
cze@@
kom@@
est
ając
ks
dro@@
called
ste@@
What
om
ła@@
pow@@
!
ke
Ale
poli@@
niż
zas@@
czyć
mu
sty@@
por@@
gu@@
ast@@
3
ors
stan@@
sto@@
ble
mag@@
zn@@
ge
ul@@
"This
made
cre@@
teraz
percent
naprawdę
będzie
19@@
ia
gen@@
którzy
ls
spe@@
wszystko
started
rze
pat@@
owe
świecie
ost@@
str@@
zna@@
pas@@
aniu
wam
ach@@
"C@@
50
mon@@
rę@@
ves
pos@@
ten@@
ved
ję
three
ever
St@@
"Ale
ev@@
wat@@
ded
mog@@
cia
fact
ki@@
tal@@
4@@
um
praw@@
dział@@
ut@@
kar@@
dzieci
nawet
cor@@
off
spraw@@
let
czę@@
ale@@
mówi@@
own
robi@@
ców
lar@@
temu
my@@
owy
pra@@
rodz@@
ans
fer@@
ran@@
der@@
ż
sze
sti@@
ating
bad@@
used
mamy
ek@@
szy@@
sts
Po@@
sam@@
ani
dzić
talk
find
went
gr@@
cznych
tro@@
its
the@@
chodzi
ing@@
"R@@
last
wod@@
tri@@
"K@@
ps
organiz@@
cs
mas@@
ge@@
end
tell
gh@@
"You
fil@@
year
których
didn
x
"J@@
2
ori@@
son
ponieważ
"B@@
change
jak@@
today
Thank
5@@
form@@
ię@@
tę
ymi
gł@@
ąc@@
why
kry@@
ele@@
rów@@
Mo@@
pracy
wz@@
życia
wie
acja
8@@
właśnie
nymi
%
man
ters
dob@@
pis@@
kie
idea
ck@@
well
wo
"Mo@@
niej
human
niejsz@@
dni@@
thought
als
kre@@
tak@@
20
show
była
two@@
peł@@
myśl@@
aliz@@
pres@@
bardziej
better
ati@@
women
ście
"Jeśli
dom@@
part
ość
place
him
wyd@@
There
man@@
ons
ów@@
mean
arz@@
życie
"If
after
dłu@@
zy
came
mal@@
aż@@
yst@@
ek
plan@@
mają
ien@@
ard
should
gi
sta@@
Dziękuję
acie
jeszcze
lat@@
możemy
dru@@
ast
waż@@
mis@@
ss
owania
nad
ot
Wy@@
f
stru@@
important
sor@@
zrobi@@
owanie
4
zrobić
ano
gener@@
another
ji
przy
"
owej
Brawa
ago
love
great
9
włas@@
projekt@@
wielu
"They
ic
że@@
tw@@
ości
water
osob@@
ver
den@@
body
ari@@
ning
przed@@
found
publi@@
before
czny
200@@
tel@@
muzy@@
course
af@@
blo@@
dzę
el
wy
cts
sort
licz@@
Tak
fac@@
big
technology
bro@@
ther
większ@@
He
tre@@
7@@
ostat@@
owych
&quot;"
"H@@
iny
does
start
się@@
id
ii
cał@@
logi@@
era
again
czas
6
give
Co
ance
few
bra@@
together
point
alne
posi@@
men@@
zak@@
pod
00
never
ga@@
7
medi@@
line
tions
tem
looking
between
next
bit
story
inv@@
ory
ence
each
róż@@
proble@@
mogą
lep@@
ied
ving
bez
too
sil@@
light
Jak
dost@@
ple@@
ąd@@
cri@@
ents
ber@@
rob@@
ced
ings
ję@@
comes
onal
per
cer@@
ess
might
czu@@
try
materi@@
omi@@
fo@@
cted
cally
ties
ed@@
still
ąd
8
M
nic
albo
win@@
raz
got@@
form
city
stre@@
czego
ger
30
gs
eniu
develo@@
6@@
rzy
oun@@
kach
zach@@
czasu
innych
"E@@
Wi@@
którym
il
kilka
less
mał@@
pad@@
anych
lon@@
ski
Mi@@
ct@@
kaz@@
stro@@
dzenia
away
owa
nor@@
feel
uję
oty@@
ok@@
leg@@
zar@@
using
łą@@
person
ier@@
ase
rzą@@
nau@@
believe
et@@
under@@
świat@@
col@@
data
jestem
zab@@
ful
ciąg@@
des
cę
ked
prost@@
done
ając@@
any@@
cj@@
aje
ide@@
również
In@@
rel@@
ay
By@@
ment@@
zmieni@@
stanie
pla@@
sur@@
cznej
dar@@
Za@@
inne
iem
przed
ska
pł@@
Now
kro@@
ates
powiedzieć
sh
million
żyć
szy
ght
ga
tutaj
nim
music
uni@@
dzą
char@@
moc@@
wszystkie
long
cin@@
pierwsz@@
sza
Th@@
kt
kol@@
"Well
ące
nić
working
children
acje
always
trying
help
ono
100
"U@@
wan@@
świata
ke@@
gl@@
post@@
live
home
lic@@
ina
oby
whole
fra@@
sig@@
dre@@
oraz
fa@@
getting
example
trans@@
Jest
stop@@
chro@@
przykład
powie@@
call
room
power
współ@@
ality
owie@@
understand
An@@
den
prz@@
sub@@
pły@@
tworz@@
ludz@@
"Ch@@
nasze
ścią
0@@
Czy
sive
ans@@
ative
ir
oper@@
cel@@
tą
ins
tur@@
wh@@
sztu@@
śl@@
real
którą
ud@@
takie
pyt@@
znacz@@
"Kiedy
Mar@@
dużo
dem
cja
niu
chci@@
zi@@
raw@@
ację
cz
awi@@
fu@@
czym
wier@@
read
1
wykorzyst@@
lu
wanted
fun@@
oc@@
były
tive
Ś@@
tele@@
cję
wtedy
jo@@
ms
Y@@
design
budow@@
land
ped
musi@@
rat@@
przyj@@
ąt@@
duż@@
’
sły@@
"Wy@@
trzeba
De@@
ując
school
Na@@
cent@@
trud@@
fir@@
samo@@
tle
took
har@@
pracow@@
Re@@
kids
bur@@
"Po@@
ędz@@
tów
"There
ących
siebie
ery
gin@@
ther@@
odkry@@
sie
także
ying
ody
nik
times
everything
cep@@
comp@@
interes@@
nią
razy
yt@@
mow@@
czas@@
bar@@
energy
become
ate@@
side
stra@@
eri@@
four
ju
Wie@@
jesteśmy
"Wie@@
Ro@@
doesn
zu@@
bli@@
las@@
dobrze
eni
kie@@
cyj@@
question
czną
związ@@
ba
cal@@
stron@@
country
ping
men
zaczę@@
natur@@
coming
list@@
inte@@
aniem
tor@@
book
making
pięk@@
sed
res
How
świat
wol@@
owym
odpowie@@
dzięki
aż
stuff
ness
wsz@@
domu
Ar@@
tru@@
mor@@
rodzi@@
best
zag@@
ół@@
świet@@
9@@
kami
ear@@
hum@@
ses
oni@@
gro@@
ły@@
podob@@
ctive
Prze@@
czą@@
dziewczy@@
,000
dri@@
woj@@
nię@@
spra@@
000
ół
pan@@
lan@@
may
ód
"Więc
dnia
kolwiek
zmie@@
będą
moment
kań@@
jednak
grup@@
B
talking
"When
colle@@
kład@@
S
wię@@
saw
Na
ven
nek
asz
pe
"L@@
arti@@
"&quot;
,@@
bre@@
sze@@
money
ef@@
brain
sha@@
rzym@@
sing
chi@@
ore@@
śnie
razem
"G@@
across
family
ve@@
sense
Cz@@
wpły@@
sek@@
ner
five
prote@@
cznego
ral
"By@@
scen@@
wszystkich
ight
stat@@
owo
koń@@
ników
works
wia
trochę
cti@@
left
ak
ujące
doty@@
"Na
sum@@
Więc
dwa
bal@@
Nie@@
maybe
ową
wszyscy
jeden
czą
mieć
onych
lit@@
Le@@
thinking
jedy@@
means
produk@@
case
ly@@
wer@@
owego
care
powiedzi@@
kształ@@
mam
ree
rozwiąz@@
około
której
gar@@
OK
czna
building
40
part@@
powiedział
ments
20@@
stri@@
ue
kolej@@
ong
wiat@@
Be@@
"That
ust
happened
cą
mów
nąć
Well
ner@@
trac@@
TED
move
techni@@
lepiej
possible
ktoś
bezpie@@
działa
sup@@
sol@@
cur@@
ones
pokaz@@
cle
says
art
kor@@
ciągu
having
zmi@@
poko@@
ld
swoje
coun@@
nu@@
ęd@@
skiej
information
ując@@
aty@@
ice
tan@@
experience
owi
anything
ability
esz
niesamowi@@
tem@@
nku
mal
cznym
know@@
powin@@
picture
ujemy
raż@@
są@@
enough
fore@@
Pro@@
kraj@@
jedno@@
small
zależ@@
dźwię@@
człowie@@
without
O
ton
pię@@
top
uj@@
dot@@
histor@@
grow@@
uważ@@
oj@@
potrzebu@@
dra@@
nigdy
zawsze
wają
cha@@
one@@
ór@@
hand
kul@@
sure
czasie
zat@@
create
szę
ważne
Amery@@
No
obec@@
inform@@
film
15
space
dwie
gg@@
clo@@
godz@@
ruch@@
ście@@
pó@@
probably
fre@@
ack
ąć
bez@@
"Po
tical
mother
prostu
podczas
aci@@
obie@@
tic
prowadz@@
jakie@@
interesting
pal@@
ew@@
zad@@
cały
rol@@
zł@@
cam@@
stu@@
trze@@
Je@@
lek@@
mili@@
New
set
nazy@@
kiego
dom
"Jest
naszych
znaj@@
umie@@
social
raz@@
"He
myself
każdy
days
quite
ask
eniem
poz@@
food
des@@
night
ające
wszech@@
Bu@@
niejsze
alny
podej@@
of@@
ces@@
samo
lubi@@
rzeć
Li@@
told
ome
pró@@
ess@@
fak@@
asked
pr@@
process
ocz@@
okre@@
young
ns
prowa@@
chod@@
ńst@@
wania
wspól@@
conne@@
tly
stic
len@@
mój
second
"Prze@@
archite@@
communi@@
ań
najbardziej
następ@@
ways
system@@
pierwszy
drug@@
pszcz@@
cul@@
12
mówi
nat@@
Earth
inspi@@
py@@
atur@@
zaczą@@
god@@
future
liz@@
ank
stawi@@
dni
beautiful
tal
jaki
kay
bym
ously
ots
rzu@@
tting
living
mniej
tyw@@
osób
aną
pol@@
rou@@
dzieje
bie
kobiety
„
cje
ban@@
progra@@
wi
val@@
przysz@@
hear
fol@@
ęt@@
lives
nasz@@
friends
nienia
emu
Al@@
chang@@
remember
though
hor@@
widać
months
dollars
son@@
let@@
parti@@
not@@
os
dziel@@
che@@
szą
sku@@
zaczy@@
number
ene@@
gdy@@
someone
gor@@
heard
happens
ship
gó@@
ogrom@@
liście
Indi@@
ster@@
doświadcz@@
dod@@
bio@@
ys
wspani@@
while
dis@@
Bi@@
dol@@
science
czyli
historii
miejsce
cjon@@
"Wi@@
alnie
mom@@
bl@@
nar@@
technologi@@
ju@@
prawdzi@@
minu@@
ned
ol
D
tyle
energii
over@@
play
głów@@
później
największ@@
Oto
moje
obraz@@
can@@
wygląd@@
mni@@
szk@@
łącz@@
łat@@
ads
bor@@
dane
stud@@
da@@
chcę
Oklaski
książ@@
ciu
zobaczyć
happen
She
społe@@
hy@@
nothing
środ@@
gry@@
robić
pozw@@
open
miał
ój
cial
łość
bees
wróci@@
niego
taki
act
pretty
sk
arty@@
oń@@
skich
half
okaz@@
both
face
ey@@
ep
prof@@
planet
ose
mind
dolarów
kra@@
contin@@
zni@@
kr@@
ponad
table
ada
often
"Za@@
"Tak
60
cess@@
jrz@@
trzy
słuch@@
kty@@
tar@@
osiąg@@
wzro@@
reason
seen
dent
kobie@@
elekt@@
ll@@
daw@@
and@@
dlatego
dział
pozy@@
oni
0-@@
wyj@@
sko
ise
ami@@
bad
najlep@@
narz@@
health
powst@@
build
community
skie
si
&#91;
wierz@@
wó@@
against
takich
wiem
business
ely
fl@@
chodzi@@
&#93;
girl
CA
11
cks
wasn
turn
stor@@
między
jąc
szych
"F@@
mogę
almost
rop@@
bior@@
potem
later
effe@@
końcu
rozumie@@
hu@@
kontro@@
pojawi@@
stos@@
ven@@
ur
dzieć
qui@@
guy
lata
ścia
popul@@
wał
culture
ined
aj
musimy
keep
zdro@@
śli@@
Po
dostęp@@
cap@@
flu@@
Why
bow@@
alnych
sions
zer@@
gru@@
miejsca
którego
potrze@@
moich
acyj@@
market
czyt@@
wspo@@
kim
oby@@
ład@@
USA
łoż@@
Lu@@
ąż@@
sa
whether
already
shed
ig@@
once
My
car
scienti@@
naukow@@
fic
wieku
wcześniej
fe
dalej
mul@@
"I@@
bud@@
hope
kil@@
up@@
makes
bly
dę
podstaw@@
hard
places
Inter@@
dlaczego
woman
kości
universe
skiego
Od@@
ędzie
sho@@
miej@@
mach@@
ure
pot@@
śmier@@
history
goes
0,000
cieka@@
kli@@
wsp@@
dge
często
desig@@
ałbym
ome@@
Europ@@
zobaczy@@
else
gets
przedstawi@@
high@@
dzień
Ni@@
su
ands
syn@@
stories
nę@@
różnych
przestrz@@
looked
olu@@
single
won@@
X@@
”
group
"What
opie@@
such
bring
lem
nauczy@@
ake
przeciw@@
robi
ity
cing
ady
kam@@
zam@@
order
wał@@
taken
łó@@
"Jak
ery@@
mot@@
sound
powodu
niki
recor@@
przer@@
jech@@
rozmawi@@
oil
ałe
ć@@
open@@
eng@@
ore
mó@@
stanowi@@
dzien@@
histori@@
polity@@
mus@@
pacj@@
rzecz
gląd@@
nad@@
wody
głę@@
ających
natural
amazing
"In@@
since
job
500
suc@@
appro@@
pli@@
entów
ór
tes
temat
wen@@
head
lić
billion
ghts
net
Se@@
Jed@@
ęż@@
bat@@
tygod@@
znaleźć
dan@@
ini@@
wykon@@
ilo@@
dzy
DNA
Z
high
nowe
dzenie
piece
rzeg@@
wamy
mysł@@
front
śre@@
ba@@
przest@@
plo@@
words
dą
czywiście
cess
"As
jakie
ata
społecz@@
hand@@
government
miałem
Ma@@
bliż@@
tery
miejsc@@
przej@@
czer@@
pytanie
wystar@@
wyso@@
wit@@
exactly
share
completely
simple
ok
kan@@
ler
lli@@
ft
show@@
ory@@
tom
some@@
Afry@@
six
kur@@
szybko
C
gal@@
budy@@
sli@@
clas@@
stop
study
zdjęcie
kwesti@@
moim
przekon@@
respon@@
ye@@
bers
owie
inside
indu@@
comple@@
Fran@@
80
prawda
learn
inten@@
pracę
dop@@
młod@@
lar
far
logy
mocy
HIV
dziś
pp@@
Jeśli
Ha@@
pier@@
must
stwa
części
szko@@
control
ching
moja
public
are@@
matter
father
child
wyż@@
phone
dów
port
zało@@
zamie@@
program
biera@@
ran
species
prawi@@
yed
ja@@
imagine
wę@@
house
raź@@
ground
mojego
życiu
yw@@
mogli
ols
sam
guys
smo@@
Africa
ah
Do
pen@@
answer
vely
saying
looks
hundre@@
strac@@
Go@@
physi@@
became
temper@@
cić
Ż@@
outside
owane
knew
liter@@
kiej
ining
obe@@
stało
cities
mojej
tek
basically
tk@@
ący
tom@@
kosz@@
kraju
zdrow@@
jedną
..."
ey
mieszk@@
dek
część
lini@@
zes@@
challen@@
noti@@
dź
ctor
0s
everybody
U.@@
int
tnie
America
stę@@
naszej
byłem
transpor@@
szyb@@
wych
Ri@@
Bra@@
flo@@
czegoś
Su@@
byśmy
standing
stworz@@
These
ował
oczywiście
state
ases
built
25
somebody
ucz@@
bru@@
Przy@@
kobiet
dać
view
libyśmy
absolu@@
możliwości
prowadzi@@
kop@@
sprzed@@
num@@
wro@@
iej
żad@@
świę@@
niezwyk@@
bran@@
Teraz
enti@@
Pe@@
"Co
"Nie@@
cou@@
"Because
disco@@
zaj@@
cze
biologi@@
wiz@@
vity
girls
ently
ideas
nością
chemi@@
wiadom@@
dire@@
worked
isn
ney
thi@@
instru@@
odu
hon@@
środowi@@
tran@@
mie
kto
noc@@
her@@
ace@@
learned
urb@@
deci@@
Me@@
"Th@@
ewolu@@
hours
móc
particular
woł@@
pozna@@
miesz@@
yba
decided
els
warto@@
black
happy
Nor@@
ste
miliar@@
fish
nika
Let
dza
yet
nature
health@@
bog@@
naszego
oti@@
news
ól@@
In
czek@@
vac@@
phi@@
secu@@
nami
vice
drze@@
studi@@
swo@@
był@@
będziemy
szed@@
deli@@
możliwe
hal@@
Sz@@
parents
edu@@
fam@@
wiecie
jąc@@
owaliśmy
kró@@
istnie@@
expla@@
śle@@
rzymy
cięż@@
"For
jednym
ędzi@@
taking
Con@@
kinds
sym@@
oce@@
hel@@
sieci
Ju@@
seem@@
acz@@
emoti@@
milionów
equ@@
offi@@
wygląda
ace
tot@@
neuron@@
nki
brz@@
surface
ages
dw@@
nasz
pół
zmienić
stworzyć
sm
ający
ow
szczy@@
ala
fli@@
Pod@@
York
zbyt
glob@@
lot@@
działem
widzimy
wszystkim
bot@@
entire
bri@@
szer@@
ologi@@
vo@@
under
próbu@@
wiemy
couldn
ber
demo@@
air
ron@@
twar@@
spor@@
mo
rus@@
miasta
całym
koch@@
myśli@@
ame
ctions
huge
tam@@
happening
true
plane@@
perspe@@
rzyć
American
company
dzisiaj
ming
oznacza
ile
model
hom@@
bac@@
olution
alone
known
ched
att@@
dzieci@@
ury
ster
ook
Dlaczego
regu@@
nę
ży
stęp@@
fas@@
ówi@@
nimi
Uni@@
G
znajom@@
projekt
large
religi@@
inny
czar@@
wią@@
resul@@
skim
reas@@
United
poten@@
każdym
powierzch@@
ders
wrong
ement
Oh
podobnie
miesięcy
komór@@
wiąz@@
Rob@@
pomiędzy
countries
En@@
P
poczu@@
Music
społeczeńst@@
byście
szuk@@
szym
telef@@
atic
zed
miała
zrozumie@@
świadom@@
śmy
bł@@
Ko@@
changed
inie
gło@@
powod@@
większość
ref@@
ering
żemy
zm@@
eko@@
samoch@@
belie@@
stą@@
Is@@
alaz@@
gospodar@@
tion@@
jaki@@
project
One
turns
shi@@
far@@
kich
śród
pozost@@
tou@@
pół@@
stance
tki
site
Yes
comfor@@
itself
fal@@
owi@@
danych
abi@@
ujesz
obje@@
urzą@@
morning
ading
Because
łości
dwóch
"Z
outh
nd
die
skoń@@
uch@@
meas@@
memor@@
tain@@
individu@@
within
wymag@@
stry
oh
ared
śmie@@
typ@@
lear@@
az
miast@@
fully
century
felt
e-@@
dise@@
out@@
redu@@
spotk@@
tat@@
punkt@@
nicy
T
sy
couple
przes@@
ash@@
oł@@
Muzyka
istot@@
ere
olved
łe@@
wzgl@@
możli@@
needed
cer
ature
Bar@@
Ten
widzi@@
zwyk@@
super@@
Jak@@
eyes
anie@@
nadzieję
others
naszym
dość
zysk@@
pierwsze
Par@@
friend
moc
technologii
ekon@@
global
size
)"
zwy@@
stytu@@
ier
onieważ
obsz@@
nienie
sobą
poł@@
zg@@
med
cir@@
war
test@@
coraz
wciąż
scre@@
199@@
lap@@
potrzeb@@
tial
stanawi@@
inclu@@
themselves
miles
szczepi@@
won
full
kować
heart
poin@@
tually
gatun@@
bed
swój
znajd@@
ris
innym
run
S.
movement
incre@@
różne
whatever
visi@@
pomysł
daje
jour@@
problems
X
seeing
top@@
hot@@
teach@@
r.
ić
cept
technolog@@
mechani@@
posed
Pot@@
ens
Lest@@
back@@
swoich
ational
wyob@@
tation
"My
komputer@@
sis
zawie@@
ama
kieru@@
przypadku
d-@@
along
ton@@
myśle@@
ech@@
ną@@
medy@@
swoją
alnej
prezent@@
wil@@
Pow@@
początku
chłop@@
consi@@
prawdo@@
impro@@
everyone
door
ściach
czej
radi@@
zrozumieć
oko@@
14
write
szczę@@
energi@@
until
given
thousands
squ@@
rozu@@
mieli
ately
blue
Here
spend
szyscy
av@@
clim@@
Au@@
właści@@
prawie
pomysł@@
computer
walk
regi@@
pment
przypo@@
trów
seri@@
myślę
otwar@@
abym
least
bin@@
Bo@@
sometimes
"Gdy
szu@@
our@@
gave
ren@@
alnego
moving
czasem
minutes
cat@@
takiego
video
shows
speci@@
wrac@@
dokon@@
defini@@
"Jest@@
ending
Q@@
racji
evi@@
spos@@
kl@@
Ken@@
"Myślę
świad@@
cation
alnym
skon@@
wym
acy
śli
pt
innego
ofi@@
asy
"Oto
depen@@
lated
zdjęcia
łam@@
jedna
bir@@
gn@@
turned
wri@@
green
exci@@
sposob@@
uses
latach
marke@@
tely
latego
farm@@
thers
obvi@@
stwo
brać
anego
imi@@
"Czy
every@@
koniec
zajm@@
czyn@@
trzym@@
komunik@@
spi@@
poprzez
mowy
eight
ople
"One
on-@@
movie
moder@@
ous@@
Af@@
acie@@
compe@@
bieg@@
posz@@
perfe@@
lekar@@
istnieje
jed@@
py
test
Jestem
gwi@@
sta
dzię@@
force
environment
sources
wind
fie@@
cles
needs
name
czenie
cus
ajcie
wyzw@@
uwagę
Joh@@
dowie@@
close
haps
krę@@
czki
cost
L
liwo@@
pped
difference
vision
basi@@
ption
Ti@@
Co@@
Ste@@
pul@@
research
ater
questions
wanie
"Pod@@
impac@@
quickly
ange
każ@@
app@@
perform@@
Yeah
ocean
Kore@@
neg@@
rather
czes@@
sił@@
warun@@
lok@@
proje@@
atyw@@
If
ples
solution
oną
Chi@@
chcemy
państ@@
word
deal
porząd@@
wnętrz@@
possi@@
finally
land@@
cting
terri@@
prez@@
behind
yourself
ger@@
hear@@
t-@@
agri@@
leave
created
rod@@
kilku
sku
yj@@
inę
sch@@
air@@
rok
Każ@@
zdję@@
zabi@@
ener@@
mist@@
robot@@
source
mak@@
efe@@
nosi
lim@@
ges
pain@@
ese
informacji
opu@@
decyz@@
każdego
strukt@@
violence
resz@@
terms
alth
towar@@
realized
decydow@@
team
allow@@
chce
met
language
national
kid
World
każę
All
dzo
ball
Gre@@
relation@@
States
eś
clu@@
centrum
wokół
dal@@
badania
during
chwil@@
miesi@@
patients
pun@@
ierwsz@@
jsz@@
utaj
tor
Może
interested
dziecko
expl@@
acj@@
engine@@
nowych
At@@
lots
adv@@
early
oto
głos@@
level
źród@@
twa
wouldn
rozwij@@
based
zbudow@@
całkowicie
moją
self-@@
Sy@@
Col@@
experim@@
thre@@
cient
wel@@
lej@@
Bri@@
dziec@@
zauwa@@
pon@@
llions
ujący
ctures
ciem
cu
czenia
pamięt@@
jednej
"CA
wybor@@
vered
lega
scale
przesz@@
procent
row
bę@@
emo@@
zapo@@
czaj@@
ropy
nic@@
apo@@
uli@@
fanta@@
obserw@@
China
choć
econom@@
ddle
szcze@@
week
musi
feeling
convers@@
jące
atmo@@
ax@@
gór@@
cut
Wh@@
robot
widzicie
opowie@@
ture
iego
szpi@@
owany
aking
dż@@
słu@@
cannot
acti@@
cine
pping
zupełnie
forward
lost
shor@@
eksp@@
bas@@
omyśl@@
klu@@
specj@@
poza
fini@@
stan
log@@
labor@@
realize
suk@@
rele@@
descri@@
stal@@
skrzy@@
Kon@@
common
mózgu
ludźmi
difficult
samym
powiad@@
sł
images
animals
wyjaś@@
nice
nadal
expe@@
epi@@
cro@@
ley
ujących
image
dzieli
kilome@@
krzy@@
opowiad@@
Musi@@
ond
jas@@
naro@@
łeś
właściwie
świe@@
powietrz@@
psycho@@
wsk@@
neuro@@
ships
oms
sitting
weeks
stworzy@@
wała
action
ogra@@
maty@@
tysięcy
iec
sin@@
prosi@@
anym
rzeń
neigh@@
color
zapew@@
wienie
situ@@
cell
usu@@
ludziom
iden@@
kiedyś
lie@@
"These
mną
usi@@
byli
ląd@@
takes
zamiast
wało
exper@@
Mam
90
Wszyst@@
spent
mart@@
instead
organi@@
fotogra@@
70
cop@@
dokładnie
przyjaci@@
tra
area
maszy@@
essen@@
potrafi@@
opportunity
muszę
fizy@@
mówią
ung
cont@@
najmniej
ph
rodziny
sle@@
fro@@
solar
porusz@@
bakter@@
"No
całe
demi@@
anti@@
przen@@
society
smi@@
ordin@@
jesteś
możliwo@@
mess@@
cem
dec@@
Można
bility
nowy
ograni@@
skład@@
swojej
szkoły
either
systems
kat@@
"Jed@@
znaczy
gaz@@
kcie
ods
chcie@@
patrz@@
gę
przeci@@
key
cle@@
korzyst@@
bod@@
fai@@
biznes@@
dence
ciała
możesz
"Na@@
zaję@@
funk@@
czymś
prin@@
Ziemi
atak@@
ekspery@@
began
grand@@
niem
aty
beginning
alter@@
dobr@@
brac@@
jednego
muszą
proces
żyw@@
powinniśmy
należ@@
orów
angaż@@
ening
cię
cogni@@
najważ@@
ars
Ty@@
!"
rodzaj
cent
każde@@
iness
Kiedy
mówić
óż
mózg
całą
simply
susta@@
Mars
sud@@
pur@@
ene
staw@@
wami
sl@@
chodzą
ats
white
cape
wła@@
tysi@@
wić
dziw@@
pomy@@
Chin@@
/
incredible
versity
pieni@@
pić
brought
behavi@@
"Lu@@
nuclear
cars
vol@@
kin@@
stać
ya
strony
ade
gas
exi@@
cei@@
osoby
ets
uczu@@
playing
pewien
Tak@@
podróż@@
krót@@
przykład@@
tys.
cl@@
pierw
death
km
ourselves
połącz@@
usły@@
owałem
owana
K
poziom@@
nię
figure
możecie
gone
przestęp@@
powerful
tedy
gu
obraz
alifor@@
aktyw@@
onego
Lon@@
lea@@
rest
strate@@
miejsc
taka
wydaje
szczegól@@
God
ried
sequ@@
cją
będę
cked
prawdę
pomocą
przyszłości
mem@@
present
miejscu
cially
longer
writing
media
rzeczywistości
education
kogoś
wonderful
jedno
box
ggest
mężczyzn
dziemy
photograph@@
entu@@
fundam@@
major
cza
anu
igh@@
mnóstwo
fy
structure
czeńst@@
third
roż@@
chwi@@
moti@@
year@@
klas@@
upo@@
miast
ences
spit@@
nocy
ator
powiedziała
cans
hol@@
ysty@@
opis@@
rozpo@@
issue
R
pokazać
mógł
AIDS
disp@@
Nigeri@@
requi@@
past
"Cho@@
pit@@
local
oz@@
cami
zwiększ@@
napis@@
począ@@
mem
Davi@@
wnątrz
clear
tab@@
zanim
dings
ple
rodzaju
born
provi@@
wido@@
extre@@
seven
speak
"Jednak
available
vie@@
enter
opar@@
dobre
twarz@@
chy
meth@@
tłuma@@
mov@@
poka@@
traf@@
18
audience
Są
boat
10@@
tworzyć
network
łu
electri@@
szego
inaczej
wai@@
aring
cli@@
fun
"Ż@@
disa@@
pamię@@
ieliśmy
hour
sounds
aro@@
largest
When
żeli
cells
jawi@@
pay
sytuacji
poważ@@
nag@@
"Od@@
speed
jakby
astęp@@
def@@
boo@@
aged
pry@@
Jor@@
vel
tań@@
sty
Hi@@
tymi
cien@@
amount
pac@@
rolnic@@
certain
będ@@
dance
przyjem@@
nikt
onie
mes
students
Is
rać
yz@@
vation
dzimy
puszcz@@
eśmy
sko@@
institu@@
przypad@@
rzeba
swoim
światło
wek
osen@@
cate
l-@@
onym
aspe@@
szczęśli@@
high-@@
economic
robią
alną
ines
zmiany
słowa
mer@@
szczęście
"Mamy
dd@@
pieniędzy
micro@@
Ta
ures
trafi@@
zwie@@
resi@@
jść
wraż@@
lie
wood
ską
Jo@@
cool
buil@@
nak
survi@@
16
gani@@
ądze
wszyst@@
whe@@
ring
net@@
bus@@
gni@@
maj@@
mężczyz@@
TE@@
esti@@
dziew@@
grou@@
ksz@@
comm@@
onów
kła@@
zał@@
V
Dzię@@
psy@@
ths
oś
plac@@
któr@@
gh
issu@@
tain
scho@@
ctu@@
dej@@
eraz
hop@@
róci@@
Zie@@
mode@@
amię@@
sel@@
wsze
dam@@
exam@@
–
uwa@@
dze
sto
Jest@@
"Wh@@
feel@@
xt
mark@@
żna
incredi@@
kład
ience
imag@@
zyka
stand
ath
compu@@
gran@@
ind
sing@@
sear@@
spon@@
rani@@
tury
Mu@@
ąg@@
ybe
Dz@@
self
lko
ready
arów
trz@@
aughter
beau@@
mężczy@@
tod@@
rząd@@
rzyst@@
stitu@@
SA
oba@@
patien@@
kuję
contro@@
dź@@
świ@@
ward
realiz@@
chł@@
kiedy@@
inste@@
econ@@
thous@@
ź
very@@
ably
wój
szyst@@
happ@@
lor
czł@@
figu@@
sytu@@
ould
obser@@
hun@@
indi@@
gat@@
Ł@@
verse
czywi@@
goś
fore
kompu@@
cture
Ne@@
"Be@@
differ@@
lity
miech
beg@@
vers@@
sity
neu@@
Am@@
unik@@
gy
ężczy@@
import@@
environ@@
ell
wł@@
mawi@@
pozi@@
dokład@@
J
photogra@@
cies
power@@
quot@@
din@@
ób
port@@
resear@@
ksi@@
nadzie@@
solu@@
cause
$
fami@@
sob@@
fan@@
yśl@@
cemy
oznacz@@
H
lob@@
Ameri@@
augh@@
archi@@
osi@@
cej
secon@@
znaleź@@
wonder@@
sn
opportuni@@
rzeczywi@@
jeste@@
som@@
rusz@@
ough
govern@@
źniej
rzeczywisto@@
naw@@
lab@@
amiast
ross
reali@@
sul@@
fel@@
nó@@
viol@@
aleź@@
round
ysi@@
ird
cią@@
á@@
wer
throu@@
Afri@@
relati@@
wiad@@
yślę
ours
ply
fron@@
ouldn
Y
począt@@
doświad@@
syst@@
ogro@@
mózg@@
&apos;@@
begin@@
E
thin@@
avi@@
Eu@@
siaj
F
cour@@
skie@@
chil@@
pret@@
tał@@
rum
akter@@
szcze
ludzi@@
s.
♫@@
ei@@
decy@@
gól@@
0
deo
tłu@@
zoba@@
N
ws
mł@@
soun@@
hou@@
member
loo@@
gest
stem
dn
jem@@
:@@
ound
mall
rawa
eds
them@@
U
llion
ff
stwo@@
które@@
Wor@@
sim@@
youn@@
laczego
wcześ@@
wiek
socie@@
dowi@@
f-@@
dziej
♪@@
rodzaj@@
całkowi@@
scy
wee@@
v
muni@@
ork
wij@@
thou@@
frien@@
źró@@
aud@@
whi@@
blu@@
anim
lly
ęp@@
śro@@
dwó@@
moż@@
wom@@
zupeł@@
amaz@@
ID@@
bet@@
cular
tech@@
onie@@
q@@
prob@@
interest@@
natu@@
q
need@@
fr@@
wcze@@
Ap@@
pomoc@@
niśmy
nież
anim@@
”@@
zby@@
=
bizn@@
ależ@@
kwe@@
ród
móz@@
ou
é
kowi@@
@
robo@@
gir@@
ole
tries
with@@
dren
amoun@@
samowi@@
reli@@
lars
wok@@
dif@@
chę
taj
Ear@@
scien@@
selves
see@@
atever
questi@@
wien
&a@@
+
ponie@@
heal@@
quick@@
ciąż
dym
gover@@
your@@
beauti@@
Q
difficul@@
piej
Nig@@
beha@@
mnó@@
aczej
é@@
ñ@@
IV
chal@@
langu@@
velo@@
lang@@
portuni@@
til
otogra@@
wnęt@@
sour@@
…
aś@@
viron@@
&@@
czym@@
nątrz
ail@@
rought
AID@@
rzch@@
NA
miejs@@
á
hind
ctri@@
techno@@
spodar@@
—@@
gine@@
Ó@@
actly
plause
trz
aga@@
Ye@@
któ@@
rong
;"
^
“
ild
gł
#
Ź@@
waż
esn
inst
avail@@
²
Ć@@
mech@@
nęt@@
portu@@
ö@@
ô@@
wszy@@
…@@
&#93@@
happen@@
toge@@
É@@
vidu@@
ŧ@@
č@@
š@@
ludź@@
–@@
..@@
£
ï@@
‘
°
%@@
α@@
ędzy
ã@@
®
iend
