,
.
."
to
the
na
a
of
kai
and
&quot;
i
that
is
in
einai
I
poy
o
me
it
ta
tis
you
&apos;s
we
gia
tin
ton
apo
se
toy
on
ti
an
this
es
as
mia
ena
—
oi
tha
auto
oti
o@@
i@@
s@@
den
toys
was
are
sto
os
k@@
e@@
for
en@@
moy
u@@
re@@
in@@
ei
)
have
a@@
f@@
as@@
:
ia
b@@
an@@
they
oyn
s
y@@
S@@
with
can
n@@
mas
at
g@@
oyme
pro@@
"And
e
ti@@
is@@
stin
what
di@@
y
ro@@
(
c@@
be
&apos;t
to@@
p@@
about
-@@
And
d@@
ing
all
ch@@
;
v@@
ar@@
eis
li@@
t
so
th@@
do
ex@@
not
itan
m@@
ed
one
&apos;
M@@
pos
me@@
A@@
ma@@
or
my
le@@
de@@
on@@
there
ma
Kai
&apos;re
poly
P@@
al@@
la@@
people
ri@@
?
ap@@
T@@
or@@
like
from
pa@@
oy
l@@
sas
er@@
our
h@@
t@@
alla
ts
oy@@
ei@@
oys
mo@@
si@@
po@@
ta@@
z@@
ep@@
apo@@
iki
r@@
"Kai
no@@
w@@
but
ra@@
ag@@
es@@
E@@
te@@
just
"@@
B@@
very
al
for@@
eia
pe@@
te
out
these
"So
tes
otan
D@@
tion
us
auti
lo@@
by
sti
x@@
par@@
n
d
if
ika
ka@@
pi@@
con@@
them
un@@
it@@
up
ly
ne@@
more
os@@
m
k
ad@@
going
G@@
mi@@
when
It
K@@
iko
had
el@@
ak@@
know
C@@
the@@
were
ted
So
ek@@
tu@@
because
he
ai@@
echei
see
their
how
tika
think
ting
get
ter@@
vi@@
dia@@
er
who
auta
ston
which
pio
ik@@
would
ac@@
your
se@@
do@@
go
si
really
mata
tro@@
tiki
time
here
isi
l
per@@
eu@@
&apos;ve
sun@@
don
sta
tra@@
N@@
us@@
way
il@@
«
&apos;m
We
op@@
F@@
no
where
kati
world
R@@
mo
sta@@
has
then
ki
ies
st@@
arch@@
actually
I@@
tiko
ete
mon@@
»
peri@@
ter
gi@@
some
?"
opos
so@@
O@@
into
V@@
"I
tos
su@@
san
dis@@
fi@@
ame
1@@
The
echoyn
tr@@
years
will
now
ontai
anti@@
edo
epi@@
au@@
ris@@
ontas
chronia
L@@
things
fu@@
fe@@
other
mono
prepei
ate
io
be@@
am@@
ers
ol@@
Laughter
en
echoyme
ds
"E@@
enas
want
borei
could
co@@
H@@
th
ni@@
ent
To
been
same
upo@@
"But
gen@@
than
make
tri@@
Einai
;"
af@@
Den
"(
Auto
♫
ge
tre@@
ikes
isoyme
ig@@
ola
r
ise
ation
mesa
But
thei
de
etai
ce
om@@
"S@@
p
kosmo
mena
right
ver@@
sa@@
po
something
graf@@
stis
Gelia
idea
fer@@
ge@@
said
h
"P@@
thing
meta@@
meno
ve
first
much
sh@@
pragmata
log@@
loipon
pre@@
sa
etsi
ally
anthropoi
tions
enan
"It
able
those
ot@@
work
fo@@
two
ty@@
"A@@
cho@@
toso
ous
isei
also
kin@@
im@@
pros@@
com@@
ct
da@@
ith@@
This
ko@@
le
min@@
"Now
kathe
re
.@@
little
look
men@@
ble
"The
sk@@
uparchei
man@@
kanei
back
2@@
dyo
ev@@
mer@@
got
mis@@
mil@@
autes
giati
g
tora
la
na@@
only
over
les
W@@
mos
"We
ci@@
kanoyme
life
most
az@@
need
day
You
say
ck
gi
its
ch
many
take
boroyme
ir@@
Alla
soy
ur@@
pol@@
his
cu@@
ity
even
mi
pan@@
kath@@
toy@@
she
epeidi
ochi
opoi@@
lis@@
ias
id@@
-
at@@
tis@@
"M@@
ties
poi@@
They
pragmatika
Applause
ey@@
ef@@
did
tai
tive
ar
pl@@
lot
dimioyrg@@
Ch@@
ra
li
ikis
eio
new
"Έtsi
"To
ser@@
gu@@
ke@@
ekei
O
roy@@
meta
tikes
kind
ul@@
ph@@
come
ding
eid@@
opoy
ab@@
gon@@
around
tropo
anthropoys
meni
j@@
opoio
em@@
go@@
dia
koy@@
different
"In
ton@@
ant
tei
ment
ou@@
her
Cheirokrotima
da
vas@@
kan@@
good
math@@
mor@@
"Alla
gk@@
des
ty
ion
qu@@
tin@@
through
bo@@
dro@@
kal@@
lin@@
use
sc@@
ic@@
lo
every
eiche
pano
eite
"T@@
iz@@
ele@@
zoi
sti@@
isa
chrisimopoi@@
ap
ima@@
3@@
w
gin@@
J@@
down
ro
A
ite
tic
being
&apos;ll
kanoyn
sto@@
prin
av@@
That
pla@@
opoia
19@@
"i
tar@@
fora
seis
et
Tha
tas@@
ved
tan@@
ru@@
bi@@
ine
por@@
What
inter@@
ms
rin@@
10
chi@@
put
maste
organ@@
sig@@
dik@@
Έ@@
ha@@
ros
pis@@
idi@@
ten@@
kata
omos
doing
led
sion
any
matos
akoma
ug@@
ded
stoys
val@@
gs
called
pragmatikotita
char@@
paidia
poli@@
xi
du@@
osi
mar@@
own
chrono
syn@@
est
ana@@
pu@@
dias@@
uparchoyn
"O@@
percent
ax@@
age
chro@@
pote
oloi
wor@@
iso
up@@
gra@@
ean
episis
tal@@
chi
toyn
eies
c
ves
chor@@
"Auto
oste
iseis
ran@@
fin@@
sen@@
kra@@
kaneis
ges
tote
prospath@@
tel@@
mazi
gh@@
sub@@
ary
ri
"K@@
tia
tita
der
&apos;d
ters
xekin@@
let
4@@
st
enos
ever
simera
idia
5
ence
three
ob@@
sis
kar@@
mas@@
sy@@
ss@@
we@@
erg@@
"You
pas@@
moys
today
year
made
50
ath@@
apla
ls
human
!
allo
sur@@
"This
pli@@
ver
b
ich@@
red
ites
oso
wh@@
ina
tell
mera
Oi
meros
ses
yp@@
find
ws
boroyn
lik@@
well
ks
why
eias
als
eb@@
zei
ain@@
polla
Th@@
istoria
pros
and@@
uper@@
ioy
eimaste
5@@
auton
peripoy
try
change
x
man
skef@@
chan@@
body
eimai
fact
fon@@
ai
low
plan@@
eg@@
lan@@
ments
der@@
Thank
olo
"If
ikon
isis
od@@
didn
megal@@
mu@@
spe@@
perissotero
ech@@
autoys
thesi
great
old
ly@@
fores
eipe
para@@
talk
eitai
sho@@
ron@@
voith@@
ky@@
started
cor@@
oris@@
ase
ning
ste@@
ron
after
ali@@
idio
thu@@
michan@@
din@@
boreite
less
anag@@
of@@
Έtsi
ili@@
"Th@@
aki
U@@
paradeigma
ago
va@@
20
went
ther@@
story
There
should
ego
"An
piso
echo
"
kano
koinon@@
den@@
ad
sch@@
4
isoyn
mias
tax@@
course
ces
oth@@
before
ima
last
ones
nor@@
"Einai
used
ligo
ach@@
car@@
ka
il
tiz@@
isto@@
together
"They
res
che@@
bit
important
ying
Ti
toyme
might
better
2
give
katas@@
tra
provlima
auto@@
ling
fan@@
big
end
isos
alla@@
oli
id
Pro@@
panta
never
cy
bu@@
dos@@
ike
tor
ction
part
zo@@
vol@@
ss
7@@
leg@@
place
still
gre@@
ice
fil@@
system
od
thought
tly
stra@@
chei@@
does
vath@@
Ά@@
stigmi
brain
ang@@
las@@
son
deite
&quot;"
rec@@
few
kata@@
mag@@
came
problem
grap@@
sche@@
all@@
ini
off
ture
king
maz@@
mechri
ps
doyleia
ans
mak@@
him
trans@@
another
tuch@@
ras@@
lep@@
ry
sumvainei
ve@@
menos
am
"N@@
kos@@
epit@@
"O
uch@@
dy@@
"Well
3
dec@@
ght
6@@
eichan
each
ora
tional
ca@@
found
fantas@@
los
tan
"Tora
S
otita
"F@@
ons
kala
ance
cted
theor@@
isame
oles
next
again
akomi
pos@@
In@@
usi
sia
Ό@@
Po@@
start
tasi
show
He
thike
30
Now
sunech@@
gram@@
...
kol@@
choris
riz@@
isch@@
An@@
fos
crea@@
u
"Den
ful
ano@@
20@@
tely
between
eucharisto
lu@@
loi
example
kapoia
arketa
ano
oter@@
6
akrivos
systima
uc@@
agor@@
stu@@
sei
cho
el
epo@@
question
water
eprepe
fac@@
lon@@
sp@@
cal
oyr@@
"Όtan
pithan@@
ple@@
ide@@
kato
gno@@
ku@@
mikro@@
Tz@@
nea
ness
"Έ@@
teu@@
rag@@
akoy@@
9
min
pon@@
autos
children
eicha
proti
comes
200@@
technology
dom@@
mean
ps@@
schedias@@
data
point
fas@@
ay@@
sim@@
apofas@@
autoy
tikis
too
Auti
poy@@
omen@@
fus@@
women
Di@@
oun@@
looking
menes
ast
cap@@
ho@@
odig@@
col@@
isan
pragma
fy@@
moi@@
imoyn
tors
long
techn@@
xer@@
menoi
any@@
soyme
tike
plo@@
cur@@
kathos
gener@@
ko
Sas
mik@@
ated
understand
fun@@
sum@@
idi
Ta
echete
7
wanted
simainei
doesn
anal@@
oikonom@@
tion@@
0@@
med
produc@@
katalav@@
done
zois
wing
alli@@
str@@
asthen@@
metaxy
ok@@
ic
anis@@
information
ese
path@@
ergas@@
tikon
gnoriz@@
times
fai@@
live
lei@@
vr@@
ikan@@
epis@@
%
doyme
megali
lar
mes
ose
pe
may
ga@@
alli
How
omai
ical
using
meso
um@@
spi@@
"D@@
cen@@
&#91;
ginei
tor@@
vis@@
roys
away
light
real
"B@@
&#93;
pig@@
polles
anap@@
olokli@@
person
ll
line
iti
tirio
leei
ven@@
dio
ries
pri@@
ix@@
oti@@
ainoyn
ithela
ber@@
call
teite
boreis
rio
"Gia
asfal@@
parag@@
love
spiti
school
zoyn
ten
thelo
sort
para
Giati
era
ome@@
,"
allo@@
always
ther
katal@@
logis@@
ach
ziti@@
ino
believe
power
nomizo
vlepete
yn@@
pragma@@
sugk@@
gor@@
8
boroyse
tain@@
million
ping
ys
diak@@
"L@@
pair@@
thro@@
"When
ize
arith@@
simantiko
tic@@
azei
1
form
z
eidi
tik@@
,000
oma@@
di
8@@
izei
eidos
pal@@
means
oc@@
tria
prote@@
plas@@
poso
per
ekatommyria
ines
country
"Oi
ger
royn
oysa
das@@
tera
enti@@
ating
kom@@
face
ana
sko@@
sol@@
took
working
vle@@
ekane
eon
coming
Wh@@
ote
lig@@
kapo@@
ginetai
eisai
ging
proso@@
book
pin@@
boro
noyn
ations
gunaikes
city
whole
four
olog@@
tures
technologia
og@@
oyntai
autin
trying
telei@@
omeno
ikoys
thoyn
India
feel
vg@@
alis@@
colle@@
gyro
ikos
prokeitai
dri@@
ikoy
schetika
men
tey@@
eis@@
allax@@
vo@@
psi
create
exo
ess
thinking
toi
yei
kosmos
posi@@
ked
otites
kalo
help
everything
apos@@
ela@@
risi
set
test
conne@@
100
experi@@
sup@@
lamvan@@
ear@@
ard
00
koin@@
chreiazetai
money
stre@@
deix@@
land
chora
sete
star@@
ato@@
suberi@@
ekato
Z@@
home
res@@
TED
asi
epistimon@@
"V@@
become
xerete
proto
mele@@
cha@@
exis@@
io@@
Euro@@
ria
maybe
Mar@@
"Tha
zoyme
kapoio
sunde@@
play
eng@@
moi
Pos
ikoi
9@@
develo@@
apok@@
social
megalo
kids
making
fi
number
tro
aer@@
ing@@
ins
future
vra@@
rap@@
dedomena
best
room
ents
Par@@
sul@@
kapoios
second
logo
"There
fic@@
bor@@
oyse
tropos
anthropon
maton
ane
15
cra@@
dra@@
koitax@@
bra@@
ere
sense
fe
ome
sugkekri@@
small
ving
nos
possible
sure
pisteyo
kli@@
Ne@@
uni@@
happened
fainetai
eikona
mus@@
quite
As
my@@
Ka@@
bro@@
oloys
anthropin@@
paro@@
thema
nero
side
schedon
wed
pra@@
getting
oma
ry@@
pen@@
lives
tikos
ari
ol
upologis@@
oyn@@
lex@@
"That
mato@@
food
ainei
cli@@
fusika
sug@@
eno
ker@@
enough
Y@@
ways
Well
imer@@
echeis
lar@@
azoyn
ide
epik@@
psi@@
cts
talking
he@@
tur@@
f
hi@@
pei
space
Me@@
♪
five
sor@@
care
dipote
um
X@@
pistey@@
sumv@@
left
high@@
vlepoyme
perissotera
pur@@
mati@@
ital
Here
sune@@
mer
Ήtan
"As
omada
upi@@
merikes
autoi
ati
etair@@
mikro
ask
emas
cells
countries
telos
pa
sive
design
ctive
medi@@
win@@
onta
"Ό@@
roi
pia
merika
coun@@
Au@@
told
ship
endiafer@@
zi@@
ako
aio
pleon
chreiaz@@
ler
war@@
omaste
har@@
asei
proto@@
"He
tas
ereun@@
ios
cul@@
ill
without
Is@@
therap@@
eauto
pole@@
mon
energy
otitas
pi
omor@@
tw@@
ently
fa@@
tuo
dimosi@@
equ@@
tes@@
cer@@
e-@@
clo@@
oik@@
pati@@
duna@@
interesting
psei
Uparchoyn
makes
gias
osa
saw
skep@@
chores
chris@@
van@@
"Loipon
across
nei
mei@@
dus@@
ner
ned
effe@@
iti@@
eiste
science
wat@@
struc@@
bac@@
kommati
pic@@
imo@@
gal@@
Uparchei
eichame
cri@@
esti@@
pretty
experience
tom@@
flo@@
aris@@
such
case
bas@@
Tora
tz@@
ftiax@@
ox@@
roy
living
family
sos@@
diafore@@
eleg@@
M
ously
"Opote
chron@@
speci@@
aia
simeio
noy
eli@@
morf@@
probably
teleutaia
though
name
antis@@
wa@@
loy@@
tois
ced
kefal@@
tiri@@
organis@@
dollars
prok@@
kate@@
late
och@@
anything
lene
diadik@@
"Au@@
building
treis
aplos
sed
tipota
thei@@
mellon
mio
siman@@
anti
moment
stuff
xana
suc@@
molis
ner@@
ns
build
happen
fic
half
art
.000
cre@@
billion
else
akoloyth@@
hand
sunith@@
simple
antikei@@
vel@@
teach@@
tru@@
peira@@
hel@@
hard
imera
katano@@
kapoion
,@@
top
40
episti@@
inv@@
soma
young
far@@
happens
evol@@
mv@@
mind
days
works
bri@@
dial@@
lies
move
asked
pame
program@@
izoyn
turn
olo@@
aisth@@
dies
tikoi
paidi
enno@@
ality
picture
arti@@
"G@@
hed
health
diafora
provlimata
"Pro@@
fras@@
oyte
meri
Let
Africa
tach@@
wn
having
read
Why
taseis
respon@@
anthro@@
aiti@@
dikai@@
dyskolo
eto@@
deixo
tics
over@@
poyn
car
says
ento@@
schesi
single
mental
plirofor@@
roti@@
diki
isete
learn
rela@@
process
Έch@@
ez@@
dimioyr@@
chim@@
air@@
logos
xis
Ar@@
kyttara
ger@@
dynami
fra@@
almost
dent
Ko@@
under@@
nia
V
upsi@@
energeia
esas
gro@@
seen
var@@
kef@@
far
tech@@
gir@@
DNA
kanete
Kan@@
vre@@
reason
"What
emeis
10@@
matia
clas@@
egine
The@@
tem@@
"Stin
later
Prepei
emfan@@
kosmoy
New
inside
ki@@
ethn@@
kalytera
60
ilia
eidoys
ideas
while
choro
des@@
bot@@
mel@@
ghts
endiaferon
fre@@
prosop@@
alitheia
tikoys
P
ences
gan@@
tical
ven
high
paei
’
Earth
than@@
Bor@@
exig@@
soyn
matter
egkefal@@
ot
sing
erotisi
words
efarmo@@
emv@@
exeli@@
tation
sis@@
leitoyrg@@
gri@@
oper@@
mach@@
disco@@
eseis
ce@@
alloys
child
goes
Opote
noyme
parati@@
ara
head
duc@@
night
fain@@
riv@@
fal@@
pap@@
eipa
oysia
ny@@
order
tikoy
real@@
bly
bad
ue
are@@
ari@@
t-@@
pente
atoma
computer
wrong
katafer@@
ability
"Auti
ck@@
remember
oysan
ren@@
mate
koit@@
exaire@@
wi@@
saying
lak@@
looked
Ki
xe@@
vaz@@
boroysame
apisteu@@
run@@
ft
poli
cal@@
government
port
doyle@@
yet
gio
ake
nothing
myself
answer
katastasi
United
dun@@
both
diaforetika
cks
pali
"I@@
elpi@@
planet
logy
desig@@
fia
kali
tele@@
suchna
problems
polloi
kl@@
isi@@
often
ekana
ban@@
pres@@
grigora
gest
kapos
prokal@@
ken@@
public
schol@@
aka
deich@@
D
global
"C@@
within
elegch@@
allagi
dre@@
apotel@@
poyme
whether
dei
ere@@
pr@@
ts@@
planiti
ergo
"Έch@@
Eucharisto
ming
project
history
upirche
Su@@
paroysi@@
ekeini
aria
Af@@
alles
see@@
voy@@
lika
Gi
80
dok@@
imi
xe
reas@@
lepta
fo
shi@@
ftas@@
bab@@
kno@@
akriv@@
oo@@
Al@@
dras@@
eikon@@
open
ane@@
gunaika
anakal@@
ings
xech@@
inc@@
anamesa
odo
tisei
int
iss@@
rit@@
osis
neu@@
eight
thikan
ale
egk@@
ergaz@@
imata
technologies
periptosi
zo
vasi
xero
lead@@
mother
oyra
omenes
ber
tle
apokal@@
spoy@@
dig@@
osei
already
"Ta
heard
korit@@
ergal@@
klo@@
dech@@
plirofories
diadikasia
telika
group
kil@@
doy@@
rch@@
ep
table
lav@@
fes@@
thun@@
ple
ne
ontan
education
Ή@@
aw@@
T
"For
minu@@
contin@@
kini@@
0s
hope
perivallon
basically
mit@@
ona
tap@@
mines
ell
incredi@@
thana@@
oysi@@
true
friends
"Ki
amazing
Edo
lap@@
ors
entro@@
matis@@
vio@@
ema@@
imagine
"Because
sunaisth@@
tei@@
ekpaide@@
yter@@
keep
resul@@
Afriki
materi@@
vin@@
om
meres
tisoyme
top@@
olon
robot
erchetai
fotografia
An
video
tilefon@@
gene@@
ono
her@@
pigain@@
perissoter@@
eri@@
business
boroysa
dy
once
vice
archite@@
tice
ed@@
duo
matiki
ut
ates
guy
dru@@
someone
esai
anak@@
ores
chiliades
tak@@
species
imo
ely
ran
dimo@@
apantisi
epipedo
ke
piece
ata
ftiach@@
"Se
tikan
stan
gets
epichei@@
individu@@
view
kalyter@@
exi
"Me
bility
chrimata
States
months
Ma@@
music
suneiditopoi@@
apotelesma
mai
looks
cle
word
teleuta@@
ces@@
vrisketai
ain
issu@@
arke@@
dex@@
some@@
bring
ution
logia
otes
community
usis
wasn
Chris@@
royme
autis
oni
kapoies
inei
tron@@
izetai
mn@@
learned
bal@@
six
fron@@
scholeio
suno@@
repei
ized
doyley@@
nature
happening
fis@@
Because
archi
duce
nt
ore
hy@@
brosta
ori@@
society
fer
axi@@
tho
control
topoi@@
rias
gei@@
rea@@
inst@@
wit@@
tivity
allon
karkin@@
evdoma@@
bat@@
12
job
xei
mikri
beautiful
otera
eion
culture
megalyter@@
students
vrisk@@
cess@@
jects
"Bor@@
matika
tisi
isn
She
psoyme
eas@@
cheiro@@
dom
person@@
stories
leo
dolaria
cro@@
places
pseis
cs
No
fully
sym@@
vris@@
autokini@@
tal
peras@@
became
universe
vinteo
akti@@
eta@@
until
je@@
sima@@
research
lathos
menoy
taking
exactly
"&quot;
ens
theloyme
must
idees
ikame
aresei
skop@@
Ap@@
parakoloyth@@
stop
anafer@@
miliso
gegonos
liko
tting
big@@
ual
ish
ject
nas
decided
vev@@
study
couple
megalyteri
fici@@
megalytero
diarkeia
direc@@
These
lon
dor@@
monad@@
dromo
toich@@
eras@@
wal@@
created
level
kop@@
genn@@
ligotero
diko
sosta
psifi@@
thre@@
foiti@@
completely
ourselves
grafi@@
cas@@
periochi
ark@@
ontos
Nai
E
tual
lipsi
uposti@@
tment
o-@@
Άn@@
politis@@
mualo
cancer
sli@@
thel@@
trof@@
oseis
under
cheri
faneia
fov@@
woman
wer
kuri@@
rg@@
ba@@
built
house
kaname
raz@@
epochi
net@@
ebeiria
My
anapty@@
appe@@
appro@@
depen@@
Re@@
kor@@
state
ization
blo@@
since
sions
Me
huge
das
against
cial
fol@@
dei@@
ithei
cos@@
exe@@
share
omeni
itself
neo
istories
perissoteroi
news
lions
ust
lek@@
ereuna
kairo
br@@
run
takes
language
"Ean
konta
tile@@
spo@@
ders
vivlio
C
sion@@
kinds
stoicheia
Ίsos
Internet
ster@@
este
knew
expe@@
ras
cau@@
defin@@
meth@@
nomiz@@
anaptu@@
efi@@
kalytero
stoch@@
tio
Li@@
susta@@
qui@@
questions
themselves
ides
rate
air
cing
century
akoys@@
titas
Mo@@
taxei
ulti@@
large
ape
90
turns
chri@@
heart
hear
Έna
enth@@
topothe@@
ame@@
agap@@
vered
suskeu@@
cept
ikan
orth@@
ekanan
rather
Autos
cy@@
reli@@
onei
ir
hours
"H@@
neuron@@
game
everybody
kathe@@
pei@@
worked
eth@@
miz@@
tropoys
outh
phone
kataskeu@@
egkefalo
everyone
epikoinon@@
photo@@
epicheiri@@
plithus@@
rus@@
katap@@
dge
aiona
koino
action
Oy@@
gion
tetoio
vari@@
tory
trep@@
anta@@
via
ples
out@@
One
sometimes
boroysan
model
oikogeneia
onomazetai
Έchoyme
sumvei
arly
ched
viol@@
argotera
cell
misi
Na
chtu@@
strati@@
God
learning
tent
moys@@
Ger@@
Amerikan@@
alia
risis
Fran@@
hu@@
galax@@
lis
ics
mic
lia
inno@@
epitre@@
eleuther@@
ploy@@
mitera
ches
25
seira
Eimai
loy
ist
simasia
En@@
vasika
xeroyme
va
Ei@@
cir@@
Na@@
iatr@@
oikogen@@
ergasia
sunecheia
fli@@
may@@
others
kon@@
front
environment
perissoteres
ftoch@@
kes
dunam@@
stro@@
tiria
thousands
chr@@
liter@@
glo@@
national
changed
exci@@
No@@
ared
ze
0,000
atomo
resi@@
kamia
tial
act
past
bre@@
ruth@@
armo@@
anaptuxi
afi@@
ekplik@@
ey
bar@@
particular
entelos
"A
emo@@
ektos
Pe@@
ur
Άra
ames
farmak@@
apar@@
such@@
thoyme
sex@@
trofi
Gi@@
opote
ues
conver@@
disease
gave
teras@@
tiv@@
tero
perimen@@
key
machine
intel@@
kai@@
ped
graph@@
micro@@
lexi
foc@@
osoyme
skin@@
prin@@
along
dly
koinonia
prosthe@@
sound
don@@
anev@@
70
comm@@
akes
kay
prose@@
Nor@@
known
ota
Xer@@
lots
self
ferei
R
America
sunevi
cting
ouldn
onomaz@@
disekatommyria
outside
self-@@
tually
least
ekein@@
tribu@@
dol@@
pagkosmi@@
bed
ono@@
morfi
fl@@
kan
pse@@
G
company
bur@@
thor@@
expla@@
was@@
ground
exup@@
viomichan@@
wards
instead
chili@@
)"
eta
glossa
opoies
leu@@
11
ordin@@
diathe@@
mathima@@
spa@@
prota
Le@@
shor@@
turned
beli@@
oys@@
communic@@
father
Gia
trea@@
American
won
dence
tikotita
happy
gnorizoyme
ching
polloys
mal@@
difference
acc@@
prosta@@
epen@@
vation
omenon
ant@@
d-@@
kap@@
indus@@
hor@@
pto@@
tontas
ined
thyn@@
Google
moysiki
bio@@
ney@@
metr@@
eikones
riseis
poin@@
Moys@@
Mia
ias@@
sos
epei@@
pleura
agno@@
pes
fysi
daskal@@
susti@@
ades
taken
entire
leitoyrgei
asch@@
chrisi
allaxei
relation@@
presen@@
paichnidi
diap@@
dioti
poleis
deichnei
engine@@
bores@@
cities
ets
diaforetikes
ismo
zontan@@
moiazei
ogi
epan@@
needed
tites
provi@@
iPA
aro@@
animals
doc@@
tiseis
Ken@@
apoteles@@
thelete
parents
Entaxei
"W@@
eigh@@
bir@@
jour@@
wan@@
Όchi
compu@@
early
taxi
somebody
esi
igi@@
natural
aei
wil@@
democra@@
thika
18@@
figure
opoios
couldn
omena
hing
dar@@
K
cus@@
pped
poios
war
eukairia
cou@@
ctions
pethan@@
noriz@@
mos@@
patter@@
eutuch@@
ero
posed
epistimi
makria
Sta@@
Xerete
peis
dox@@
theloyn
ekpaideusi
oke@@
aisthisi
Loipon
maj@@
easy
diad@@
ots
reality
charis@@
dimokra@@
based
lame
anta
paid@@
pain@@
systems
ilik@@
surpris@@
grea@@
moni
during
neuro@@
onoma
play@@
black
atten@@
lau@@
arro@@
market
nioth@@
ekti@@
seeing
mis
"One
minutes
inclu@@
terms
hos@@
scienti@@
lit@@
"An@@
China
kep@@
economic
diavas@@
Eich@@
ioys
kathar@@
otero
gis
given
scale
ker
physi@@
gies
friend
born
epid@@
ris
finally
upologisti
kalyteri
expl@@
cep@@
vriskontai
anthropos
schedio
Goy@@
needs
ate@@
dika
stig@@
iste
vision
thermo@@
ben@@
difficult
vir@@
gk
brea@@
ida
tici@@
size
sel@@
tradi@@
"Wh@@
kato@@
plica@@
radi@@
kuvernisi
200
thin@@
either
Lon@@
tally
anad@@
poia
image
certain
York
Con@@
summe@@
risk@@
close
anaz@@
guys
third
In
tref@@
then@@
mat@@
psy@@
doso
free
cheria
scho@@
ow@@
kallitechn@@
tically
fami@@
If
aisthan@@
fish
ester@@
foto@@
deli@@
dience
stoich@@
drasi
sha@@
vie@@
"Όmos
All
"U@@
lue
gar@@
political
bs
died
yg@@
tainia
fle@@
measu@@
memor@@
felt
sequ@@
sex
seon
beginning
non@@
anakalup@@
antr@@
anaroti@@
eyes
pisis
Bo@@
zoa
ais@@
Auta
perhaps
partic@@
erchontai
menoys
ju@@
pera
nai
logiki
kei@@
vement
La@@
mal
deik@@
population
prac@@
klimak@@
"Di@@
Gre@@
longer
behind
sate
emena
toma
consci@@
ek
Kor@@
moving
mess@@
alithin@@
lio
"En@@
leave
Per@@
recor@@
rup@@
began
wel@@
lisi
epanas@@
extre@@
kalo@@
electri@@
ining
visi@@
adel@@
osta
"Ήtan
middle
cel@@
Nomizo
growth
katalavain@@
programma
tively
amount
dedomenon
moiras@@
chreiazomaste
liki
Se
"Όpos
tauto@@
open@@
simply
economy
ikanotita
elec@@
telling
comple@@
diladi
passion
sustimata
theseis
doy
kataskeuas@@
politiki
omoyn
pment
ars
ilo@@
ward
ilektr@@
tmi@@
montelo
skeftom@@
thalas@@
flu@@
parap@@
ages
diaforetiko
dekaetia
wonderful
extra@@
books
death
eks
bes
epilog@@
zoes
mallon
rin
deyter@@
tetoia
ged
ney
rest
istan
sci@@
pris@@
sour@@
mikra
goneis
humans
grow
ora@@
imes
obvi@@
cannot
Okay
fect
possi@@
nis@@
anthra@@
scre@@
500
oysiastika
consi@@
absolu@@
anoich@@
ous@@
kainoto@@
et@@
chei
kainoyr@@
menon
epomeni
met
Sa@@
psu@@
parts
local
auxan@@
miko
impro@@
gy@@
ige@@
koinotita
syban
fav@@
step
week
recog@@
ners
Boreite
antimetopis@@
sil@@
realized
pate
cked
ode@@
ga
antimetopi@@
doki@@
oiko@@
199@@
field
energ@@
evi@@
Ή
lim@@
paragog@@
ef
nees
deutero@@
companies
alls
xeis
ologia
analy@@
ebo@@
eil@@
dinei
Boroyme
thy@@
elo
psoyn
mers
pagkosmia
sumfon@@
skefteite
ople
resour@@
media
text
lost
powerful
lexeis
walk
0.000
ream
hands
sm@@
yourself
heal@@
tain
gma
profan@@
theite
liz@@
Man@@
squ@@
upirchan
trapez@@
teri
chas@@
institu@@
Ameriki
cking
invol@@
metal@@
tias
liga
numbers
condi@@
ace@@
ures
Wor@@
ioi
keu@@
value
teria
selida
axia
loys
area
ergasias
Thelo
ism
"My
ener@@
fotografies
koru@@
sovar@@
ols
diag@@
deal
skefto@@
nu@@
komma@@
quickly
follo@@
off@@
eos
dioy
giatro@@
kre@@
egkefaloy
prosopo
upoloi@@
onia
exam@@
common
ically
aine
/
otidipote
ups
images
grand@@
tance
seven
dieu@@
pras@@
cost
apolu@@
eton
ginontai
giving
spre@@
afora
anima@@
dan@@
cle@@
ian
solution
full
noy@@
human@@
anato@@
polu@@
bloo@@
ea
vil@@
hon@@
physical
perc@@
kton@@
tried
De@@
ld
lation
Ex@@
spend
Jo@@
descri@@
autokinito
forward
provle@@
exaf@@
ub@@
inven@@
esoter@@
legetai
!"
noi@@
tessera
Cha@@
Stin
epilogi
dunatotita
chamil@@
lepete
year-@@
izontai
nar@@
"Edo
movi@@
diafor@@
kurios
kentro
antas@@
pliro@@
civi@@
Kina
Ήmoyn
ilektron@@
versity
angel@@
by@@
Eng@@
poten@@
paras@@
eipan
fa
pose
present
super@@
klei@@
care@@
idion
wri@@
sias
isteyo
changes
paral@@
axio@@
leitoyr@@
smar@@
perivall@@
gnosi
gic
inoyn
drastiri@@
every@@
cam@@
velti@@
charaktiris@@
guna@@
que
nosokom@@
wers
megethos
Music
chronon
SA
oraia
chima
poi
koi@@
peris@@
behavior
challenge
erotima
oikonomia
team
tesser@@
irthe
pey@@
differ@@
gine
our@@
eda@@
mole@@
anthropini
clu@@
Just
ebor@@
izoyme
terastia
charac@@
efe@@
ilikia
katholoy
Kin@@
paroyme
anthropo@@
predi@@
kathimer@@
chrisimopoioyme
sunar@@
kanon@@
matiko
eykolo
technolo@@
knowledge
ekatontades
developed
optiki
marke@@
fro@@
rele@@
kinisi
U.S.
r.
psach@@
teto@@
bi
head@@
usu@@
pane
ekeino
die
toylachiston
tisoyn
kuvern@@
alloi
18
domatio
Oh
growing
impa@@
Chreiaz@@
Yes
labor@@
econom@@
vroyme
afoy
pragmati
onoyn
"Sto
stamatis@@
sunth@@
aze
eias@@
interested
len@@
speak
"She
prosvasi
im
increas@@
Uor@@
gnor@@
vgal@@
ote@@
gone
mila@@
aking
can@@
entists
feeling
idiaitera
megales
Vi@@
wer@@
techno@@
diastima
deytero
trela@@
charti
Right
lion
alone
inten@@
pomenos
exar@@
perioches
"Apo
chrisimopoiontas
ikotita
anas@@
xoyme
opportunity
thelei
stri@@
soun@@
pste
hold
kokkin@@
energeias
afnika
tural
apotelesmata
simantiki
dai@@
film
katanal@@
green
rion
"Giati
ral
cation
sunanti@@
prosfa@@
complex
oin@@
solve
soci@@
pay
milame
sof@@
ply
pragmatiko
lor
ried
epivi@@
fagito
yther@@
filoys
ook
ala
tau@@
xen@@
thea@@
omades
pla
situ@@
diagno@@
oro
nd
Mil@@
vivlia
emer@@
cl@@
theo@@
compar@@
cars
vlepo
pantoy
ban
Yeah
proigoy@@
Όmos
kapoioi
box
type
filo@@
vices
Έcho
erch@@
Epeidi
"Mia
poor
skli@@
osto
erotiseis
dekae@@
Char@@
noima
vro@@
Όtan
lish
tox@@
clear
ules
seems
average
sitting
tragoy@@
kri@@
aplo
program
prochor@@
mine
themata
sal@@
Ang@@
chrisimopoioyn
xep@@
agapi@@
eioy
understanding
mathe@@
Kapo@@
hundreds
tai@@
kati@@
voice
Polit@@
proseng@@
revol@@
moy@@
allos
argu@@
OK
structure
hap@@
brought
wr@@
boroy@@
For@@
lysi
lepi@@
spent
pao
fear
ftan@@
goy
access
parelth@@
tools
tom
ak
ito
lear@@
eich@@
hear@@
ithe@@
Pol@@
ree
univer@@
eig@@
poys
vel
ekatommy@@
kalli@@
epipe@@
aux@@
oysias@@
ebei@@
meto@@
vivli@@
eke@@
pub@@
ices
alo
trag@@
grafia
getai
dysk@@
son@@
read@@
bil@@
΄
ans@@
thal@@
mem@@
aire@@
ekin@@
toyr@@
hundre@@
B
Uni@@
rou@@
hun@@
arg@@
net
beg@@
fir@@
..@@
000
gia@@
vi
imopoi@@
paich@@
very@@
govern@@
paradeig@@
eyk@@
iP@@
fri@@
chis@@
cess
vli@@
ole
kain@@
sity
fore
ah
Ri@@
esei
tima
Afr@@
L
parad@@
contro@@
pagkos@@
dunato@@
feel@@
secon@@
rong
v
paichn@@
thos
TE@@
environ@@
ekatom@@
cause
mode@@
peripto@@
asia
una@@
doma@@
ful@@
kid@@
tter
bers
ank
impor@@
Afri@@
Ep@@
Ί@@
buil@@
chil@@
ath
ipo@@
stitu@@
incre@@
scri@@
ope
eiro@@
Chr@@
charakti@@
anding
ave
ready
provli@@
ould
aughter
elia
del@@
Americ@@
katan@@
eka@@
akoloy@@
ye@@
Q@@
alon@@
zon@@
anthrop@@
solu@@
apanti@@
ami
ia@@
pie@@
econ@@
ich
thous@@
ysi@@
uring
popu@@
robo@@
teri@@
»@@
fti@@
upolo@@
whe@@
kyttar@@
vely
pothe@@
omi
socie@@
kair@@
mege@@
deka@@
round
istor@@
won@@
rese@@
bla@@
spen@@
wo@@
educ@@
dollar@@
pag@@
viv@@
uch
eroti@@
fel@@
augh@@
ile
gegon@@
U.@@
diark@@
toch@@
lete
N
ends
fag@@
seli@@
ouse
ugh
ded@@
ff
$
dd@@
dila@@
trap@@
asu@@
jo@@
bus@@
teo
istey@@
beau@@
psa@@
tero@@
power@@
ura
cour@@
forma@@
ably
idiait@@
dyn@@
figu@@
ow
oloy@@
tries
tant
lic
H
&apos;@@
ekri@@
sin@@
·
eve
ths
moyn
tists
arch
ands
gle
indi@@
bal
tter@@
onom@@
deu@@
ilek@@
antimeto@@
challen@@
omizo
oto@@
antik@@
stead
tsi
imai
ketai
lla
wonder@@
loo@@
lamv@@
hal@@
behavi@@
quot@@
Eu@@
mioyr@@
vern@@
ite@@
izo
Cheirokroti@@
masia
sing@@
eidi@@
cog@@
ird
begin@@
ick@@
eira
gran@@
ound
f-@@
progra@@
cher@@
F
gh
q
busin@@
formation
member
ours
opportu@@
suneidi@@
thou@@
sic
plik@@
interes@@
uparch@@
paroy@@
U
diafer@@
leia
glos@@
plith@@
Amer@@
Mu@@
ques@@
cer
oinon@@
dif@@
vide@@
isteu@@
omen
kok@@
chall@@
alith@@
&@@
ult
fiel@@
langu@@
perioch@@
grafies
youn@@
exac@@
ok
nee@@
X
moir@@
dn
0
nity
pan
J
Inter@@
ttar@@
NA
♫@@
prob@@
ind
haps
dents
demo@@
oloy
amaz@@
amoun@@
W
ca
stima
syste@@
Yor@@
anth@@
omi@@
ekan@@
cham@@
Ye@@
metax@@
eirokroti@@
ility
twe@@
verage
dren
pete
Y
teles@@
ause
Ύ@@
–
velo@@
issoter@@
sit@@
noso@@
:@@
commun@@
tty
“
é@@
compan@@
Ώ@@
=
igh
diffic@@
midd@@
é
ough
Ό
his@@
proig@@
—@@
”
underst@@
U.S@@
ou
til
domati@@
knowle@@
Goo@@
proble@@
Z
Ear@@
―
"Gi@@
beauti@@
deci@@
+
q@@
Q
omichan@@
parel@@
selves
ool
uta@@
eirok@@
ekatonta@@
paide@@
with@@
uther@@
lachiston
num@@
boo@@
^
beh@@
idia@@
know@@
afn@@
sus@@
gether
year@@
á@@
¨
tonta@@
viron@@
‘
è@@
#
rought
engin@@
montel@@
quick@@
ease
grow@@
​
@
parch@@
ular
í@@
ó@@
beha@@
eiaz@@
gora
tween
ross
♪@@
esn
inai
charisto
·
ã@@
´
−
ö@@
anim@@
᾽
plause
ü@@
ems
kairia
mechr@@
&#93@@
domena
ainst
lachis@@
tipo@@
˙
ñ@@
*
´
Uparch@@
epre@@
portu@@
them@@
j
ó
Ϊ@@
periv@@
vidu@@
…
ç@@
·@@
ä@@
;
í
ourself

ï@@
upirch@@
tury
`@@
½
á
µ@@
”@@
è
£
อ@@
euna
ā@@
É@@
ø@@
∙
ἀ@@
à
¾
¼
ě@@
happen@@
prag@@
ipon
%@@
Á@@
ὀ@@
²
΅
ī@@
∇
©
_
Ϊ
°
{
Έ
â@@
ὐ
่
Ἐ@@
ร
;@@
ἰ@@
ē
Å@@
Ç@@
ê@@
happ@@
τ
û@@
Ἠ
Ō@@
Č@@
ย@@
ë@@
ย
ï
æ@@
Ώ
ῦ
®
™
ύ@@
š@@
•
―@@
€
&#@@
Ἀ@@
¢
ἐ@@

ὀ
–@@
¨@@
º@@
ό@@
῾@@
î@@
Ί

¥
‎
ù
ī
$@@
ć
