, 155848
." 58055
. 46621
и 43127
в 40570
что 25740
на 24327
я 23919
не 22090
с 16334
по@@ 16006
это 15578
мы 14933
с@@ 14599
ли 14198
у@@ 13934
м 12556
ть 12443
о@@ 11877
не@@ 11803
л 11267
за@@ 11244
к 10892
на@@ 10748
но 10536
как 10524
т@@ 10235
в@@ 10127
т 10098
н@@ 10001
— 9564
: 9559
про@@ 9115
д@@ 8924
у 8636
е 8594
о 8586
со@@ 8354
ли@@ 8225
ко@@ 8221
ю 8140
ра@@ 8119
вы@@ 8065
н 7874
ти@@ 7793
ре@@ 7792
&quot; 7709
вы 7611
ка@@ 7536
ни@@ 7506
ла 7505
ва@@ 7471
а@@ 7465
ро@@ 7422
и@@ 7408
при@@ 7368
из 7196
до@@ 7115
й 7077
а 6953
е@@ 6926
ви@@ 6895
р@@ 6642
з@@ 6642
ет 6613
й@@ 6589
для 6533
х 6529
де@@ 6440
» 6436
« 6417
ло@@ 6401
ка 6339
ма@@ 6335
та@@ 6268
ри@@ 6231
но@@ 6151
ми 6142
к@@ 6090
ве@@ 6070
те 6041
то 6029
ки 6024
ле@@ 5962
то@@ 5903
они 5880
во@@ 5870
ми@@ 5832
ные 5773
ж@@ 5746
раз@@ 5723
ем 5682
ль@@ 5666
ны 5637
) 5603
мо@@ 5539
ют 5522
-@@ 5514
ной 5455
же 5440
ен@@ 5412
? 5404
ме@@ 5354
да@@ 5335
ться 5244
бы 5238
ных 5205
ш@@ 5186
м@@ 5174
те@@ 5163
ч@@ 5140
ди@@ 5130
так 5121
та 5071
по 5054
"И 5024
л@@ 5017
"@@ 4936
ру@@ 4919
р 4905
п@@ 4891
ный 4821
чтобы 4798
за 4793
ты 4765
жи@@ 4755
го@@ 4751
я@@ 4735
си@@ 4664
чи@@ 4630
от@@ 4590
он 4530
их 4512
ста@@ 4491
па@@ 4452
или 4402
бо@@ 4373
б@@ 4333
се@@ 4328
ст@@ 4319
об@@ 4283
ное 4222
( 4202
И 4164
пре@@ 4152
ным 4123
га@@ 4122
"Я 4120
том 4110
ная 4092
от 4063
ло 4047
под@@ 4014
ется 4006
есть 4006
было 3973
г@@ 3936
Я 3924
которые 3902
когда 3854
если 3821
ку 3788
его 3775
ного 3751
Это 3749
очень 3737
д 3690
ра 3688
сти@@ 3656
че@@ 3649
ке 3563
ча@@ 3547
пере@@ 3490
рас@@ 3482
вер@@ 3453
су@@ 3441
нас 3415
да 3395
вать 3372
стра@@ 3360
са@@ 3353
ла@@ 3349
ф@@ 3345
хо@@ 3307
С@@ 3282
ин@@ 3273
все 3267
ку@@ 3253
меня 3240
му 3223
?" 3181
пу@@ 3147
ё@@ 3145
жа@@ 3041
пи@@ 3021
мне 3002
ном 2999
э@@ 2999
ности 2986
- 2971
нам 2968
"Это 2964
ля@@ 2945
лось 2925
го 2922
ции 2915
лет 2902
Смех 2891
ши@@ 2886
во 2874
ду@@ 2862
сто@@ 2847
ную 2845
Д@@ 2844
она 2833
всё 2825
ство 2822
кон@@ 2817
был 2813
только 2807
из@@ 2791
ти 2766
ры 2755
ю@@ 2728
ение 2722
зна@@ 2711
х@@ 2686
Б@@ 2681
ба@@ 2675
ис@@ 2658
ги@@ 2648
тов 2645
зи@@ 2624
ность 2618
"Мы 2614
ки@@ 2608
ения 2592
того 2587
"Но 2582
лись 2578
лся 2568
бе@@ 2545
В@@ 2541
может 2538
ша@@ 2527
му@@ 2515
до 2493
А@@ 2482
ния 2477
мен@@ 2476
ту@@ 2476
чем 2463
тся 2459
ну@@ 2440
ря@@ 2437
вам 2433
ь@@ 2431
потому 2423
быть 2407
О@@ 2404
пер@@ 2389
Т@@ 2374
тель@@ 2353
можно 2341
И@@ 2328
людей 2328
ными 2318
ства 2317
зо@@ 2308
ей 2306
ер@@ 2305
ни 2304
ци@@ 2301
этого 2292
щ@@ 2290
эти 2282
ды 2279
ль 2275
ры@@ 2270
"В 2267
ма 2260
ле 2258
К@@ 2256
лен@@ 2252
созда@@ 2252
Но 2244
Мы 2238
них 2226
были 2213
нет 2200
ня@@ 2197
более 2195
просто 2187
этом 2158
ы 2157
больше 2150
ние 2137
ше@@ 2135
ь 2134
пла@@ 2133
который 2132
бу@@ 2127
вот 2120
время 2087
была 2085
П@@ 2058
воз@@ 2050
ща@@ 2044
сло@@ 2036
це@@ 2035
ете 2015
ан@@ 2014
ются 2001
пол@@ 1995
же@@ 1964
ёт 1959
ствен@@ 1957
г 1955
сти 1943
Г@@ 1930
Э@@ 1924
ты@@ 1918
ско@@ 1910
сть 1909
её 1905
"В@@ 1904
вас 1896
са 1891
люди 1878
оста@@ 1874
лась 1873
тра@@ 1872
ы@@ 1872
пред@@ 1872
– 1869
де 1867
кой 1865
ещё 1861
По@@ 1850
вой 1836
будет 1827
где 1827
А 1810
этот 1806
ре 1800
уже 1792
"По@@ 1777
1@@ 1773
"О@@ 1765
би@@ 1749
-то 1738
мой 1737
В 1734
Л@@ 1731
пе@@ 1722
ну 1705
даже 1689
Аплодисменты 1682
ц@@ 1658
"( 1658
им 1655
М@@ 1648
з 1641
ком 1638
ко 1634
ар@@ 1628
ция 1623
дума@@ 1619
"С@@ 1617
ва 1606
ней 1606
этой 1593
," 1581
фи@@ 1570
жизни 1570
работа@@ 1562
могут 1556
фор@@ 1556
там 1534
ений 1531
сте@@ 1527
сделать 1525
тре@@ 1516
сво@@ 1515
ров 1513
нее 1513
много 1507
здесь 1498
лы@@ 1498
ём 1493
ме 1484
ту 1483
всего 1468
об 1466
пло@@ 1464
тем 1454
сейчас 1452
себя 1452
ак@@ 1450
ков 1447
ду 1446
вание 1445
боль@@ 1445
нужно 1438
жен@@ 1430
вали 1425
щи@@ 1422
способ@@ 1420
"Если 1419
обра@@ 1418
лу@@ 1417
ца 1415
вос@@ 1410
аль@@ 1406
тер@@ 1404
хи@@ 1404
тно 1399
ями 1398
можем 1397
со 1396
тельно 1395
также 1392
нии 1383
ровать 1381
ении 1380
этих 1374
жда@@ 1370
тя@@ 1368
"П@@ 1365
три@@ 1357
которая 1346
кра@@ 1346
один 1337
мы@@ 1334
Р@@ 1333
ру 1321
ени@@ 1316
"Д@@ 1314
гра@@ 1300
ях 1299
цен@@ 1298
бы@@ 1298
пра@@ 1296
ска@@ 1295
На@@ 1289
вая 1284
пыта@@ 1280
ению 1280
деле 1277
должны 1270
самом 1269
ще@@ 1255
прави@@ 1252
ха@@ 1250
чув@@ 1242
всех 1231
Ф@@ 1218
име@@ 1218
раз 1216
гла@@ 1210
которых 1208
поло@@ 1202
♫ 1185
можете 1185
цы 1183
ди 1181
стро@@ 1178
ден@@ 1177
ц 1173
"А 1172
дом 1172
рова@@ 1168
кто 1167
"И@@ 1167
дов 1166
следу@@ 1166
ний 1160
вания 1160
челове@@ 1156
" 1155
тив@@ 1151
сь 1149
ор@@ 1145
сни@@ 1145
суще@@ 1141
счита@@ 1139
лю@@ 1131
ге@@ 1131
Они 1127
что-то 1127
льно 1127
эту 1123
сказал 1120
важ@@ 1120
юсь 1118
понима@@ 1117
Е@@ 1117
вает 1115
назад 1112
откры@@ 1111
могли 1111
гу@@ 1108
! 1108
разви@@ 1104
ля 1103
% 1103
него 1103
се 1098
хочу 1095
бра@@ 1094
использу@@ 1091
Н@@ 1089
ника@@ 1087
дела@@ 1087
вал 1086
жения 1085
лы 1084
ром 1082
сы 1079
ением 1077
фо@@ 1074
дви@@ 1073
ос@@ 1071
тот 1069
тому 1064
ство@@ 1062
Он 1062
сле@@ 1061
кие 1060
вс@@ 1059
Ка@@ 1058
само@@ 1056
думаю 1052
жение 1049
сту@@ 1048
чи 1047
тр@@ 1046
ления 1044
жд@@ 1042
ги 1042
ст 1042
"Они 1035
бли@@ 1033
клю@@ 1031
цию 1031
через 1031
теле@@ 1028
слу@@ 1028
кла@@ 1026
году 1024
тия 1024
све@@ 1019
делать 1017
возможно 1016
Вот 1015
ему 1012
себе 1011
2@@ 1010
ды@@ 1008
реши@@ 1007
обще@@ 1005
несколько 1001
при 1000
сов 999
ть@@ 998
ён@@ 997
кры@@ 986
смо@@ 986
тить 984
Ко@@ 982
мире 979
рав@@ 976
зада@@ 972
мер@@ 971
является 965
стве 965
жизнь 965
ров@@ 962
горо@@ 959
тро@@ 959
Спасибо 957
после 956
этим 954
ших 953
времени 952
нен@@ 950
кре@@ 950
зу@@ 949
учи@@ 948
дан@@ 947
"Когда 946
дер@@ 946
экономи@@ 944
вра@@ 944
видите 942
ё 941
ним 941
пос@@ 940
человек 938
под 935
"Он 933
отве@@ 933
ся 932
ких 930
У@@ 929
сказать 929
ран@@ 927
Вы 926
иде@@ 926
жно 924
день 923
ющих 921
вают 921
Х@@ 921
Ч@@ 918
кар@@ 918
пар@@ 918
пробле@@ 912
уча@@ 911
получи@@ 910
Мо@@ 910
"Так 908
вые 907
точ@@ 907
ью 906
ком@@ 905
логи@@ 903
ской 902
"Т@@ 901
года 901
"На@@ 899
уда@@ 898
голо@@ 896
эта 894
нов@@ 892
жить 891
емся 890
ющие 890
малень@@ 890
поня@@ 887
действительно 887
Так 886
"Итак 885
5 884
лич@@ 883
ше 882
говори@@ 881
ри 880
"Э@@ 879
между 878
действи@@ 875
сре@@ 873
сдела@@ 870
обла@@ 869
п 869
технологи@@ 869
рабо@@ 868
тели 866
вое 865
ческие 863
З@@ 863
У 863
нами 862
получа@@ 862
вед@@ 861
буду@@ 861
любо@@ 861
од@@ 858
нача@@ 858
мир 857
лом 857
ж 856
кри@@ 854
сем@@ 854
ген@@ 853
кто@@ 850
ках 850
исследо@@ 850
которой 849
телей 848
3@@ 847
друго@@ 847
всегда 846
результа@@ 845
жу 845
пы@@ 845
дать 844
чь 843
ца@@ 841
чно 841
образ@@ 840
вами 839
образом 837
га 833
ству@@ 833
бес@@ 832
хоро@@ 831
происходит 830
кая 829
ваш@@ 827
Как 825
ким 825
прош@@ 824
которое 824
два 823
вых 820
слож@@ 820
послед@@ 819
ня 819
"Вы 818
чен@@ 813
каждый 810
сегодня 804
доро@@ 804
па 801
которую 799
вопро@@ 799
луч@@ 797
лек@@ 797
кор@@ 792
человека 792
реаль@@ 792
начина@@ 790
10 789
вля@@ 788
ез@@ 786
ление 786
ческих 786
маши@@ 785
теперь 785
груп@@ 782
интерес@@ 781
обо@@ 781
друг 780
Ш@@ 779
причи@@ 778
ющи@@ 777
над 777
Ин@@ 776
програм@@ 775
могу 774
ками 773
ющий 772
ям 770
ге 770
Что 770
чис@@ 769
все@@ 768
вопрос 768
каза@@ 767
без 767
чё@@ 765
нов 764
нашей 763
вого 762
вайте 762
рии 761
лучше 760
ваться 759
той 759
кую 759
тен@@ 759
ческой 758
почему 757
"Мо@@ 757
сред@@ 757
вить 757
ста 756
проек@@ 755
Ра@@ 754
детей 754
мся 753
своей 753
каж@@ 753
вл@@ 752
пом@@ 750
стоя@@ 748
показа@@ 748
вместе 747
писа@@ 746
ван@@ 746
называ@@ 745
цион@@ 745
ья 745
гру@@ 743
использо@@ 742
принима@@ 742
именно 742
будут 740
занима@@ 740
лё@@ 739
использовать 739
часть 738
ву@@ 738
три 737
никогда 737
сты@@ 737
тех 737
йти 736
гу 735
ступ@@ 734
дол@@ 734
вши@@ 734
йте 734
других 732
Се@@ 732
.@@ 732
кий 731
ному 730
кли@@ 730
кни@@ 730
свою 728
лишь 728
фак@@ 728
стре@@ 727
предста@@ 726
чу@@ 725
наши 724
пока 724
простран@@ 724
кого 724
наш@@ 723
... 722
эк@@ 721
спо@@ 720
собира@@ 720
доста@@ 720
нем 719
наде@@ 718
нуть 718
гото@@ 717
сы@@ 717
нить 717
узна@@ 716
зы@@ 715
"К@@ 714
стано@@ 714
тогда 713
глу@@ 713
"Вот 713
основ@@ 712
"М@@ 712
образо@@ 710
зем@@ 709
высо@@ 709
настоя@@ 708
"Как 708
дно 708
ского 706
еди@@ 706
такой 704
лю 704
опреде@@ 704
тру@@ 702
кро@@ 702
2 701
случа@@ 701
4 701
расска@@ 699
подума@@ 699
встре@@ 698
род@@ 696
мыш@@ 696
работать 695
мест@@ 695
С 689
по-@@ 688
шая 687
нах 686
огром@@ 685
ством 685
За@@ 684
другой 684
ешь 684
фотографи@@ 684
ских 682
ёл 682
"З@@ 680
000 680
19@@ 679
"Е@@ 679
такие 679
стоит 678
чита@@ 676
роди@@ 676
; 674
ходи@@ 672
зву@@ 672
одна 671
вый 671
ред@@ 671
щем 668
ств 668
"На 668
подоб@@ 668
3 665
заме@@ 665
чего 665
вещи 665
зыва@@ 664
тие 663
место 663
Да@@ 661
наших 661
0-@@ 660
объя@@ 658
мира 656
Она 656
игра@@ 655
уч@@ 655
вается 655
"Н@@ 653
отнош@@ 650
тки 650
например 650
похо@@ 648
приш@@ 647
рой 647
мо 647
вую 646
ческий 646
доб@@ 646
сла@@ 645
иг@@ 645
7@@ 644
моей 643
"У 643
соб@@ 643
осно@@ 642
вления 642
вя@@ 641
це 641
хорошо 641
знаю 640
дели@@ 639
собствен@@ 638
став@@ 638
наз@@ 637
произо@@ 635
достаточно 635
спе@@ 633
пис@@ 633
ческого 632
истории 632
ке@@ 632
понять 629
возмож@@ 629
тоже 629
потом 628
рован@@ 627
держи@@ 627
ник 627
Со@@ 626
год 626
начала 626
зе@@ 624
ций 624
вто@@ 624
немного 622
емы@@ 622
жать 621
рь@@ 621
компьюте@@ 621
пы 620
двига@@ 619
одной 618
успе@@ 618
плане@@ 617
ничего 617
льные 616
ее 615
полити@@ 614
вой@@ 614
фе@@ 614
важно 613
знаете 613
США 613
люби@@ 613
затем 612
создать 611
вери@@ 610
чески 609
ьте 608
измен@@ 608
чер@@ 608
ский 607
пита@@ 606
уни@@ 606
еще 605
ум@@ 605
вз@@ 605
Та@@ 604
момент 604
тель 604
лет@@ 604
таких 603
вление 603
нуж@@ 603
раст@@ 603
знаем 601
сторо@@ 601
времен@@ 601
ствовать 601
моло@@ 601
такое 601
вели@@ 601
ходит 600
слыша@@ 599
поэтому 599
некоторые 597
дости@@ 597
дру@@ 595
шь 595
данные 594
обнару@@ 594
филь@@ 594
другие 593
ток 593
чение 593
интер@@ 593
меня@@ 591
сколь@@ 591
вым 591
ники 590
юще@@ 590
дра@@ 590
ников 590
смотри@@ 590
пара@@ 590
оно 590
4@@ 589
вести 588
аб@@ 588
говорить 587
сом 587
кан@@ 587
ставля@@ 587
8 587
нима@@ 587
пя@@ 587
извест@@ 586
50 585
лу 584
моде@@ 583
музы@@ 583
перед 582
он@@ 582
бе 582
свои 581
ще 581
чной 581
мужчи@@ 581
хва@@ 580
ские 580
лан@@ 579
&#91; 579
год@@ 578
Ма@@ 578
зда@@ 577
снова 577
ены 574
6 574
помощью 574
язы@@ 570
состоя@@ 570
кажется 570
защи@@ 570
Боль@@ 569
шо@@ 567
позво@@ 566
води@@ 565
технологии 565
треть 565
гро@@ 563
еха@@ 561
из-за 561
моя 561
дей@@ 560
уров@@ 560
чить 560
около 560
шим 559
шей 559
чения 559
приро@@ 559
ётся 559
найти 558
деся@@ 558
Не@@ 557
ень 557
приме@@ 557
ъ@@ 557
тами 556
"Б@@ 556
насе@@ 555
тво@@ 555
верну@@ 555
всем 554
щее 553
приня@@ 552
&#93; 551
тах 550
женщи@@ 550
гово@@ 549
самое 549
00 549
бро@@ 548
работы 547
цу 546
графи@@ 545
течение 545
хотел 545
ностью 545
спра@@ 545
Бо@@ 545
вол@@ 544
На 544
5@@ 544
рен@@ 543
8@@ 543
ш 542
тесь 541
зависи@@ 540
конечно 540
20@@ 539
демо@@ 538
ро 538
стви@@ 538
возможность 538
особ@@ 537
нау@@ 537
смыс@@ 536
"Ч@@ 536
объ@@ 535
случае 535
ква@@ 535
ожи@@ 534
низ@@ 534
мозга 533
проблемы 532
вла@@ 532
социаль@@ 531
вле@@ 531
искус@@ 531
измени@@ 531
Да 531
долларов 530
им@@ 530
тан@@ 528
ять 528
ом 528
Афри@@ 528
мас@@ 527
вала 527
интере@@ 527
али@@ 526
казыва@@ 526
вне@@ 525
1 525
авто@@ 524
взгля@@ 524
работает 524
нут 524
S@@ 522
кое 522
пря@@ 521
связа@@ 521
отли@@ 520
разме@@ 520
"Та@@ 519
огда 518
вари@@ 517
сами 517
ид@@ 517
должен 515
спу@@ 513
влия@@ 513
дале@@ 512
20 512
циональ@@ 511
организа@@ 511
структу@@ 511
како@@ 510
мени@@ 509
удиви@@ 509
цве@@ 508
ес@@ 508
свобо@@ 508
-нибудь 507
ве 507
смер@@ 507
говорит 507
больши@@ 506
льных 505
компа@@ 505
части 504
материа@@ 504
рази@@ 504
работу 503
P@@ 503
миллиар@@ 502
печа@@ 502
жении 501
пера@@ 500
жды 499
ответ@@ 498
позволя@@ 498
взаимо@@ 497
Не 497
♪ 497
многие 496
ню 496
много@@ 495
неде@@ 495
физи@@ 494
пти@@ 493
люб@@ 493
ясь 492
нию 492
своих 491
щения 491
вод@@ 491
хра@@ 491
надо 490
че 490
твер@@ 490
други@@ 490
сси@@ 490
стали 489
выбо@@ 489
чества 488
сме@@ 488
виде@@ 488
7 487
убе@@ 487
тран@@ 487
6@@ 486
значи@@ 486
Ва@@ 486
циаль@@ 485
большой 485
наш 485
Про@@ 485
поте@@ 484
проблема 484
шие 484
реб@@ 484
жи 484
льной 484
таким 483
бира@@ 483
вез@@ 482
ха 482
увидеть 482
миллионов 482
кру@@ 482
самы@@ 481
почти 481
оказа@@ 481
диа@@ 480
ново@@ 480
дят 480
C@@ 480
ющей 480
сили@@ 479
прия@@ 479
б 478
культу@@ 478
часто 477
био@@ 477
дить 477
коро@@ 477
дизай@@ 476
сказа@@ 476
котором 476
"Она 475
Зем@@ 475
теля@@ 474
9@@ 473
произ@@ 473
ху@@ 473
безопас@@ 472
своего 472
фун@@ 472
согла@@ 471
контро@@ 471
куда 471
хоте@@ 471
эффектив@@ 471
ски@@ 471
пример 470
жу@@ 470
зы 470
дело 470
видим 469
прав@@ 469
"Что 469
дии 469
ведь 469
жела@@ 468
тор@@ 468
пять 467
шло 467
показыва@@ 467
мыс@@ 467
американ@@ 467
тут 467
миро@@ 467
женщин 465
реш@@ 464
спроси@@ 464
9 464
цией 463
льный 463
примерно 463
пациен@@ 463
чески@@ 462
пор@@ 462
посмо@@ 462
идея 462
микро@@ 461
щение 461
поме@@ 461
опы@@ 460
фер@@ 460
лить 460
мог 460
что@@ 460
системы 460
ствуют 459
вро@@ 459
враща@@ 458
жили 458
робо@@ 458
Го@@ 457
мя@@ 457
публи@@ 457
значит 456
изобра@@ 456
мая 456
стать 456
глав@@ 455
сколько 455
пор 455
ждения 455
представля@@ 454
ход 454
менты 454
карти@@ 453
необходи@@ 452
две 452
прекрас@@ 452
сно 451
взя@@ 451
первые 450
ней@@ 450
правитель@@ 450
ье 450
электро@@ 450
жив@@ 449
лей 449
"Поэтому 449
видели 449
тил 448
Ж@@ 448
выра@@ 448
нес@@ 447
свой 447
ба 447
ваем 446
ступа@@ 446
ший 445
ситуа@@ 444
инстру@@ 444
совершенно 444
слишком 444
болез@@ 444
энергии 444
ек@@ 444
начали 443
щие 443
чный 443
видеть 441
стал 440
данных 440
ству 440
ена 440
щих 439
наи@@ 439
четы@@ 439
"Не@@ 439
проис@@ 439
стри@@ 439
процес@@ 439
цент@@ 439
твор@@ 439
ника 438
многих 437
сер@@ 437
мной 436
имеет 435
держа@@ 434
рода 434
обы@@ 434
замеча@@ 434
нок 434
йд@@ 434
200@@ 433
носи@@ 433
двух 433
дой 433
ходят 432
мати@@ 432
сня@@ 430
благо@@ 430
дут 430
вре@@ 430
дя@@ 429
дают 429
вокруг 429
ем@@ 428
гля@@ 428
работ@@ 427
кле@@ 427
шее 427
30 427
новые 426
мов 426
всему 426
ванием 426
Са@@ 426
написа@@ 426
совсем 424
над@@ 424
полу@@ 424
людям 423
лов 423
учё@@ 423
-либо 423
част@@ 423
закон@@ 422
цев 421
систе@@ 421
Му@@ 420
находи@@ 420
собой 420
десь 420
бере@@ 420
океа@@ 420
вну@@ 419
одно 418
количество 418
способ 418
одного 418
внутри 417
оди@@ 417
рес@@ 417
говорят 417
мя 417
рует 416
меньше 416
полага@@ 415
невероя@@ 415
прямо 415
днако 415
мости 414
пли@@ 414
оче@@ 414
нова@@ 413
доступ@@ 412
мн@@ 412
уби@@ 412
рия 412
студен@@ 412
спор@@ 411
Почему 411
мои 410
чу 410
тные 410
стави@@ 410
циф@@ 410
жет 409
кло@@ 409
оз@@ 408
стан@@ 408
мое 408
"Ко@@ 408
дар@@ 407
ющее 407
мом 407
заня@@ 407
спа@@ 407
продук@@ 407
мар@@ 407
поря@@ 407
Если 407
различ@@ 406
Ве@@ 406
зако@@ 406
наше 406
тельные 406
миру 405
ваются 405
цио@@ 405
мозг 405
сделали 404
пе 404
уг@@ 404
сол@@ 404
Дж@@ 404
ствует 403
жиз@@ 403
сек@@ 403
биз@@ 402
Ни@@ 402
ев 402
сё 402
шко@@ 402
довольно 400
которым 400
щую 400
мент 400
быстро 399
хоче@@ 399
ческое 398
вроде 398
еся 398
экспери@@ 398
шего 398
видео 398
ними 397
ствие 397
ском 397
дерев@@ 397
друз@@ 396
хся 396
этому 396
тысяч 396
информации 396
нашего 395
первый 395
ей@@ 395
стить 395
коман@@ 394
пен@@ 394
практи@@ 394
счаст@@ 394
ющая 393
помога@@ 393
ча 393
выгля@@ 393
единствен@@ 393
M@@ 393
показать 392
стран@@ 392
ход@@ 392
внимание 392
уме@@ 392
поис@@ 392
проси@@ 392
отде@@ 391
делают 391
изменить 391
являются 390
ностей 390
изуча@@ 390
гли@@ 390
решения 389
хотя 389
научи@@ 389
тили 388
слы@@ 388
ческая 388
дли@@ 388
пользо@@ 388
вно 388
менее 388
рассказать 388
стороны 387
фа@@ 387
стью 387
случи@@ 387
конец 386
вид@@ 385
дома 385
система 385
просто@@ 385
людьми 384
приходи@@ 384
потреб@@ 384
инте@@ 384
воды 384
Амери@@ 384
получить 384
медици@@ 384
означает 384
осозна@@ 383
ими 383
нём 383
одну 383
верх@@ 382
ся@@ 382
тельности 382
поли@@ 382
ши 382
вом 382
ощу@@ 382
рами 381
чество 381
нали@@ 381
настолько 381
ните 381
сим@@ 381
точки 380
всей 380
тыся@@ 380
конце 379
ч 379
"Про@@ 378
устрой@@ 378
появи@@ 378
давно 377
годня 377
хотим 377
Во@@ 377
посмотри@@ 377
страны 376
стало 376
чные 376
тории 376
собра@@ 375
клас@@ 375
йся 374
дет@@ 374
тий 374
историю 374
процен@@ 374
i@@ 374
бри@@ 374
науч@@ 374
ёр@@ 373
бер@@ 373
сам 373
женщины 373
нечно 373
биологи@@ 373
клетки 373
услови@@ 372
думать 372
енно 372
ужа@@ 372
мето@@ 371
множе@@ 371
хно@@ 371
делает 371
вани@@ 371
процесс 370
окружа@@ 370
бед@@ 370
мента@@ 370
ваний 370
школ@@ 369
D@@ 368
уди@@ 368
чём 368
объек@@ 368
финан@@ 367
явля@@ 367
"Во@@ 367
оши@@ 367
обеспе@@ 367
шую 367
пода@@ 367
уве@@ 367
"Не 367
мор@@ 367
существует 367
неё 366
полностью 366
крас@@ 366
ят 366
видно 366
хран@@ 366
эти@@ 365
информа@@ 365
компании 364
правля@@ 364
гене@@ 364
зрения 363
бло@@ 363
самых 363
сказала 363
насколько 363
государ@@ 362
наблюда@@ 362
следо@@ 362
сю@@ 361
тео@@ 361
сцен@@ 360
воо@@ 360
щи 360
всю 360
переда@@ 359
тельный 359
вании 359
нейро@@ 359
щий 358
ходя@@ 358
продолжа@@ 358
мень@@ 358
силь@@ 358
помина@@ 358
знать 358
Кита@@ 358
TED 358
против 357
необходимо 357
города 357
вут 357
кси@@ 357
"Да@@ 357
боле@@ 357
Мне 357
поч@@ 356
види@@ 356
стой@@ 356
производи@@ 356
ули@@ 355
жил 355
пад@@ 355
мере 355
гие 355
вероя@@ 355
щего 355
буд@@ 355
ил@@ 355
эко@@ 355
масшта@@ 355
выми 354
I@@ 354
лли@@ 354
100 354
"Ка@@ 354
проект 354
разных 353
Мар@@ 353
возможности 353
су 352
вли@@ 352
жен 352
сты 352
вид 352
наша 352
продол@@ 351
обе@@ 351
О 351
соеди@@ 351
становится 351
частью 351
Па@@ 350
ша 350
Де@@ 350
сделал 349
"Мне 349
смотр@@ 349
без@@ 349
рез@@ 349
повед@@ 349
история 349
одно@@ 348
гораздо 348
теля 348
мате@@ 348
моих 348
стала 347
точно 347
эволю@@ 347
ствия 346
мини@@ 346
ограни@@ 346
"То 346
лез@@ 346
шта@@ 345
Ан@@ 345
решение 344
пси@@ 344
увели@@ 344
видел 344
дь 343
T@@ 343
ат@@ 343
нь 343
чки 343
круп@@ 342
попа@@ 342
версите@@ 342
сут@@ 341
зу 341
подо@@ 341
цеп@@ 341
шать 340
кти@@ 340
принци@@ 340
проводи@@ 340
нравится 340
представить 340
кам 340
,@@ 339
кто-то 339
льного 339
моего 338
тол@@ 338
срав@@ 338
голов@@ 338
дети 338
сможем 337
чных 337
благодаря 337
дах 337
стов 337
сто 337
работа 337
тек@@ 337
баты@@ 336
сооб@@ 336
гна@@ 336
живо@@ 336
пери@@ 336
которого 335
изобре@@ 335
предло@@ 335
дает 335
зво@@ 333
поль@@ 333
такого 333
автомоби@@ 333
современ@@ 331
Ре@@ 331
раньше 331
Поэтому 331
говорил 331
оте@@ 331
яза@@ 330
могла 330
дово@@ 330
нечто 330
связ@@ 330
15 330
меся@@ 330
жа 330
доба@@ 330
большое 330
относи@@ 330
наль@@ 330
сов@@ 329
говорю 329
последние 328
ющим 328
При@@ 328
новый 328
шу@@ 328
спи@@ 328
дево@@ 328
анали@@ 327
пуска@@ 327
называется 327
Люди 326
тех@@ 326
хотели 326
тельность 326
пле@@ 326
"Теперь 325
B@@ 325
никто 325
слова 325
Теперь 325
ал@@ 325
"За@@ 324
общества 324
после@@ 324
краси@@ 324
нные 324
метров 324
"« 324
Ц@@ 324
туда 324
сли 323
эн@@ 323
каждо@@ 323
0@@ 323
ская 322
большинство 322
Йор@@ 322
0 322
гор@@ 322
деньги 322
мед@@ 321
ёте 321
Нью-@@ 321
прода@@ 321
помочь 321
улуч@@ 321
заключа@@ 320
когда@@ 320
месте 320
возду@@ 320
ере@@ 320
рить 320
секун@@ 320
преде@@ 320
тельных 320
самый 320
стя 319
правда 319
дву@@ 319
етесь 318
Ю@@ 318
Хорошо 318
ениях 318
шли 318
начать 318
Все 318
должно 318
полови@@ 318
информацию 318
математи@@ 318
коли@@ 317
рай@@ 317
помо@@ 317
должна 317
находится 317
выглядит 317
ут 316
сильно 316
"У@@ 316
ман@@ 316
влека@@ 316
ьи 316
тной 316
созна@@ 316
исследования 316
край@@ 315
крати@@ 315
глоба@@ 315
строи@@ 315
производ@@ 315
энерги@@ 315
серд@@ 315
руют 314
управля@@ 314
ребён@@ 314
комна@@ 313
источ@@ 313
путеше@@ 313
ито@@ 313
одна@@ 313
спасибо 313
мых 313
иметь 312
разу 312
сур@@ 312
гори@@ 312
рее 312
актив@@ 312
ответ 312
ческую 311
вместо 311
сотруд@@ 311
колле@@ 311
тела 311
нки 311
Ми@@ 310
особенно 310
определён@@ 310
ровали 310
шла 310
буду 310
намного 309
противо@@ 309
грес@@ 309
вались 309
лабора@@ 309
пить 309
хотят 308
начал 308
скоро@@ 308
оч@@ 308
жур@@ 308
находя@@ 307
иногда 307
места 307
постоянно 307
рования 307
систему 307
истори@@ 307
Все@@ 306
тически 306
каче@@ 305
спек@@ 305
м-то 305
воду 305
друга 305
будем 305
виду 305
льное 305
обуч@@ 304
опас@@ 304
"Сейчас 304
дис@@ 303
покол@@ 303
чай@@ 303
солю@@ 303
цов 303
рис@@ 303
ленной 303
организ@@ 303
син@@ 303
лены 302
легко 302
мость 302
знако@@ 302
тебя 302
"Пред@@ 302
первых 302
шу 302
НК 302
здоро@@ 301
каждого 301
говор@@ 301
нием 301
животных 301
кол@@ 300
хотите 300
менно 300
дро@@ 300
"К 299
серьё@@ 299
дальше 299
мно@@ 299
шен@@ 298
От@@ 298
ставить 298
стру@@ 298
стои@@ 298
моз@@ 298
здо@@ 298
лекар@@ 298
меч@@ 298
доби@@ 297
рах 297
постро@@ 297
ност@@ 297
един@@ 297
"Для 297
"Например 297
делаем 297
увер@@ 296
ён 296
зации 296
связи 296
строить 296
Пер@@ 296
няя 296
новых 296
A@@ 295
нор@@ 295
чие 295
тем@@ 295
тное 295
нашу 295
кур@@ 295
К 294
обществен@@ 294
жер@@ 294
обще 294
ьма 294
уровень 294
вятся 294
повто@@ 294
отправи@@ 293
шка 293
тельной 293
включа@@ 293
бога@@ 293
Нет 293
эле@@ 293
вещей 293
фес@@ 293
потря@@ 293
писы@@ 292
но-@@ 291
взять 291
призна@@ 291
упра@@ 290
сфер@@ 290
поко@@ 289
"Воз@@ 289
изменения 289
нач@@ 289
идеи 289
неф@@ 289
вес@@ 289
зале 289
месяцев 289
хо 289
Я@@ 289
ходить 288
тных 288
обычно 288
вдо@@ 288
поверх@@ 288
ждение 288
… 288
тай@@ 288
бакте@@ 288
ческо@@ 287
40 286
e@@ 286
ф 283
фу@@ 282
F@@ 279
щая 277
милли@@ 277
ов 276
мет@@ 276
волю@@ 275
чему 274
R@@ 273
рев@@ 272
наблю@@ 271
эффек@@ 271
дей 269
бле@@ 269
лён@@ 268
грам@@ 267
органи@@ 266
)" 265
нару@@ 264
грани@@ 262
ита@@ 260
ны@@ 259
лько 259
мог@@ 259
дь@@ 259
лага@@ 258
»@@ 258
o@@ 257
поя@@ 256
a 255
йчас 254
которы@@ 249
клет@@ 249
нер@@ 246
либо 246
моби@@ 243
так@@ 242
необ@@ 242
орга@@ 241
нра@@ 238
"Се@@ 237
60 236
труд@@ 236
L@@ 235
рая 233
элек@@ 233
свя@@ 232
внима@@ 232
потре@@ 230
!" 230
G@@ 230
пас@@ 223
мина@@ 222
обре@@ 221
строй@@ 220
энер@@ 220
коне@@ 219
бо 219
N@@ 218
ью@@ 218
a@@ 215
П 215
миллио@@ 214
12 214
E@@ 213
окру@@ 212
ждый 212
лег@@ 209
компью@@ 208
кту@@ 207
W@@ 207
Хо@@ 207
буде@@ 205
25 204
форма@@ 204
кте@@ 203
щей 203
199@@ 201
помощ@@ 200
соверш@@ 198
туа@@ 193
80 193
гло@@ 193
совер@@ 193
кус@@ 192
A 191
Лю@@ 188
O@@ 188
столько 188
11 187
u@@ 181
мож@@ 181
H@@ 179
500 178
дит 175
ой 175
I 172
большо@@ 172
” 172
начи@@ 171
рения 171
Google 171
большин@@ 170
ногда 169
М 169
лаго@@ 168
Р 167
Д 167
фри@@ 166
Б 164
таки@@ 159
фото@@ 159
долж@@ 157
меди@@ 156
Т 156
тей 154
Ч 154
Н 153
верси@@ 152
риа@@ 152
мех 151
чере@@ 150
жды@@ 149
:@@ 148
/ 148
куль@@ 146
рую 146
многи@@ 143
лове@@ 142
ключа@@ 142
муж@@ 140
l@@ 140
́ 137
комп@@ 135
y@@ 135
&quot;" 134
жду 134
гром@@ 133
постоян@@ 132
тря@@ 131
h@@ 129
рят 128
тят 125
Ф 125
..@@ 124
мери@@ 124
k@@ 121
фек@@ 118
X@@ 116
рно 116
ьё@@ 116
d@@ 115
которо@@ 115
плодисменты 115
зай@@ 113
даль@@ 113
D 112
or@@ 112
V@@ 110
дна@@ 110
o 110
прин@@ 110
Г 110
будь 108
ств@@ 108
Й@@ 105
„ 105
Y@@ 104
S 104
быст@@ 104
час 103
лиш@@ 103
Х 103
зави@@ 102
наб@@ 101
знача@@ 100
x 99
c@@ 98
t@@ 98
означа@@ 98
ó@@ 96
“ 96
щу@@ 95
T 92
номи@@ 92
e 92
вится 91
K@@ 91
долла@@ 90
B 90
ar@@ 89
&apos; 88
in@@ 88
исто@@ 88
al@@ 87
i 87
r@@ 86
ol@@ 86
ace@@ 86
проц@@ 85
хот@@ 85
p@@ 83
—@@ 83
круг 82
C 80
людя@@ 80
проти@@ 80
book 80
ou@@ 79
Л 78
g@@ 76
X 76
роя@@ 75
on@@ 75
om@@ 74
M 74
"&quot; 73
ак 73
m 72
s@@ 71
вест@@ 71
be 71
отно@@ 70
x@@ 70
нан@@ 70
даря 69
обес@@ 69
b@@ 69
;" 67
er@@ 67
an@@ 66
one 66
c 65
заи@@ 64
сно@@ 64
y 64
es 64
ir@@ 64
U@@ 63
ког@@ 63
J@@ 62
ma@@ 62
TE@@ 60
Ap@@ 60
z@@ 60
s 58
on 58
os@@ 58
день@@ 58
ьше 58
-за 57
Хоро@@ 57
n@@ 56
w@@ 56
R 55
m@@ 55
t 55
it@@ 54
хнологи@@ 53
f@@ 52
O 52
око@@ 51
ира@@ 51
$ 51
en@@ 51
k 51
мерикан@@ 50
al 50
ple 50
St@@ 49
ot@@ 48
in 48
b 48
пасибо 47
g 47
co@@ 47
at@@ 47
en 46
er 46
ac@@ 46
+ 45
циен@@ 45
am@@ 44
ra@@ 44
ap@@ 43
ri@@ 43
= 43
пособ@@ 43
щ 42
ro@@ 42
ar 42
ic@@ 42
…@@ 41
E 41
Нью@@ 40
кото@@ 40
l 40
Z@@ 40
In@@ 40
оке@@ 40
r 40
э 39
льта@@ 39
as@@ 39
v@@ 38
лень@@ 37
это@@ 37
P 37
ec@@ 37
an 37
li@@ 37
экспе@@ 37
зульта@@ 36
is@@ 36
The 35
im@@ 35
el@@ 35
us 35
re@@ 34
&@@ 34
ur@@ 34
ab@@ 34
♫@@ 33
усло@@ 33
Ch@@ 33
хоти@@ 33
th@@ 33
судар@@ 32
эф@@ 32
et@@ 32
Э 31
bo@@ 31
взаи@@ 30
il@@ 30
бя 30
L 30
p 30
стоян@@ 29
ter 29
ph@@ 29
An@@ 29
Al@@ 29
"C@@ 29
Ж 29
le@@ 28
id 28
it 28
ul@@ 28
U 27
дук@@ 27
&#93@@ 27
hi@@ 27
ft 27
dia 27
á@@ 27
n 26
es@@ 26
гда 26
oc@@ 25
ke 25
New 25
безо@@ 25
ag@@ 25
ea@@ 25
G 25
ity 24
бора@@ 24
Q 24
ay 24
op@@ 24
ki@@ 24
h 24
is 24
lo@@ 24
ens 24
d 23
ing 23
st@@ 23
tu@@ 23
ds 23
á 23
_ 23
― 23
di@@ 22
pe@@ 22
Y 22
fra@@ 22
u 21
F 21
ing@@ 21
изи@@ 21
ws 21
un@@ 21
H 21
ps 21
ent@@ 21
si@@ 21
oun@@ 20
de@@ 20
N 20
me 20
ks 20
th 20
af@@ 20
ti@@ 20
tic@@ 20
№ 20
З 20
ation 19
паси@@ 19
S. 19
les 19
te@@ 19
el 19
ack 19
ad 19
ore 19
lic@@ 19
the@@ 18
wer@@ 18
int 18
car 18
York 18
dro@@ 18
or 18
dic@@ 18
Ш 18
ine 18
Q@@ 18
ay@@ 18
et 18
to@@ 18
tion 18
do@@ 18
to 17
me@@ 17
ha@@ 17
z 17
Ar@@ 17
° 17
ch 17
ne@@ 17
ch@@ 17
qu@@ 17
Е 17
od 17
^ 17
Щ@@ 16
de 16
лишком 16
ge@@ 16
♪@@ 15
é@@ 15
Re@@ 15
um@@ 15
lob@@ 15
–@@ 15
ho@@ 14
son 14
ep 14
of 14
Earth 14
po@@ 14
ker 14
ton 14
sc@@ 14
app@@ 14
ney 14
V 13
uc@@ 13
com@@ 13
ve 13
ni@@ 13
tional 13
,000 13
yp@@ 13
En@@ 13
ad@@ 13
ig@@ 13
oo@@ 13
op 13
per@@ 13
j@@ 13
K 13
tr@@ 12
ia 12
теше@@ 12
0,000 12
ke@@ 12
ick@@ 12
ograp@@ 12
ver 12
tics 12
ace 12
id@@ 12
ines 12
um 12
ran@@ 12
cent@@ 12
ure 12
the 11
W 11
American 11
wi@@ 11
chang@@ 11
ear@@ 11
ell@@ 11
ed 11
and@@ 11
tre@@ 11
ue 11
’ 11
red 11
pl@@ 11
no@@ 11
bit 11
Z 11
vi@@ 11
gi@@ 11
dle 11
ver@@ 11
ate 11
"D@@ 11
king 11
ld 10
con@@ 10
"B@@ 10
ass 10
In 10
раздо 10
as 10
ge 10
ard 10
ak 10
"F@@ 10
ter@@ 10
"S@@ 10
age 10
ey@@ 10
ool 10
​ 10
est 10
ans 10
all 10
ent 10
And 10
se 9
СШ@@ 9
are 9
se@@ 9
rec@@ 9
cl@@ 9
art 9
Con@@ 9
for 9
mar@@ 9
ons 9
go 9
ech@@ 9
sh@@ 9
ve@@ 9
at 9
ещ@@ 9
# 9
my 9
am 9
em@@ 9
"T@@ 9
Th@@ 9
kill@@ 9
il 9
low 9
ach 9
know 9
ast 8
min@@ 8
соб 8
ment 8
кун@@ 8
чес@@ 8
star@@ 8
all@@ 8
ce 8
ci@@ 8
ist 8
"M@@ 8
нибудь 8
gh@@ 8
om 8
Wh@@ 8
ell 8
”@@ 8
ster 8
ence 8
ash@@ 8
ze 8
OK 8
we@@ 8
ic 8
up@@ 8
ica 8
por@@ 8
ts 8
der 8
tic 8
f 8
ose 8
us@@ 8
cor@@ 8
ý@@ 8
table 8
‒ 8
ite 7
ant@@ 7
² 7
ics 7
os 7
e-@@ 7
ird 7
and 7
te 7
Mar@@ 7
ank 7
ant 7
dy 7
ire 7
lan@@ 7
br@@ 7
ative 7
ist@@ 7
ness 7
illi@@ 7
ó 7
day 7
ener@@ 7
pu@@ 7
ome 7
наза@@ 7
ital 7
cra@@ 7
Ц 7
pa@@ 7
Mus@@ 7
sli@@ 7
you 7
la@@ 6
up 6
ner 6
ep@@ 6
ans@@ 6
ood 6
sil@@ 6
ot 6
le 6
ord 6
don 6
go@@ 6
ture 6
é 6
ta@@ 6
"E@@ 6
ut@@ 6
ost 6
sho@@ 6
ory 6
very 6
tun@@ 6
sp@@ 6
ill@@ 6
ice 6
ature 6
gen@@ 6
ali@@ 6
ele@@ 6
form@@ 6
enti@@ 6
do 6
Un@@ 6
ever 6
port 6
ling 6
ev@@ 6
cho@@ 6
× 6
for@@ 6
not 6
imp@@ 6
cle 6
@ 5
ed@@ 5
der@@ 5
thers 5
du@@ 5
ber@@ 5
au@@ 5
ir 5
week 5
fe 5
sion 5
ers 5
he 5
ly 5
gu@@ 5
ry 5
Inter@@ 5
national 5
view 5
fi@@ 5
ga@@ 5
tive 5
\ 5
cr@@ 5
sch@@ 5
air 5
ru@@ 5
get 5
net 5
ary 5
line 5
fish 5
Au@@ 5
ion 5
gr@@ 5
des 5
loc@@ 5
ill 5
gle 5
ouse 5
ject 5
tion@@ 5
gl@@ 5
sa@@ 5
tain@@ 5
org@@ 5
friend 5
ob@@ 5
be@@ 5
that 5
tual 5
can 5
but 5
del 4
able 4
tions 4
struc@@ 4
ight 4
"H@@ 4
rop@@ 4
if 4
duc@@ 4
"A@@ 4
ves 4
rou@@ 4
so 4
lot 4
pro@@ 4
win@@ 4
ols 4
tri@@ 4
cri@@ 4
less 4
ance 4
fac@@ 4
ten@@ 4
ger 4
our@@ 4
ff@@ 4
des@@ 4
"N@@ 4
anc@@ 4
ket 4
ser@@ 4
ye@@ 4
cop@@ 4
bi@@ 4
* 4
ur 4
est@@ 4
av@@ 4
aff@@ 4
ber 4
w 4
by 4
st 4
ind 4
wing 4
man 4
ъ 4
ape 4
ical 4
fil@@ 4
would 4
like 4
pr@@ 3
acy 3
ome@@ 3
so@@ 3
ble 3
ew 3
ach@@ 3
versity 3
Ы@@ 3
ord@@ 3
Ю 3
ong 3
Now 3
net@@ 3
ery 3
"L@@ 3
out 3
pi@@ 3
"P@@ 3
ale 3
tra@@ 3
logi@@ 3
mo@@ 3
ex@@ 3
bl@@ 3
ree 3
outh 3
ots 3
thin@@ 3
str@@ 3
inter@@ 3
cul@@ 3
wh@@ 3
und@@ 3
my@@ 3
© 3
run 3
fe@@ 3
ick 3
tem@@ 3
ors 3
he@@ 3
dig@@ 3
ake 3
car@@ 3
ë@@ 3
stems 3
pul@@ 3
pt 3
old 3
ound 3
fu@@ 3
face 3
aps 3
Ь 3
ding 3
inv@@ 3
º@@ 3
ste@@ 3
bec@@ 3
ect 3
bri@@ 3
iness 3
ō 3
ved 3
Yor@@ 3
tly 3
too 3
dre@@ 3
your 3
can@@ 3
ful 3
anci@@ 3
tors 3
each 2
eri@@ 2
ain@@ 2
any@@ 2
hu@@ 2
ey 2
tw@@ 2
of@@ 2
ople 2
stitu@@ 2
dr@@ 2
think 2
We 2
su@@ 2
tici@@ 2
works 2
mid@@ 2
è@@ 2
ones 2
eas@@ 2
One 2
once 2
Internet 2
we 2
Afr@@ 2
ican 2
comp@@ 2
q@@ 2
ole 2
dge 2
point 2
ies 2
hy@@ 2
шо 2
Applause 2
"O@@ 2
ink 2
bar@@ 2
play 2
Laughter 2
air@@ 2
Right 2
ters 2
ess 2
more 2
ang@@ 2
dat@@ 2
v 2
ama@@ 2
well 2
fo@@ 2
per 2
serv@@ 2
cer@@ 2
tis@@ 2
ways 2
¼ 2
­ 2
war@@ 2
een 2
ning 2
osp@@ 2
ort 2
&apos;@@ 2
ave 2
dren 2
wer 2
Goo@@ 2
ven 2
dis@@ 2
end@@ 2
pri@@ 2
feel 2
J 2
ide@@ 2
end 2
space 2
ator 2
home 2
себ@@ 2
q 2
fl@@ 2
form 2
pres@@ 2
econ@@ 2
ular 2
work 2
ici@@ 2
¾ 2
our 2
ty 2
val@@ 2
any 2
qui@@ 2
China 2
Gre@@ 2
What 2
men 2
nam@@ 2
%@@ 2
sive 2
ous 2
set 2
row 2
equ@@ 2
ins 2
sh 2
But 2
way 2
sm@@ 2
ues 2
ff 2
share 2
big 2
this 2
when 2
re 2
there 2
tell 2
make 2
everything 2
let 2
wal@@ 2
how 2
news 2
what@@ 2
act 2
use 2
cou@@ 2
~ 2
dru@@ 2
bot@@ 1
ok 1
amoun@@ 1
bus@@ 1
You 1
sol@@ 1
sour@@ 1
case 1
som@@ 1
pic@@ 1
ys 1
cam@@ 1
Ё@@ 1
ken 1
ñ@@ 1
′ 1
″ 1
ement 1
key 1
ays 1
pat@@ 1
ting 1
ine@@ 1
wor@@ 1
augh@@ 1
ut 1
man@@ 1
bor@@ 1
happy 1
dra@@ 1
wat@@ 1
ast@@ 1
stri@@ 1
ellig@@ 1
исполь@@ 1
sta@@ 1
land 1
ass@@ 1
emo@@ 1
ous@@ 1
ghts 1
Ы 1
fin@@ 1
United 1
No 1
els 1
ause 1
are@@ 1
ca@@ 1
∇ 1
τ 1
"The 1
dom 1
thy 1
kes 1
uch 1
hard 1
dent 1
ates 1
ise 1
aw@@ 1
ook 1
stre@@ 1
flu@@ 1
ith 1
cap@@ 1
try 1
gether 1
ain 1
Africa 1
‮ 1
ive 1
stor@@ 1
ms 1
int@@ 1
log@@ 1
logy 1
power 1
tle 1
mic@@ 1
electr@@ 1
eling 1
™@@ 1
¥@@ 1
ats 1
figure 1
sim@@ 1
comple@@ 1
fre@@ 1
eci@@ 1
gh 1
ile 1
enc@@ 1
ences 1
ë 1
gre@@ 1
mat@@ 1
ther@@ 1
ju@@ 1
ce@@ 1
care 1
spi@@ 1
her 1
cess 1
ris@@ 1
vol@@ 1
ering 1
`@@ 1
ess@@ 1
fel@@ 1
tor 1
pre@@ 1
nd 1
ere 1
ori@@ 1
brea@@ 1
education 1
mer@@ 1
stu@@ 1
reli@@ 1
à 1
‘ 1
away 1
acc@@ 1
fa@@ 1
ult 1
ated 1
ads 1
lim@@ 1
людь@@ 1
reg@@ 1
att@@ 1
ath 1
stem 1
sym@@ 1
elec@@ 1
global 1
ese 1
wan@@ 1
tter 1
orm@@ 1
bac@@ 1
tal@@ 1
now 1
action 1
America 1
vers@@ 1
Ь@@ 1
jec@@ 1
super@@ 1
mem@@ 1
mor@@ 1
ene@@ 1
ò@@ 1
writ@@ 1
dri@@ 1
tually 1
ote 1
vir@@ 1
posi@@ 1
tur@@ 1
read@@ 1
ý 1
kin@@ 1
under@@ 1
"W@@ 1
She 1
just 1
girl 1
who 1
deli@@ 1
city 1
wn 1
ask 1
eff@@ 1
say 1
answer 1
sum@@ 1
fer@@ 1
Ear@@ 1
t-@@ 1
ys@@ 1
½ 1
ī@@ 1
Й 1
public 1
stra@@ 1
gra@@ 1
beli@@ 1
nec@@ 1
happ@@ 1
best 1
port@@ 1
beau@@ 1
hal@@ 1
jo@@ 1
looks 1
That 1
fore@@ 1
far 1
from 1
place 1
down 1
could 1
through 1
cities 1
look 1
pretty 1
someone 1
quite 1
ely 1
makes 1
So 1
much 1
order 1
cep@@ 1
Well 1
only 1
live 1
had 1
ulation 1
area 1
mul@@ 1
col@@ 1
ize 1
ted 1
inc@@ 1
dec@@ 1
tice 1
Let 1
eng@@ 1
My 1
light 1
ll 1
non@@ 1
powerful 1
about 1
ate@@ 1
"A 1
lev@@ 1
mil@@ 1
oil 1
loo@@ 1
school 1
ne 1
stry 1
nex@@ 1
cre@@ 1
comm@@ 1
rela@@ 1
sing 1
плодис@@ 1
mag@@ 1
wr@@ 1
ven@@ 1
ust 1
bas@@ 1
India 1
hol@@ 1
gro@@ 1
 1
ands 1
even 1
run@@ 1
ward 1
prot@@ 1
speci@@ 1
fic 1
anti@@ 1
U.@@ 1
tou@@ 1
scre@@ 1
It 1
gy 1
ants 1
jects 1
ö@@ 1
