, 119414
the 78008
." 51758
to 49484
. 48991
a 46216
of 45878
and 42952
that 35505
in 31609
I 29186
is 26678
it 25389
you 23897
&quot; 22635
&apos;s 21923
we 21910
this 16451
on 12831
was 12439
are 12044
ed 11695
for 11306
have 10746
they 10205
es 10171
re@@ 9863
an 9820
with 9624
ing 9383
b@@ 9381
s@@ 9185
m@@ 9131
"And 9128
at 9116
can 9108
— 9105
d@@ 9093
e@@ 8903
in@@ 8886
as 8697
&apos;t 8611
be 8528
what 8492
p@@ 8433
f@@ 8399
about 8037
or 8004
g@@ 7971
all 7969
t@@ 7953
And 7935
i@@ 7746
o@@ 7595
one 7517
not 7436
al 7373
h@@ 7207
l@@ 7150
a@@ 6943
c@@ 6936
do 6732
st@@ 6694
en@@ 6690
s 6638
-@@ 6622
&apos;re 6513
my 6494
there 6450
like 6417
y 6337
r@@ 6169
e 6118
our 6086
an@@ 6041
from 6027
so 6003
people 5970
n@@ 5890
? 5837
ar@@ 5729
me 5670
ac@@ 5642
but 5617
: 5546
al@@ 5514
just 5458
) 5449
w@@ 5444
u@@ 5426
very 5275
S@@ 5178
er@@ 5085
de@@ 5010
out 4913
y@@ 4912
"So 4895
us 4864
if 4853
li@@ 4833
v@@ 4826
by 4793
or@@ 4759
these 4757
on@@ 4717
ts 4562
t 4561
more 4537
up 4509
know 4489
them 4487
tion 4465
di@@ 4439
going 4429
he 4344
had 4314
er 4277
ly 4276
ate 4265
le@@ 4253
because 4225
as@@ 4192
con@@ 4173
when 4154
( 4141
at@@ 4087
It 4074
were 4065
ro@@ 4045
think 4004
how 3988
their 3960
un@@ 3955
see 3951
which 3893
ent 3880
it@@ 3866
So 3836
C@@ 3833
who 3814
ation 3785
M@@ 3777
get 3776
your 3747
time 3740
k@@ 3738
would 3702
really 3676
ri@@ 3674
B@@ 3628
ers 3596
&apos;ve 3528
m 3518
ti@@ 3517
here 3472
D@@ 3443
way 3441
&apos;m 3382
where 3360
then 3350
actually 3289
se@@ 3283
has 3281
n 3214
some 3198
We 3191
th@@ 3186
don 3185
world 3182
P@@ 3166
A@@ 3161
will 3149
"I 3129
en 3125
o 3112
now 3102
ex@@ 3091
Laughter 3081
el@@ 3079
me@@ 3067
?" 3066
sp@@ 3033
k 3029
years 3010
into 2996
ra@@ 2992
ad@@ 2962
om@@ 2956
ting 2905
could 2894
The 2888
able 2884
ar 2853
os@@ 2835
d 2821
go 2808
been 2807
other 2801
make 2794
z@@ 2782
ma@@ 2769
things 2762
ter@@ 2723
ic@@ 2701
ec@@ 2687
il@@ 2679
lo@@ 2663
"But 2644
T@@ 2641
ab@@ 2623
want 2606
G@@ 2575
age 2560
ap@@ 2551
op@@ 2546
vi@@ 2546
N@@ 2537
ul@@ 2517
us@@ 2507
But 2500
right 2498
something 2478
am@@ 2472
ur@@ 2446
work 2442
sh@@ 2430
than 2429
per@@ 2425
p 2423
ity 2416
L@@ 2412
H@@ 2409
ds 2394
thing 2390
ally 2377
much 2375
pro@@ 2372
es@@ 2364
bo@@ 2357
first 2351
h 2336
said 2325
ch@@ 2324
ks 2305
ous 2282
ot@@ 2280
"It 2277
those 2268
also 2243
im@@ 2240
par@@ 2239
for@@ 2227
no 2217
qu@@ 2208
two 2204
"The 2175
This 2168
back 2160
si@@ 2159
th 2157
mo@@ 2121
F@@ 2121
W@@ 2110
su@@ 2105
est 2100
ag@@ 2096
ted 2096
"Now 2092
I@@ 2091
even 2087
E@@ 2086
little 2077
ated 2069
only 2067
tions 2066
got 2064
tr@@ 2062
"@@ 2056
over 2051
"We 2034
le 2021
its 2019
most 2002
her 2000
1@@ 1998
to@@ 1994
ir@@ 1994
J@@ 1992
look 1990
she 1990
many 1987
R@@ 1984
ve 1979
co@@ 1975
You 1959
life 1955
de 1952
say 1949
fe@@ 1947
x@@ 1943
ence 1926
ic 1919
str@@ 1911
em@@ 1909
tra@@ 1908
O@@ 1908
te@@ 1907
ver@@ 1906
take 1906
ci@@ 1903
lot 1894
ine 1892
ou@@ 1880
tive 1875
his 1873
new 1865
ol@@ 1865
kind 1857
um@@ 1856
need 1853
gi@@ 1850
did 1850
is@@ 1844
ice 1838
day 1822
end 1820
l 1793
Applause 1792
ha@@ 1784
sc@@ 1775
sa@@ 1775
come 1769
ter 1761
ding 1760
ne@@ 1737
around 1737
se 1725
sion 1723
pre@@ 1722
be@@ 1718
tic 1715
use 1712
different 1701
we@@ 1693
red 1677
through 1672
ch 1671
fi@@ 1670
They 1662
same 1645
bi@@ 1639
down 1635
"In 1634
cl@@ 1618
king 1615
good 1612
ite 1606
ance 1596
ved 1587
g 1578
ge 1571
et 1570
gre@@ 1566
pl@@ 1565
&apos;ll 1542
ical 1531
"( 1515
lic@@ 1514
mar@@ 1513
being 1511
la@@ 1502
ph@@ 1495
inter@@ 1489
ant 1485
ary 1483
That 1481
ans 1480
ating 1480
every 1478
ect 1472
any 1468
and@@ 1466
pe@@ 1465
x 1460
put 1460
po@@ 1455
sho@@ 1453
no@@ 1445
A 1426
sts 1423
doing 1414
What 1407
hi@@ 1406
"A@@ 1403
c 1394
tri@@ 1390
percent 1388
ta@@ 1386
wor@@ 1380
pres@@ 1378
gu@@ 1363
ations 1358
; 1351
called 1347
com@@ 1335
pr@@ 1333
K@@ 1333
ies 1331
fa@@ 1330
ill@@ 1329
pa@@ 1324
ment 1322
j@@ 1322
ties 1319
ons 1317
&apos;d 1316
ke@@ 1313
old 1313
ever 1312
made 1311
au@@ 1310
♫ 1297
i 1295
st 1294
"This 1283
ded 1281
car@@ 1275
change 1267
"You 1266
ws 1265
ents 1262
three 1261
the@@ 1256
fact 1248
id 1239
year 1239
ob@@ 1238
used 1237
als 1236
cre@@ 1235
tell 1233
ty 1232
ves 1231
am 1230
let 1228
bu@@ 1228
ce 1225
der 1220
human 1218
why 1215
ors 1213
ose 1211
find 1209
"S@@ 1209
ver 1201
uc@@ 1198
fin@@ 1196
well 1192
today 1191
pri@@ 1187
ps 1173
didn 1170
gen@@ 1164
w 1162
"O@@ 1162
ev@@ 1160
dis@@ 1153
ess@@ 1152
ig@@ 1150
ni@@ 1150
ent@@ 1148
ters 1145
ad 1144
started 1144
br@@ 1144
gh@@ 1142
body 1134
b 1133
ay 1128
low 1128
bl@@ 1127
"If 1127
great 1126
tu@@ 1126
ings 1124
better 1123
own 1116
Thank 1114
ten@@ 1110
rec@@ 1108
after 1107
gr@@ 1106
do@@ 1106
wing 1104
less 1090
ms 1089
min@@ 1087
before 1087
ble 1086
sol@@ 1084
idea 1084
ked 1081
cho@@ 1081
so@@ 1079
together 1074
talk 1073
cor@@ 1071
important 1071
he@@ 1069
"They 1063
2@@ 1063
still 1061
ge@@ 1061
ins 1061
place 1059
off 1059
last 1055
big 1055
ning 1052
went 1050
problem 1046
should 1046
cr@@ 1045
wh@@ 1043
ru@@ 1042
exp@@ 1040
cri@@ 1040
next 1037
thought 1037
technology 1033
ing@@ 1032
another 1031
ther 1027
oun@@ 1027
system 1027
might 1021
There 1020
col@@ 1017
ago 1015
bit 1014
V@@ 1011
ke 1010
give 1009
never 1005
try 1004
el 1002
ying 1001
part 999
story 998
women 994
enti@@ 993
wi@@ 993
course 992
ght 989
inv@@ 988
res@@ 976
all@@ 974
few 973
fac@@ 972
ue 969
ast 968
him 967
tly 966
ving 960
brain 960
each 953
start 952
est@@ 941
too 935
data 934
show 930
ful 929
again 926
comp@@ 926
id@@ 925
came 923
ia 922
between 918
des@@ 915
mean 911
does 910
found 908
tic@@ 904
tre@@ 902
tional 901
act 901
ure 893
cer@@ 892
gra@@ 890
ut@@ 889
man 889
point 888
"Well 881
example 880
spe@@ 879
ory 877
ste@@ 876
3@@ 876
produc@@ 874
using 872
mon@@ 871
ates 869
ger 864
oc@@ 860
&apos; 856
plan@@ 854
cap@@ 849
live 849
sec@@ 847
ear@@ 845
understand 844
our@@ 844
gener@@ 843
water 842
looking 842
ay@@ 840
uni@@ 839
les 836
sub@@ 835
wanted 833
How 830
sort 830
question 827
tical 825
ist 825
He 823
Now 821
ven 820
sim@@ 818
der@@ 817
dic@@ 815
children 815
Th@@ 814
any@@ 813
ce@@ 811
long 810
go@@ 810
"M@@ 809
rou@@ 809
doesn 808
sk@@ 804
wa@@ 804
Y@@ 804
ach 801
fl@@ 799
light 798
real 796
done 796
trying 795
ici@@ 792
working 792
ness 792
wr@@ 790
ass@@ 790
ser@@ 789
il 789
10 786
always 784
int@@ 784
tion@@ 779
may 776
ution 776
trans@@ 775
person 775
r 774
sup@@ 773
.@@ 773
love 772
ore 771
um 769
eng@@ 767
room 766
man@@ 763
information 762
ized 760
ass 758
ist@@ 755
power 755
real@@ 754
Ch@@ 753
million 753
away 752
whole 748
ood 745
"Th@@ 744
por@@ 742
end@@ 741
ther@@ 739
line 738
ard 736
19@@ 735
res 735
gs 735
ones 734
means 734
ome 733
help 732
anc@@ 731
gro@@ 731
call 730
making 727
ang@@ 726
times 726
organ@@ 725
ize 725
f 725
believe 722
feel 722
poli@@ 721
et@@ 721
country 719
U@@ 715
expl@@ 715
ong 714
small 712
create 712
took 712
ry 711
ep@@ 710
form 709
els 709
coll@@ 706
oo@@ 705
Wh@@ 705
ently 704
ight 704
sig@@ 703
maybe 703
ase 703
energy 702
ali@@ 701
high@@ 699
loc@@ 698
comes 693
land 693
prot@@ 692
&quot;" 691
sur@@ 691
"When 689
develop@@ 689
ach@@ 685
dre@@ 684
bor@@ 683
become 683
hum@@ 683
home 681
pic@@ 680
ll 679
ill 679
"There 675
school 675
tw@@ 675
fu@@ 673
wn 672
ell@@ 672
app@@ 672
four 670
enough 669
comm@@ 667
future 667
"T@@ 667
star@@ 666
"That 666
wed 664
thinking 664
men 663
gg@@ 661
quite 661
everything 661
val@@ 660
second 660
ines 657
7@@ 656
off@@ 656
getting 656
read 655
design 655
possible 655
sing 652
mis@@ 652
dri@@ 652
sy@@ 652
money 651
art 650
bac@@ 648
sense 647
left 647
pi@@ 645
e-@@ 645
iting 645
without 645
equ@@ 644
space 643
son 642
har@@ 637
number 637
eff@@ 637
five 635
ff@@ 635
self 635
tur@@ 634
book 633
sure 632
ways 631
ak 631
best 630
form@@ 629
ell 629
interesting 629
! 628
struc@@ 627
sit@@ 623
ital 623
ess 623
ain 622
ics 622
side 619
saw 618
hard 617
respon@@ 616
ask 616
ot 615
iz@@ 613
ust 611
5@@ 611
up@@ 610
wat@@ 610
"He 610
happened 609
ed@@ 608
science 607
ese 606
ned 605
set 605
av@@ 604
mor@@ 603
care 602
ely 601
fol@@ 601
bio@@ 601
ately 600
ability 599
ld 599
case 598
tor 597
ack 595
ir 595
rop@@ 595
4@@ 594
pretty 594
ality 594
tal@@ 593
building 593
led 592
ously 591
told 589
coming 588
comple@@ 588
ene@@ 588
lives 588
ands 588
"H@@ 588
talking 585
sen@@ 585
move 584
mem@@ 584
mat@@ 584
having 582
stri@@ 581
social 580
ost 580
ath 580
kids 580
,000 579
per 579
probably 578
te 578
imag@@ 578
"L@@ 575
20@@ 575
though 575
jo@@ 574
ner 573
ices 573
cur@@ 573
ran@@ 572
across 571
seen 569
ative 569
Well 569
ster 568
asked 568
coun@@ 567
scienti@@ 567
tics 566
pos@@ 566
fore@@ 564
half 563
phys@@ 563
war@@ 563
experience 563
countries 562
50 562
"What 561
family 559
young 559
connec@@ 557
living 557
ber@@ 557
suc@@ 557
ped 555
5 554
mag@@ 553
od 552
evol@@ 552
kay 552
happen 551
"B@@ 551
logi@@ 551
sive 550
8@@ 550
des 550
while 549
beg@@ 549
anything 549
cells 549
turn 548
ship 548
ited 547
stre@@ 545
ote 545
such 545
cont@@ 544
tain 544
simple 544
"E@@ 543
No 543
ement 541
build 541
cha@@ 541
process 539
ture 539
ven@@ 537
makes 537
computer 537
happens 536
bas@@ 536
works 536
In@@ 535
shi@@ 535
att@@ 534
du@@ 534
stuff 532
speci@@ 531
tim@@ 530
ank 529
hel@@ 529
char@@ 528
econom@@ 528
aff@@ 528
goes 527
top 527
ental 527
sm@@ 527
cen@@ 526
sions 525
hand 525
car 525
cle@@ 524
face 524
city 523
cam@@ 522
bro@@ 520
na@@ 519
ghts 519
dge 519
Earth 519
ve@@ 518
says 516
often 515
already 514
order 514
dollars 514
chang@@ 513
later 513
ments 513
dra@@ 513
days 511
disco@@ 509
cu@@ 507
head 506
S 505
allo@@ 505
deci@@ 504
tis@@ 504
men@@ 503
contin@@ 503
ens 502
ome@@ 501
dd@@ 500
fe 500
community 499
dep@@ 499
can@@ 498
lar@@ 498
"F@@ 498
fra@@ 498
fil@@ 498
ward 497
Africa 496
20 496
ace 495
vol@@ 494
serv@@ 494
over@@ 494
4 494
almost 493
cra@@ 492
single 492
both 492
duc@@ 492
desig@@ 491
0@@ 491
play 491
whether 491
progra@@ 491
picture 490
inside 490
direc@@ 490
sed 489
ses 489
♪ 489
bot@@ 488
6@@ 488
health 488
Mar@@ 488
anding 487
tures 487
moment 487
amazing 486
ut 486
New 485
imp@@ 485
logy 485
looked 484
conf@@ 483
ling 483
chall@@ 483
play@@ 482
far 482
ences 482
Why 482
high 481
acc@@ 480
ically 480
acy 479
ere 479
flo@@ 479
answer 479
ele@@ 479
mind 479
hope 478
nothing 478
oper@@ 476
2 475
public 475
bers 475
00 475
food 475
enc@@ 474
basically 474
bad 473
business 472
ery 472
"C@@ 471
8 471
saying 471
species 471
myself 470
reason 469
remember 469
imagine 468
mother 468
history 467
ism 467
project 466
else 466
mil@@ 464
keep 462
someone 462
emp@@ 461
job 461
os 461
ected 460
planet 460
ca@@ 460
learn 459
yet 459
ep 458
looks 458
nature 458
doc@@ 457
ick 457
fun@@ 457
words 457
ft 456
beautiful 456
vir@@ 456
ined 455
dies 455
under@@ 455
months 455
wal@@ 454
once 454
gn@@ 454
tru@@ 453
cul@@ 452
exc@@ 452
cess 451
phone 451
within 450
action 450
music 450
problems 449
ols 448
issu@@ 447
government 447
bre@@ 447
ily 446
ker 446
group 444
spec@@ 444
dev@@ 444
ages 443
woman 443
tun@@ 442
fre@@ 442
ential 442
night 442
200@@ 441
ow 441
St@@ 441
tin@@ 441
ns 440
hund@@ 440
tation 440
ain@@ 440
Let 439
ori@@ 439
tici@@ 439
incredi@@ 438
built 438
table 438
9@@ 438
0s 438
pat@@ 438
ous@@ 438
igh@@ 438
ss 437
typ@@ 437
An@@ 437
incre@@ 436
ls 436
bring 436
view 435
U.@@ 435
"For 434
hy@@ 434
duce 433
open 432
bly 432
materi@@ 432
cess@@ 432
posi@@ 432
billion 431
global 431
cep@@ 430
sta@@ 430
ape 430
3 430
stories 430
bar@@ 429
ular 429
fully 429
reco@@ 429
six 428
underst@@ 427
kers 427
fic 427
osp@@ 427
30 427
wasn 426
exactly 426
wrong 425
ounds 425
matter 425
ping 425
gets 425
word 425
heard 424
ces 423
places 423
completely 423
"As 423
ort 423
lead@@ 422
ise 422
dru@@ 422
guy 421
sum@@ 420
6 419
until 419
tivity 419
ases 419
child 419
true 419
shed 418
"I@@ 418
video 418
ization 417
friends 417
decided 417
0,000 415
sli@@ 414
9 414
ion 413
clos@@ 413
These 413
arti@@ 413
fic@@ 412
wer 412
port 411
ive 410
house 410
bri@@ 410
ast@@ 410
under 409
ply 409
cancer 409
appro@@ 408
ber 408
stu@@ 408
compu@@ 408
"P@@ 407
taking 407
level 407
clim@@ 407
ish 407
logical 407
win@@ 406
7 406
ris@@ 406
adv@@ 406
tors 405
individu@@ 405
against 404
She 404
ree 403
United 403
En@@ 403
jects 402
study 402
ur 401
run 401
ideas 401
piece 401
her@@ 401
gl@@ 401
learned 400
society 399
ire 399
ult 399
ject 399
ets 398
large 397
kinds 397
control 397
particular 397
fund@@ 397
arch@@ 396
Internet 396
since 395
ouldn 395
ton 395
arly 394
thre@@ 394
"Because 394
bab@@ 393
Ar@@ 392
ten 391
ats 390
must 390
My 388
tom@@ 388
couple 388
language 388
stra@@ 386
ink 386
company 386
heart 386
tual 386
solu@@ 385
America 385
sti@@ 384
cities 384
D 384
cell 384
research 384
animals 384
ga@@ 383
isn 383
ale 383
hear 382
tice 382
bec@@ 382
ple 382
pol@@ 382
net@@ 382
ys 381
model 381
bra@@ 381
knew 381
"D@@ 380
dr@@ 380
ey 380
effec@@ 380
education 379
bur@@ 379
national 378
taken 378
’ 378
happening 377
ari@@ 377
&#91; 377
ant@@ 377
turns 377
some@@ 377
"N@@ 377
state 376
viol@@ 376
ules 375
person@@ 375
prin@@ 375
provi@@ 375
itself 375
worked 375
ads 374
Mus@@ 374
&#93; 374
ples 374
ering 374
disease 374
indu@@ 374
ched 374
Eu@@ 374
consi@@ 374
ate@@ 373
structure 373
became 373
cle 373
experim@@ 373
cept 372
tle 372
appe@@ 372
dience 372
sometimes 371
everyone 371
dom 371
tran@@ 371
lim@@ 371
century 371
aw@@ 371
mul@@ 370
ide@@ 370
stry 370
sion@@ 370
name 370
ots 369
inst@@ 368
huge 367
nam@@ 367
vered 367
instead 367
Because 366
omes 366
aper 366
techno@@ 366
early 365
front 365
tually 364
ind 364
share 364
electr@@ 364
meas@@ 364
prof@@ 363
created 363
ordin@@ 363
shar@@ 363
based 363
eling 363
hours 363
questions 363
cop@@ 362
behavi@@ 362
key 361
rather 361
ching 360
dig@@ 360
dec@@ 360
soci@@ 359
ator 359
themselves 359
ech@@ 359
sym@@ 359
liter@@ 358
sor@@ 358
changed 358
States 358
qui@@ 358
universe 358
dia 358
ature 358
tically 357
least 357
innov@@ 357
TED 357
ourselves 357
out@@ 356
stop 355
dist@@ 354
u 354
couldn 354
ze 354
American 354
yp@@ 353
somebody 353
outh 352
cir@@ 352
communic@@ 352
photograp@@ 352
entire 351
engine@@ 351
bed 351
log@@ 350
Re@@ 350
opport@@ 350
fish 350
everybody 349
reas@@ 349
China 349
tain@@ 349
others 348
thousands 348
hor@@ 348
sequ@@ 348
jour@@ 348
turned 347
uses 347
outside 346
India 346
illions 346
known 346
Here 346
black 345
along 345
dy 345
ground 345
see@@ 345
sci@@ 345
reg@@ 344
sound 344
students 344
emo@@ 343
ening 342
pot@@ 342
elling 342
difficult 341
war 341
vo@@ 341
won 340
air 340
ho@@ 340
cos@@ 340
sil@@ 340
sel@@ 339
past 339
elec@@ 339
ner@@ 339
ented 338
One 338
pu@@ 338
vari@@ 337
pul@@ 337
interest@@ 336
jec@@ 336
foc@@ 335
seeing 334
t-@@ 334
behind 334
far@@ 334
fer@@ 334
dent 334
mus@@ 333
growth 333
ame 333
tem@@ 333
ming 333
scre@@ 333
Al@@ 333
af@@ 332
size 332
cost 332
neur@@ 332
chan@@ 331
moving 330
list@@ 330
maj@@ 329
environment 329
tively 329
ord 329
grap@@ 329
rel@@ 328
mess@@ 328
given 328
amoun@@ 328
run@@ 328
int 328
beginning 328
pur@@ 328
versity 328
news 327
dro@@ 327
100 327
Con@@ 327
posed 327
reality 327
reli@@ 326
sh 326
"Wh@@ 326
T 326
ext 326
wee@@ 326
machine 326
curr@@ 326
image 326
ey@@ 326
ants 325
eyes 325
re 324
pt 324
kno@@ 323
"A 323
movi@@ 323
dar@@ 323
ual 323
felt 322
relation@@ 322
survi@@ 321
flu@@ 321
York 321
scale 321
fiel@@ 321
natural 321
medi@@ 320
leave 320
"W@@ 320
ple@@ 320
cal@@ 320
ei@@ 319
micro@@ 319
systems 319
self-@@ 319
15 319
father 319
close 318
ich 318
needed 318
free 318
stor@@ 317
institu@@ 317
y-@@ 317
anci@@ 316
famili@@ 316
area 316
sible 316
companies 316
parents 316
minutes 316
ash@@ 316
terms 315
longer 315
difference 315
during 314
figure 314
ju@@ 313
resi@@ 313
ency 313
possi@@ 312
takes 311
fir@@ 311
spi@@ 311
market 311
third 311
gave 311
che@@ 310
demo@@ 309
local 309
team 309
Au@@ 309
If 309
guys 309
kes 309
bility 309
sour@@ 308
full 308
tou@@ 308
conver@@ 308
are@@ 308
met 307
population 307
ection 307
fo@@ 307
1 306
civi@@ 306
V 306
oil 306
girl 306
wards 305
beli@@ 305
anti@@ 305
finally 305
bloo@@ 305
norm@@ 304
obvi@@ 304
ems 303
died 303
happy 303
powerful 303
ool 303
walk 302
easy 302
ban@@ 302
friend 302
"One 302
thy 302
row 302
needs 301
kill@@ 301
Oh 301
know@@ 300
om 300
what@@ 300
wonderful 300
test 300
air@@ 299
non@@ 299
learning 299
nec@@ 298
rest 298
quickly 298
perhaps 297
surpri@@ 297
ake 297
ye@@ 297
Right 296
ues 296
surface 296
economic 295
lots 295
ook 295
decad@@ 294
manag@@ 294
week 294
num@@ 294
brea@@ 294
plant 294
partic@@ 293
heal@@ 293
super@@ 293
middle 293
invol@@ 293
culture 293
predic@@ 292
chem@@ 292
ellig@@ 292
writ@@ 292
poin@@ 291
movement 291
care@@ 291
In 291
Gre@@ 291
trac@@ 291
Yeah 291
present 290
inc@@ 290
inclu@@ 290
mi@@ 290
ocean 290
patients 290
extre@@ 290
hol@@ 289
deli@@ 289
OK 289
ining 288
common 288
0 284
illi@@ 284
M 283
"&quot; 283
... 283
ney 283
ki@@ 280
ith 279
stud@@ 279
ople 277
vers@@ 276
wan@@ 274
ater 272
rela@@ 271
S. 270
lan@@ 268
thers 267
lev@@ 266
gir@@ 266
tiv@@ 265
read@@ 265
ace@@ 265
anim@@ 262
every@@ 261
wer@@ 261
fr@@ 261
B 260
ave 258
Z@@ 257
40 257
dol@@ 255
pati@@ 253
ells 250
P 250
tely 249
mer@@ 246
exam@@ 244
tech@@ 244
year@@ 244
ken 242
hop@@ 240
C 238
eas@@ 236
op 234
oss 233
lon@@ 233
ends 231
ans@@ 230
iness 230
grou@@ 229
sear@@ 229
ea@@ 226
differ@@ 225
ili@@ 225
hear@@ 224
experi@@ 222
ile 222
nd 221
ause 221
G 218
eci@@ 217
buil@@ 217
ths 214
lear@@ 213
12 213
)" 213
happ@@ 212
mach@@ 212
60 211
plac@@ 211
orm@@ 211
contro@@ 210
pop@@ 209
bus@@ 205
199@@ 205
my@@ 205
govern@@ 203
Afr@@ 203
gh 203
ket 203
z 202
11 201
son@@ 201
environ@@ 201
sing@@ 200
ird 198
ready 197
Q@@ 197
Google 197
publi@@ 196
cent@@ 195
clu@@ 194
fam@@ 194
K 194
fri@@ 194
very@@ 191
ably 191
ican 190
stem 190
,@@ 189
Un@@ 188
ys@@ 187
25 186
aps 186
80 185
R 185
0-@@ 184
minut@@ 183
thous@@ 183
ulation 183
fore 180
ince 180
import@@ 178
mom@@ 176
und@@ 176
gy 175
exper@@ 175
secon@@ 175
ord@@ 175
F 174
call@@ 173
mation 171
aughter 171
eri@@ 170
Chin@@ 170
ould 169
ick@@ 169
org@@ 167
ff 167
devel@@ 165
Amer@@ 165
ole 164
ama@@ 163
500 163
throu@@ 162
ays 161
sch@@ 161
resear@@ 160
zing 159
O 158
mid@@ 158
dle 157
piec@@ 157
lit@@ 155
educ@@ 154
ograp@@ 152
cou@@ 151
won@@ 151
ouse 151
ural 150
rom 149
verse 149
whe@@ 147
eve 147
wonder@@ 146
H 144
augh@@ 142
infor@@ 141
power@@ 141
uring 141
..@@ 141
Ap@@ 140
ine@@ 139
hu@@ 139
ound 138
loo@@ 137
dat@@ 137
thin@@ 135
ety 134
tting 133
phot@@ 133
econ@@ 133
net 130
tter 130
E 129
ful@@ 129
stitu@@ 128
divi@@ 128
X@@ 127
stead 127
ury 127
dise@@ 126
ough 124
quot@@ 121
beau@@ 120
nov@@ 119
/ 118
ours 118
of@@ 118
cour@@ 117
" 117
L 116
chil@@ 115
TE@@ 115
kin@@ 114
member 112
!" 109
lob@@ 106
resp@@ 103
hal@@ 103
oce@@ 103
mic@@ 102
fel@@ 101
nee@@ 101
cent 100
&apos;@@ 100
nat@@ 93
Inter@@ 92
fron@@ 91
illion 89
dn 87
q 87
een 86
W 86
ne 85
ener@@ 84
was@@ 82
fig@@ 81
tries 80
vide@@ 80
youn@@ 79
pub@@ 78
$ 78
thou@@ 76
glob@@ 74
ility 72
mov@@ 72
prob@@ 72
N 69
langu@@ 63
- 62
ica 61
haps 59
vern@@ 55
v 51
," 49
f-@@ 48
stems 48
U 47
lig@@ 45
Ear@@ 44
X 43
J 43
&@@ 42
port@@ 41
ou 41
ques@@ 40
dren 40
may@@ 39
Y 39
pret@@ 38
ancer 38
Goo@@ 38
commun@@ 36
diffic@@ 36
proble@@ 35
them@@ 35
ima@@ 35
compan@@ 34
ew 34
inning 34
til 33
♫@@ 32
gether 31
uch 31
beauti@@ 31
é@@ 29
diff@@ 28
with@@ 27
á@@ 27
é 26
del 26
Yor@@ 26
selves 26
gle 25
q@@ 25
quick@@ 24
Q 24
_ 24
+ 22
= 21
acr@@ 21
wom@@ 19
beh@@ 18
beha@@ 17
plause 17
í@@ 17
Z 17
apos@@ 16
^ 16
grow@@ 15
som@@ 14
viron@@ 14
ok 12
esn 11
♪@@ 11
ainst 11
actly 11
ñ@@ 10
ã@@ 10
ó@@ 10
ö@@ 9
tween 9
è@@ 9
# 9
% 8
ó 7
eah 6
—@@ 6
á 6
@ 5
lars 5
nex@@ 5
000 5
ç@@ 4
;" 4
ō 4
ô@@ 3
² 3
happen@@ 3
– 3
&#93@@ 3
dividu@@ 2
ï@@ 2
ø@@ 2
à 2
è 2
‘ 1
É@@ 1
∇ 1
τ 1
ú 1
” 1
ā@@ 1
£ 1
ä@@ 1
“ 1
û@@ 1
ě@@ 1
ī@@ 1
ë@@ 1
* 1
\ 1
