,
no
the
.
to
wo
a
."
of
ha
and
ni
ga
in
that
you
I
is
it
de
&quot;
&apos;s
we
)
desu
(
i@@
this
re@@
a@@
on
desu.
de@@
in@@
e@@
na
te@@
an
are
was
o@@
an@@
n@@
ha@@
ma@@
u@@
shi
do
for
o
watashi
ga@@
have
i
s@@
e
se@@
te
b@@
—
ta@@
r@@
su@@
they
en@@
with
y@@
s
t@@
k@@
"And
can
at
g@@
ka@@
f@@
p@@
be
ya
d@@
&apos;t
what
c@@
ing
to@@
ni@@
ai
no@@
about
kono
as
all
And
ar@@
shin@@
it@@
nin
h@@
kou@@
on@@
or
es
mo
masu
mashita
mo@@
one
shi@@
:
not
ed
y
un@@
ta
tsu@@
l@@
-@@
my
so
sa@@
&apos;re
there
me
ru@@
like
or@@
go
?
at@@
S@@
ka
from
？
our
people
na@@
ik@@
su
m@@
is@@
kara
aku
me@@
wo@@
sh@@
sei
watashitachi
but
t
just
・
ok@@
kan@@
ou
very
en
han@@
al
v@@
aru
ou@@
be@@
teki
sono
dou@@
as@@
ak@@
con@@
he
shite@@
w@@
out
u
al@@
z@@
"So
sen@@
er@@
these
by
ts
ru
tan@@
if
fu@@
masu.
j@@
ch@@
ri@@
ation
you@@
chi
ro@@
more
know
ki@@
sou@@
ur@@
up
C@@
going
da@@
them
ra@@
deha
ly
shou@@
ir@@
us
niha
had
le@@
M@@
nan@@
ji
do@@
ku@@
ke@@
mashita.
when
because
oku
am@@
It
gen@@
suru
demo
ot@@
im@@
ate
were
shik@@
think
see
how
ap@@
shita
d
their
nen
A@@
om@@
os@@
wa@@
ic@@
So
which
ii
uk@@
da
aru@@
your
get
ai@@
B@@
who
time
would
st@@
us@@
dek@@
he@@
ne@@
sha
here
ig@@
man@@
really
ac@@
teimasu
m
ted
ho@@
soshite
&apos;ve
don
deshita
oto
ex@@
ari
D@@
li@@
&apos;m
imasu
way
where
kangae
shou
th@@
ki
kon@@
ds
into
some
has
chi@@
1
ori
actually
then
We
di@@
koreha
sei@@
il@@
suru@@
shite
P@@
ba@@
world
ge@@
will
op@@
ite@@
l
tou@@
"I
1@@
deshita.
ite
now
kyou@@
pro@@
warai
ji@@
fe@@
Laughter
years
ten@@
min@@
ko@@
tsu
ad@@
?"
nin@@
ken@@
ab@@
T@@
tai@@
n
mi@@
er
The
G@@
kai
shu@@
hanashi
la@@
toiu
2
iru
shimasu
sen
could
so@@
p
ter
bu@@
imasu.
make
shimashita
other
shin
ima
ara@@
been
W@@
den@@
ter@@
aku@@
iru@@
things
sore@@
hitsuyou
hi@@
atsu
made
pe@@
zu
mono
ce
"But
omoi
hou@@
oka
ity
ally
mon@@
th
for@@
hak@@
shit@@
want
mu@@
ima@@
kak@@
desuga
arimasu
able
ge
kan
ting
jou
bo@@
ob@@
um@@
we@@
eru
I@@
deshou
E@@
right
something
ari@@
But
dai
work
ono
mondai
tai
pa@@
teimasu.
kur@@
tak@@
iki
sekai
hou
oni
kok@@
than
"@@
F@@
iz@@
thing
much
nodesu
kore@@
N@@
ent
first
po@@
le
gu@@
red
H@@
man
yoku
3
k
ito
dat@@
karera
koto
dan@@
said
ore@@
those
x@@
"It
sur@@
h
nodesu.
gi@@
tr@@
O@@
itsu@@
two
ul@@
also
tor@@
ara
ice
shima@@
san@@
2@@
L@@
jou@@
ti@@
ten
R@@
jibun
back
This
kou
ers
ton@@
yuu
ct
oko
age
wareware
wak@@
ve
imashita
dou
are@@
"The
dis@@
atte@@
mono@@
yaku
co@@
pre@@
ag@@
gaarimasu
ar
ba
kin@@
chou@@
yo
got
shikashi
little
shiteimasu
5
dato
hitobito
"We
fuk@@
over
"Now
only
bi@@
look
ooku
even
yori
youni
dake@@
yuu@@
arimasu.
bi
ku
life
ore
ses
onaji
many
sp@@
gan@@
You
3@@
qu@@
wa
ren@@
ita@@
most
take
).
10
she
shimashita.
tra@@
kai@@
bu
say
rare@@
♫
ri
its
ide@@
oki
ya@@
ci@@
motsu
ran@@
ous
oto@@
ding
his
aran@@
need
shimasu.
sai@@
iu
day
new
g
lot
koto@@
se
shuu@@
bun@@
use
tanodesu
hakushu
did
kind
Applause
lo@@
tion
mite
sare@@
shuu
iteki
ch
es@@
her
vi@@
toshite
ev@@
ruk@@
ion
J@@
deshou.
c
sed
hon@@
gak@@
come
sho@@
ire
around
teiru
ment
tok@@
ver@@
iku@@
r
fu
hajime
same
sa
pr@@
chou
subete
different
shii
cr@@
ie
ia
atsu@@
kodomo
bur@@
teiru@@
yu@@
zen@@
through
st
ical
uru
ic
They
sou
iku
dai@@
per@@
toki
ju@@
zu@@
"In
ban@@
dan
ol@@
ashi
youna
noha
pu@@
jin@@
ations
imashita.
ato
ika
oo@@
dehan@@
waka
yo@@
down
aruk@@
good
dekiru@@
ame
dok@@
oku@@
ini
naka
tem@@
mei
arimasen
par@@
'@@
mae
gaaru@@
the@@
surukoto@@
com@@
&apos;ll
cre@@
jik@@
go@@
every
chuu@@
isu
4
ita
toshi
ce@@
shitsu
nai
gre@@
iha
ata
minasan
fur@@
yoi
cl@@
ble
kaku@@
au@@
hik@@
"(
ose
ve@@
ina@@
soreha
suto
being
mot@@
yaku@@
That
son@@
oi
sho
nitsuite
nimo
kei
jin
suruk@@
itsu
sta@@
si@@
any
shiteimasu.
umi
otsu
sase@@
tei@@
men@@
suu@@
br@@
put
K@@
toha
ters
sub@@
gr@@
em@@
doing
ningen
;
tek@@
ine
kanojo
jikan
ons
oru
What
col@@
oka@@
sc@@
ist
tano@@
ani
josei
iruk@@
"A@@
ks
demo@@
A
ating
rei
tekure@@
percent
fin@@
ano
!
tanodesu.
wor@@
ying
rukoto@@
ino
houhou
hen@@
et
kyou
hokano
arimashita
nak@@
sak@@
ome
men
masen
eru@@
called
pur@@
shita@@
younin@@
nai@@
nani
try
ama
&apos;d
shiteiru@@
ded
oun@@
aradesu.
imi
cho@@
ps
dak@@
"This
fun@@
sug@@
20
gaarimasu.
itta
chik@@
itte
shoku
ryou@@
kat@@
ko
ooki
tte@@
rete@@
4@@
ree@@
"You
low
shir@@
tei
ved
kareha
three
ser@@
change
ver
akat@@
amerika
tions
seki
fact
year
%
tell
oton@@
mie
aa
hontou
bun
kae
spe@@
inter@@
less
ves
50
ure
ck
omo@@
ary
ei
shu
find
basho
kik@@
dehanaku
ken
b
well
nok@@
gur@@
mar@@
tly
wat@@
sion
imasen
ug@@
pp@@
kanji
ca@@
let
desu@@
od
run@@
hodo
zen
nou
ies
human
hyou@@
hir@@
atarashii
"S@@
19@@
ant
king
el@@
hit@@
started
why
pu
chuu
les
cor@@
chan@@
subarashii
ato@@
mata
7
arimashita.
ichi
et@@
used
aka
better
kir@@
totemo
als
ated
dehaarimasen
tic
"O@@
9
gijutsu
today
uke
Thank
"If
x
V@@
aradesu
w
ad
rikai
wing
gen
own
kenkyuu
didn
great
ei@@
war@@
ll
shashin
nanika
fi@@
korega
setsu
nanodesu
5@@
6
am
after
der
before
arimasen.
idea
takoto@@
0@@
kara@@
important
tou
big
kin
still
jo@@
ago
mottomo
U@@
oro@@
"
ning
ph@@
hi
talk
gadek@@
♪
pl@@
mitsu
"They
por@@
old
ton
dashi
nen@@
nakoto@@
tat@@
ruto
ight
har@@
ryou
together
ue
body
re
igh@@
ty
last
ill@@
taa
thought
place
tom@@
bit
zuk@@
hitotsu
problem
shigoto
ll@@
kuni
went
lea@@
deeta
aik@@
should
fun
another
gi
ther
part
next
There
ss
wake@@
20@@
off
suruto
technology
sure
system
ma
tsumari
ike@@
gu
sok@@
ne
ky@@
teshima@@
hon
itai
car@@
deno
ae
deshouka
ino@@
too
mise
never
bl@@
hijouni
data
end
toiu@@
30
gs
fac@@
course
give
jouhou
tre@@
ever
ata@@
akun@@
ence
ijou
ise
might
water
8
ws
ction
otoni
few
ast
tic@@
toshite@@
him
don@@
again
story
iden@@
tri@@
rin@@
brain
dekiru
atte
ze@@
youni@@
ake@@
jo
ities
ins
ars
7@@
sokode
women
ving
ito@@
monodesu
doru
start
tari
mou
temo
tatoeba
ori@@
tachi@@
each
mor@@
kaku
oni@@
not@@
came
&apos;
does
6@@
show
ake
tatsu
tes
nitsuite@@
ger
tu@@
kudasai
found
de.
nichi
ition
masen.
sor@@
ful
teimashita
sukoshi
imasu@@
reru@@
niyotte
okur@@
tan
zai
shiku
ran
ano@@
omi
irun@@
yoku@@
ings
mean
saisho
pos@@
example
"Well
between
using
comes
toku@@
lu@@
suk@@
00
str@@
gaku
trans@@
miru
heno
tsukatte
mou@@
chiisa
atae
ana
ists
plan@@
ld
nik@@
sonzai
point
iwa
reta
kei@@
tokini
fl@@
mos@@
sek@@
looking
kano
itei
200@@
mattaku
kudasai.
long
muk@@
jinsei
done
ban
jissaini
shisutemu
sorewo
ked
ors
mis@@
shakai
cap@@
juuyouna
ish
ona@@
tameni
sort
ukoto@@
hin
pla@@
jit@@
eki
ben@@
S
omu
tori@@
ninaru@@
woshite@@
pi@@
gener@@
chikara
live
iryou
nakani
zou@@
wanted
mina
cur@@
gra@@
inai
children
He
surun@@
kotae
under@@
ing@@
How
jissai
nanodesu.
jun@@
gai
baai
reba
ative
hai@@
uka
sorega
real
ach
tsukuri
fa@@
understand
za@@
sha@@
bou
shig@@
bou@@
question
kotoba
dar@@
Th@@
ging
atta@@
imasen.
ness
doesn
masu@@
tach@@
era
our@@
bai@@
riyuu
koku
atta
Now
always
du@@
ms
irukoto@@
dakara
tsuu@@
kekka
ics
tara
ase
af@@
igai
juu@@
desukara
any@@
der@@
cha@@
ill
soshite@@
teik@@
dic@@
amu
dehaarimasen.
ichi@@
ef@@
mil@@
hatsu@@
genzai
nou@@
trying
shiki
100
saibou
dono
wi@@
sarani
yor@@
omo
seikatsu
dekimasu
working
omotte
bai
uni@@
tsuzuke
love
ent@@
bak@@
arukoto@@
act
nokoto@@
ime
rec@@
information
ame@@
mi
kare
away
den
che@@
seibutsu
.@@
sareta
tsuno
gatsu
D
nam@@
mat@@
tsukur@@
ami
node
f
noyouni
may
million
onal
ments
line
koe
shika
tte
ans
light
ste@@
omou
uto
moshi
amoshiremasen
nat@@
ishi
has@@
niy@@
shou.
sai
supp@@
whole
tta
inv@@
korerano
toi@@
mit@@
eikyou
person
TED
ke
ren
pres@@
tori
butsu
power
coming
ents
cu@@
feel
sol@@
means
koudou
ue@@
ry
mas@@
amo
jishin
pol@@
bor@@
15
sig@@
fuku
iri
believe
dearu
yatte@@
kar@@
"When
tsukuru
tomo
yuuk@@
enerugii
noyouna
call
kankei
ye@@
kiz@@
ingu
son
chir@@
hin@@
ina
ces
un
made@@
tin@@
ard
afurika
ninatte@@
kagaku
gin@@
produc@@
koko@@
took
kii
help
ra
stan@@
maybe
kawa
energy
izen
making
mur@@
i.
room
create
art
motto
otonin@@
kyuu
shinji
small
nom@@
kom@@
yorimo
form
conne@@
saigo
reru
country
land
dor@@
all@@
monodesu.
tato@@
ui
koton@@
school
imo@@
esu
han
taishi
dre@@
bre@@
imp@@
anata@@
jitsu@@
suu
pen@@
shika@@
mita
gai@@
book
"There
shira
pic@@
inodesu
awa
da.
iro
ati@@
soku
per
kit@@
four
tsukutsu
thinking
wn
kotogadek@@
deari
ome@@
teit@@
nochi
itu@@
"T@@
ven@@
tor
oug@@
pri@@
second
chigai
nu@@
home
tur@@
isa
hyou
cy
toiukotodesu
times
ber@@
aide@@
wed
tokoro@@
ges
enough
kokoro
become
”
everything
zoku
"W@@
ach@@
imasuga
oshie
pas@@
getting
gaku@@
sum@@
kankyou
bo
ga.
quite
best
korewo
kanja
chin@@
tanoha
kiki
ick
keiken
val@@
&quot;"
gyou
kuruma
ris@@
shim@@
masuga
dansei
um
shak@@
sing
kyoku
nit@@
kono@@
mes@@
develop@@
bac@@
el
kazu
without
teki@@
oya
money
shutsu
izu
noga
air
cted
sto@@
left
shiyou@@
joukyou
ron@@
doubutsu
suki
mizu
tive
shiteiru
seifu
9@@
boku
shoku@@
sate
Y@@
tane
"That
mashou
koku@@
kanousei
chikyuu
masen@@
cen@@
dri@@
lan@@
shitte
hakken
jan@@
kon
ook@@
care
set
sekaijuu
iting
naniwo
side
dore@@
sui
konna
gor@@
fore@@
jidai
future
desune
shis@@
iy@@
equ@@
comp@@
respon@@
toushi
ways
ls
five
saku
number
T
gawa
namono@@
nenkan
id
darou@@
umare
high@@
seis@@
interesting
saw
souzou
uku
tari@@
nar@@
dezain
mada
fic@@
stu@@
konoyouna
nado@@
sun
samazamana
sense
yok@@
tto
chiiki
nano@@
pan@@
nag@@
imo
mik@@
happened
win@@
otomo@@
design
science
tame@@
setsu@@
inte@@
of@@
byou@@
au
ines
led
bio@@
rel@@
arigatougozaimashita
wh@@
kikai
kyuu@@
kek@@
imasen@@
juu
tal@@
e.
teimashita.
case
niaru
shizen
shuuk@@
"He
donna
remasu
henka
ive
ital
tachiha
"H@@
move
younamono@@
cul@@
pat@@
uki
bubun
teiruk@@
mig@@
probably
betsuno
space
mach@@
nyuu@@
runodesu
yo.
aruto
kuru@@
lives
jutsu
tsuk@@
,000
told
hajimete
nitotte
effe@@
aki
kata@@
touri
ones
bar@@
betsu
asa
plic@@
ven
shed
ain@@
ner
&#91;
ned
saikin
yone
katachi
wom@@
ture
hai
daremo
byou
ices
kazoku
oro
countries
naze
&#93;
tot@@
coun@@
pretty
tain@@
fic
ritsu
family
reteimasu
rou@@
talking
ously
riyou
jutsu@@
kids
sureba
keis@@
ality
social
40
neur@@
hor@@
Let
star@@
wan@@
half
resu@@
kantan
No
ado
8@@
sui@@
days
clo@@
living
cells
seen
wok@@
otte
cer@@
iruto
though
'i
ance
kizu
"E@@
works
car
ism
sive
dake
ware
ongaku
makes
tsukau
across
young
shitara
age@@
bot@@
having
res@@
process
"C@@
soshiki
ability
prote@@
dee@@
sakuhin
abu
blo@@
igaku
aga
ze
ono@@
usa
gakkou
such
hakono
ship
uto@@
Well
gan
matsu
anything
tono
ikoto@@
yon@@
toru
while
simple
gl@@
nis@@
utsu
yak@@
60
serv@@
bas@@
"What
hand
hok@@
tru@@
totsu
nara
naku
reg@@
oso@@
speci@@
uma
aito
app@@
happen
des
iro@@
art@@
fe
stuff
tsukai
karada
ipp@@
butsu@@
DNA
niha@@
gaari
shinp@@
dra@@
hen
In@@
gyou@@
turn
asked
ort
toiukoto@@
ai.
experience
av@@
happens
joutai
wr@@
stru@@
rukotogadek@@
houga
wot@@
shinka
arun@@
arigatou
tsutae
akute@@
keiz@@
mak@@
aidea
itano@@
amoshire@@
city
log@@
mochiron
"M@@
tachi
hard
“
big@@
flo@@
teirunodesu
kita
arer@@
umu
kure@@
fo@@
jitsu
ous@@
ne.
uchuu
dekimasu.
gou@@
ddo
dollars
-
net@@
"F@@
disco@@
mok@@
asu
order
possible
tada
building
top
areba
goes
shiri
kaisha
toiukotodesu.
ike
unen
hazu@@
nazenara
sono@@
ace
later
kokode
jis@@
arigatougozaimashita.
ketsu@@
dato@@
inodesu.
okara
kun@@
ced
ian
ther@@
ask
itanodesu
machi
amoshiremasen.
face
mazu
kawari
tekunorojii
ited
contin@@
tsugino
geki
computer
shimashou
mir@@
moment
nd
C
community
amazing
ninat@@
isshoni
hy@@
single
seikou
idesu@@
iki@@
imu
kake@@
oc@@
aiteki
katsudou
hat@@
suc@@
Re@@
sube@@
ders
yos@@
shitekure@@
satsu
myself
tsum@@
to.
tion@@
surukotogadek@@
shitsumon
ys
chiku
Earth
eiga
ane
ger@@
fr@@
sukun@@
often
over@@
tures
purojiekuto
test
ward
dasu
san
plo@@
katsu@@
picture
build
keik@@
says
almost
New
gest
hos@@
kite
fil@@
imon@@
already
une
ee@@
Africa
looked
mind
dete
bab@@
indo
dare
stra@@
head
jikken
inside
B
ikku
clas@@
hiki
ryoku
food
fici@@
noaru
kyouiku
12
zou
ear@@
lar@@
ha.
high
iukoto@@
cts
grap@@
katsu
Why
awase
arimasen@@
play
soku@@
"Th@@
kot@@
yu
desuga.
gou
ged
tro@@
chu@@
planet
clear
ichibu
allo@@
both
mani
health
jitsuha
bly
remember
kachi
nothing
bus@@
stre@@
else
bad
tate
ights
heto
sorede
remashita
far
hitotsu@@
whether
chichi
baku@@
ime@@
hatsu
desig@@
hikari
arimasu@@
amera
ions
acc@@
vely
utsu@@
osu
looks
bers
aliz@@
otto
ined
table
her@@
gawak@@
igen
dro@@
ninarimasu
das@@
hadou@@
komyun@@
kenkyuu@@
od@@
kuri@@
keizai
est
asu@@
wotsu@@
kansu
yet
yob@@
species
beki@@
shijou
basically
once
shitano@@
hadek@@
nenmae
atama
history
months
11
dev@@
ika@@
sim@@
rareru@@
someone
ot
dakedenaku
shon
"B@@
est@@
tas@@
aria
il
noz@@
hitori
toka
reason
"For
words
ainodesu
oma
saying
ong
sarete@@
ically
answer
niyoru
kimashita
enti@@
learn
ta.
naru@@
happ@@
mam@@
ppu
ugoki
wal@@
chousa
tachiga
hope
logy
kami
woman
keep
iu@@
diti@@
dareka
tar@@
duc@@
tokuni
imono@@
jinrui
ooi
cra@@
public
michi
mother
wake
uke@@
chini
shoukai
sare
tsukawa
within
amen@@
night
ner@@
ler
ookiku
dies
nature
dru@@
doc@@
torik@@
and@@
runodesu.
jiko
tal
motome
mirai
vil@@
nomono@@
tekimashita
idashi
kotodesu
shi.
ho
phone
shok@@
typ@@
government
nanimo
monogatari
ought
hatar@@
job
kig@@
billion
hoton@@
cep@@
namon@@
ols
imagine
business
itad@@
25
incredi@@
kako
zentai
project
touji
polit@@
akereba
daigaku
wrong
ikutsu@@
toku
80
1tsu@@
tameno
beautiful
takai
kotowo
tekudasai
nande
fukuzatsu
open
monowo
tada@@
ctive
hid@@
kaiketsu
media
shitsu@@
six
kaihatsu
ns
child
dig@@
ately
notameni
oshi
chok@@
hel@@
kyouryoku
demon@@
atsume
gro@@
set@@
igi
gaarimashita
runo@@
osa
produ@@
places
niokeru
tun@@
juubun
kusu
fer@@
igaku@@
read
P
mochi
tors
za
irunodesu
completely
kee@@
ape
bring
friends
matter
global
suto@@
tely
non@@
taisuru
yoba
mee@@
dy
decided
ippou
shar@@
dly
Ch@@
built
oper@@
shitanodesu
shimeshi
nor@@
jun
vis@@
adv@@
action
res
partic@@
0s
sareru@@
199@@
Internet
incre@@
loc@@
haarimasen
nichi@@
obi
feel@@
juuyou
katei
cell
je@@
mira
study
standing
cos@@
fully
karano
kill@@
kochir@@
see@@
eshon
group
An@@
intaanetto
exactly
materi@@
kouka
ft
chuugoku
guy
ming
seichou
nakereban@@
idenshi
sumu
ja@@
ura
"As
compu@@
natte@@
sugo@@
wasn
meni
"L@@
abi
okoto@@
view
his@@
gets
arayuru
expe@@
United
appro@@
lec@@
tame
level
date
kotoga
byouki
cess@@
rimasu
ber
saku@@
These
ory
sute@@
teirunodesu.
goro
ut
mawari
arly
control
house
wari
haha
problems
0,000
against
ishiki
ses@@
kigyou
nado
seiki
animals
000
sonna
genjitsu
kikan
exc@@
oru@@
"I@@
uri
true
logical
zutto
cle
seik@@
air@@
olution
iruka
under
anodesu
She
kuru
inf@@
maj@@
fir@@
stories
kanou
saremashita
robotto
chigau
up@@
word
dom@@
waku@@
kakawa
otoni@@
ree
video
tation
music
itak@@
jijitsu
wer
nendai
large
until
konpyuuta
etsu
ruyounin@@
My
kinds
iti@@
reteimasu.
out@@
ichiban
cancer
saser@@
company
hatotemo
med
ky
ffe@@
since
seri@@
mu
heard
surunodesu
cities
ject
particular
ote
seimei
tokoro
tle
taking
’
ich@@
individu@@
odoroku
society
couple
kaze
"Because
ed@@
ess
mai
ched
oboe
research
jects
sage
eji
En@@
temima@@
isn
piece
sy@@
run
imu@@
iron@@
kanzen
ently
gaaru
washi
shugi
ching
stop
M
kagir@@
remasu.
prin@@
woo
Ma@@
anatano
name
appe@@
happening
soko@@
hakore@@
ack
Ar@@
oe
yari
aino@@
taken
organiz@@
mod@@
yat@@
sudeni
shitemo
suku@@
sorekara
matic@@
moderu
hannou
seki@@
ping
bunka
ough@@
learned
ams
suta@@
kika
tial
ur
haarima@@
sil@@
hanare
America
expla@@
mita@@
lis@@
kanshi
rai@@
sometimes
hum@@
kay
share
tting
reberu
mashou.
communic@@
itself
korera@@
daa
dience
sts
shiteimashita
itsutsu
turns
baa
teirun@@
ties
F
aka@@
presen@@
oke
fuku@@
viol@@
shime@@
heart
okonawa
ideas
tsuu
70
kagakusha
model
ando
ninarimashita
zan@@
douyou
iken@@
raren@@
tos@@
vered
anzen
soci@@
bility
ples
disease
takes
pt
notok@@
igo
cept
photograp@@
ots
black
desune.
mei@@
ara.
hun@@
became
imono
tual
some@@
mer
created
nouryoku
gasu
knew
national
couldn
hear
ele@@
ora@@
dom
kor@@
front
aito@@
experim@@
ling
States
shiteshima@@
requ@@
must
tekina
changed
pap@@
muke
worked
kime
souchi
questions
huge
indus@@
dge
bideo
self
moarimasu
lions
yar@@
naik@@
saki
keikaku
fas@@
vo@@
shougai
tent
Because
ira
koujou
off@@
shipp@@
Google
kotogadekimasu
sume
tooru
aku.
ikei
mazu@@
language
sesu
nagara
"N@@
lab@@
jour@@
India
nowo
yed
teria
hours
sanka
lin@@
bro@@
mag@@
instead
nyuu
mer@@
nioite
ates
open@@
areru
taik@@
shitak@@
youto@@
bunya
moku@@
guruupu
shokubutsu
sareteimasu
itanodesu.
te.
pris@@
century
ope
machine
bed
iten
gei@@
key
entire
based
t-@@
early
surunoha
kagaku@@
kis@@
seem@@
vari@@
soreni
nitsu@@
structure
game
person@@
chika@@
niyori
state
techno@@
kusuri
puro@@
tsukae
main@@
ari.
shiyouto@@
nakat@@
electr@@
"D@@
innov@@
expl@@
known
uru@@
ere
shita.
osor@@
mima@@
ainodesu.
war
kyo
atten@@
fus@@
organ@@
oi@@
education
least
ature
sensou
ize
watsu
One
teach@@
tribu@@
taisetsu
ser
everybody
ats
seibutsu@@
shitan@@
turned
genshou
dia
omoshiroi
everyone
shiru
acy
uede
others
muzukashii
wos@@
American
natural
jinkou
China
ikou
themselves
sym@@
bri@@
darou
parents
umaku
ground
chiis@@
namae
amari
tsuke
ational
500
ume
tern
ple
ace@@
mon
sagashi
medi@@
onai
jiyuu
seisaku
mul@@
arimasuga
tatok@@
shurui
irunodesu.
tually
shirabe
inve@@
kyoumibukai
kotoha
bra@@
image
isha
tato
doujini
aba
difficult
mashitaga
teikyou
ak
dearu@@
fol@@
vers@@
a.
during
deimasu
issue
ir
O
versity
kao
nagai
warui
kour@@
shitari
rather
chiryou
awo
beki
omot@@
kiken
naru
wakedesu
kno@@
pa
far@@
y-@@
tsuneni
micro@@
arima@@
pain@@
Here
eshi
koukai
akai
anat@@
kata
mochi@@
shuukan
ip@@
itive
chishiki
yp@@
bil@@
tamen@@
iron
somebody
outside
gaaruk@@
mimashou
tabe@@
depen@@
kenkou
su.
ep@@
ninarimasu.
growth
Eur@@
gram
araware
fut@@
shinai
taka
foo@@
datta
won
meno
mata@@
undou
jibuntachi
Be@@
father
hokani
!@@
gin
haku@@
itoshi
kokoni
ema
lim@@
chin
jitsugen
tomoni
companies
itsumo
moto@@
nodeshouka
cir@@
umen
ular
struc@@
kurai
cou@@
olved
gat@@
buk@@
takusan@@
chotto
puru
zonji
shimashou.
gazou
os
thousands
kara.
got@@
shinakereban@@
18
doku
inakat@@
reas@@
kikou
kouzou
areru@@
runoha
cost
leave
"A
activ@@
tamono@@
sorez@@
int
shouka
arunodesu
choku@@
behind
kinou
mora@@
arch@@
zer@@
tome
along
ure@@
yobi
seeing
ikai
past
kashi
collec@@
supi@@
won@@
yousei
muka
tsuki
kun
hodo@@
area
given
suug@@
"One
Mus@@
kuukan
masendeshita
free
akiraka
fish
emu
market
survi@@
shiro
gaat@@
ea
ker@@
nakano
kiteki
gakusei
dousha
bir@@
sis@@
onna
retsu
bijin@@
taihen
shitakoto@@
subeteno
kana@@
sl@@
ust
ka.
noyou@@
setsumeishi
busshitsu
ikaku
liter@@
rimashita
needed
difference
ese
sions
beginning
shus@@
gave
nyuur@@
tsugini
char@@
York
guys
recor@@
scale
environment
ugoka
2tsuno
anima@@
sae
guraf@@
ator
ces@@
scre@@
shinr@@
kotomo@@
students
heal@@
kima
kihonteki
ker
tsui
kyuuk@@
felt
size
lt
bannin
oil
decis@@
figure
institu@@
tsuka@@
foc@@
omotta
tetsu@@
".
close
ii@@
ali@@
masenga
eyes
tsukura
sequ@@
atari
sible
ourselves
happy
seka@@
deha@@
womotara@@
omowa
too@@
deshouka.
iitsu
odo
itan@@
movi@@
perhaps
Con@@
wai
zure
gun
universe
cle@@
cial
moving
jitai
tatemono
ys@@
deca@@
local
third
thy
toiunoha
died
nakun@@
shitanodesu.
poin@@
news
mizukara
cy@@
izou
soun@@
nanode
blu@@
bouryoku
deshitaga
tical
taito
nokotowo
yuujin
HIV
hay@@
mem@@
teite
shitaga
tere@@
anodesu.
Al@@
rekishi
dakaradesu
taz@@
usu@@
ich
chiimu
senmon@@
population
suko
id@@
odor@@
monon@@
sam@@
doumo@@
G
ut@@
If
beli@@
rimasu.
imasendeshita
oso
aikoto@@
OK
notame@@
futsuu
nettowaaku
dakede
famil@@
Oh
okonau
kes@@
igu@@
elec@@
arimasendeshita
arata
furan@@
full
teiruto
kotodesu.
longer
mus@@
met
minutes
teita
lls
teirunoha
norma@@
rest
dehaarimasen@@
okonai
etto
pped
iukotodesu
friend
kiroku
wosuru@@
cal@@
gar@@
kake
ost
usu
finally
bit@@
yosoku
wards
hyougen
rii@@
idasu
totsu@@
sound
terms
ueni
girl
arudeshou
teru
utsukushii
inclu@@
plant
comple@@
suga
systems
ident
kanjou
kyodai
surface
squ@@
obvi@@
otoko
cus@@
itekudasai
shing
ank
paa@@
donoyouni
reality
Right
masuka
row
possi@@
niiru
ninshiki
lots
descri@@
wosuru
ey@@
anta@@
denwa
De@@
kakushin
extre@@
maku@@
inochi
mid@@
self-@@
shourai
nagare
puroguramu
ideshou
him@@
nitotte@@
tachino
kyoumi
present
kotonaru
saa
tteimasu
nanb@@
num@@
saikou
akusan@@
masani
youso
jiki
consci@@
kioku
"P@@
dakedesu
~
sekin@@
quickly
walk
satsuei
economic
bunshi
kadai
easy
chem@@
realiz@@
rai
saik@@
tsuke@@
ide
ichido
uritsu
d-@@
yuug@@
tasuke
inta@@
wata@@
All
phys@@
powerful
subete@@
ro
super@@
sonot@@
In
learning
ooru
yousu
"My
tta@@
desuka
ens
cks
haarimasen.
insp@@
sentaku
ninari
fer
needs
Yeah
Z@@
bokuha
jim@@
kurika@@
datoiukoto@@
ura@@
wit@@
E
hajimari
comm@@
nodeshou
chikyuu@@
teni
eizou
inoha
ious
culture
relation@@
seij@@
care@@
soto
ippan@@
grow
inen
tsuma
engine@@
hy
tsuna@@
part@@
H
taku@@
metsu
certain
zo
netsu
kotonin@@
kyoku@@
range
hands
ches
rudeshou
ket@@
kyaku
stage
simply
wonderful
week
kimashita.
sareru
chigatsu
nante
stic
realized
white
trac@@
gakusha
tokutei
gengo
remashita.
rano
om
ption
heya
wakai
bin@@
text
perfe@@
amount
saremasu
team
tanode
emot@@
ook
memor@@
ures
sources
born
e-@@
tekimashita.
amono
beikoku
bat@@
doku@@
movement
sumi
lost
bon
tain
dono@@
fuu@@
absolu@@
wers
shiteirunodesu
U.S@@
hiroga
molec@@
iken
giron
solution
yone.
access
ool
ocean
sugo
anou
economy
kod@@
sedai
med@@
sting
hanasu
sugata
mental
Yes
whatever
dait@@
wouldn
patients
idence
kers
hasono
temora@@
yoru
shunkan
hold
weeks
parts
humans
Ph@@
impro@@
omono@@
kangaekata
otachi
spend
tair@@
ences
stor@@
physical
spre@@
predic@@
agara
tee@@
onto
shitamono@@
aga@@
deshou@@
idou
Nor@@
gone
ized
yuur@@
die
hotondo
sugi
...
images
conside@@
God
ensha
thers
sugu@@
sento
urai
surunodesu.
takaradesu
CA
…
telling
imamade
takusan
nyuuyooku
woshimashita
"&quot;
rui
cam@@
fied
arigatou.
tran@@
Wor@@
common
rely
sitting
ron
"These
seru
shien
verage
200
tics
nig@@
risk
lies
follo@@
essen@@
gimon
speak
shudan
lon@@
ads
chikaku
90
sutor@@
climate
douyatte
mokuteki
ners
les@@
pop@@
yourself
des@@
areas
kaike@@
susume
charac@@
seven
kateki
inal
kotogadekimasu.
K
wo.
kanouna
smar@@
heik@@
complex
curren@@
ashi@@
knowledge
otomo
sareteimasu.
middle
ney
wakusei
shuk@@
nanoha
shitaito
kotoni
scientists
16
arui
Just
taiken
ught
desuyo
tomodachi
ikan@@
logies
dasa
zen'in
gen'in
changes
umin
People
yume
atoi@@
step
rit@@
seeji
risuku
pon@@
llig@@
book@@
para@@
hogo
imashitaga
sat@@
behavior
Le@@
achi
bes
tried
force
teirukoto@@
kiku
dekina@@
noo
deal
atteimasu
vol@@
ar-@@
vision
koreha@@
hodono
saidai
challenge
alone
aha
ukotogadek@@
irusu
kousei
perfor@@
saremashita.
konpyuutaa
14
gaarimashita.
nandesu
spent
?.
cannot
tonari
rap@@
arazu
hoshii
haha@@
thre@@
shitem@@
kankaku
box
kuwae
enga@@
kari
198@@
ora
compe@@
shiteimashita.
psy@@
houkou
cing
hataraki
18@@
negai
oud
hendou
poten@@
tsuzuk@@
aking
wasure
but@@
peri@@
waku
shows
like@@
teiruno@@
izumu
R
seika
death
lease
kibo
uta@@
owari
girls
0
setsumei
jie@@
ope@@
ikan
hig@@
writ@@
recogni@@
kanou@@
ians
surutameni
fue
modotsu
hundre@@
imeeji
chuumoku
okon@@
gun@@
green
kinou@@
izon
mimi
fund@@
ordinary
shitaga.
ining
hazudesu
pataan
field
inven@@
sci@@
kurabe
zai@@
owa
ninaru
nal
gaarun@@
write
began
kyo@@
every@@
sagyou
kini
opportunity
fail@@
marude
kaka
tech@@
suku
kabe
kyouyuu
nan
source
seikaku
interested
isu@@
toi
sentakushi
dle
/
robot@@
econom@@
sar@@
pati@@
amono@@
thr@@
lling
intere@@
aa@@
tim@@
amer@@
ouryoku
whe@@
tae
)@@
fig@@
sear@@
issu@@
marke@@
Q@@
cent
akere@@
eas@@
challen@@
,@@
exam@@
haj@@
minas@@
commun@@
vel
sma@@
maku
differen@@
iness
La@@
ound
gine
akereban@@
oss
tory
contro@@
awa@@
ths
can@@
experi@@
dare@@
mom@@
grou@@
tsug@@
ans@@
arigatougoza@@
ath
stand
mode@@
develo@@
otte@@
TE@@
z
satsu@@
inst@@
secon@@
ready
search
gle
sen.
ode
ey
V
yatte
Afr@@
buil@@
abe
environ@@
gashi
plac@@
ikoku
eni
miz@@
very@@
lear@@
teri@@
stem
ough
ird
ah
imate
tsukat@@
hitsu@@
konp@@
hu@@
ughter
pie@@
fam@@
youn@@
scri@@
rs
side@@
zuka@@
din@@
otsu@@
hiro@@
ican
jibun@@
uu@@
gir@@
nio@@
cent@@
call@@
cause
ware@@
suke
ick@@
Chin@@
ukan
exper@@
igatsu
ybe
minu@@
cess
fore
gy
setsume@@
reki@@
imei
studen@@
Sta@@
importan@@
clu@@
deza@@
kuwa@@
read@@
usan
jii
Amer@@
ff
olu@@
my@@
L
ulation
X@@
ugh@@
solu@@
som@@
chuug@@
X
hajime@@
maz@@
publi@@
ety
ideo
tsuku@@
aren@@
was@@
ince
verse
ult
ily
Pe@@
rom
U.@@
sing@@
forma@@
lly
ell
govern@@
net
dise@@
ind@@
eve
sch@@
ably
dachi
wou@@
tiv@@
ation@@
thin@@
sel@@
omoshir@@
ameni
..@@
ends
U
utsuku@@
sekai@@
ility
tomo@@
Goo@@
&apos;@@
ided
tries
cour@@
stead
eba
member
datoi@@
muzuka@@
ja
ow
wee@@
gau
sted
chil@@
shun@@
beau@@
taku
hal@@
Y
iwo
doll@@
maru@@
scient@@
saini
tekin@@
educ@@
ural
ldn
boku@@
oshi@@
wha@@
behavi@@
yun@@
oce@@
fri@@
denaku
amoshi@@
f-@@
ale
nee@@
womot@@
goza@@
shur@@
mochir@@
photo@@
ury
W
atotemo
begin@@
lob@@
reco@@
amaz@@
opportun@@
wonder@@
sit@@
aray@@
igat@@
ener@@
q
=
illion
koshi
okona@@
econ@@
mic@@
—@@
fukuz@@
bet@@
lit@@
formation
bli@@
vement
uring
dn
N
kuda@@
$
quot@@
ordin@@
shisu@@
NA
Inter@@
akir@@
fron@@
wer@@
nazen@@
gover@@
purogur@@
kano@@
konpyuu@@
ikyou
kare@@
imon
glob@@
simp@@
cer
reb@@
power@@
prob@@
spon@@
logi@@
J
sour@@
'in
Ap@@
usan@@
Q
engin@@
ica
&@@
haps
ile
dif@@
_
…@@
quest@@
langu@@
dec@@
velo@@
v
+
ole
amoun@@
・@@
tems
suri
♫@@
selves
kuto
”@@
hajim@@
&quot;@@
eld
monogat@@
divi@@
recog@@
your@@
diffic@@
nov@@
towaaku
zon@@
compan@@
kihon@@
dren
;@@
bukai
Ear@@
&#93@@
sentaku@@
ekata
kyoumi@@
Z
Ye@@
nyuuyo@@
waaku
tty
beauti@@
til
kudas@@
ok
tekun@@
intaan@@
issh@@
sai.
proble@@
gether
afur@@
♪@@
]
niok@@
with@@
them@@
(@@
é@@
[
samaz@@
ew
hat
chuum@@
dehaarima@@
é
know@@
q@@
HI@@
á@@
knowle@@
hitob@@
enerug@@
tever
impor@@
&
℃
ukara
kanga@@
arigat@@
^
plause
thousan@@
•
jiekuto
beha@@
Yor@@
watashita@@
í@@
grow@@
ross
env@@
samazam@@
hijou@@
ween
sude@@
apos@@
ç@@
–
arashii
esn
fferen@@
inst
actly
thou@@
ö@@
ã@@
douj@@
karer@@
look@@
#
hind
@
guruu@@
è@@
​
ó@@
tekunoro@@
Ⅰ@@
á
ñ@@
pata@@
~@@
shisutem@@
ō
dividu@@
stems
:@@
quick@@
″
Ⅱ@@
²
*
happen@@
♥
‐
‘
arigatou@@
nited
%@@
]@@
゜@@
ï@@
ô@@
à
ó
è
∇
​@@
Ⅲ
ø@@
û@@
£
ī@@
ě@@
j
É@@
ople
ë@@
τ
oppor@@
゜
neni
sumon
&#@@
♡
\
