, 118942
the 77506
." 51721
. 49321
to 48891
of 45534
a 43203
and 42565
that 35225
in 31880
I 29294
is 26523
it 25298
you 23732
&quot; 22003
&apos;s 21895
we 21816
this 16264
was 12442
on 11937
are 11466
for 11242
have 10818
re@@ 10369
they 10112
with 9580
s 9205
"And 9071
— 9063
can 9042
at 8966
&apos;t 8525
what 8505
c@@ 8429
ing 8377
be 8272
f@@ 8090
s@@ 8078
about 8058
an 7926
as 7888
all 7878
And 7782
a@@ 7404
or 7401
es 7368
e@@ 7362
in@@ 7276
not 7130
ed 7087
y 7007
one 6878
do 6708
l@@ 6636
p@@ 6617
my 6610
&apos;re 6493
there 6437
-@@ 6437
like 6339
d@@ 6006
from 5992
so 5978
our 5951
people 5903
? 5770
en@@ 5764
b@@ 5685
i@@ 5623
de@@ 5606
t@@ 5585
o@@ 5570
but 5558
: 5512
just 5503
t 5481
e 5480
) 5447
S@@ 5379
very 5308
al 5247
me 5102
r@@ 5020
con@@ 5011
v@@ 4971
out 4956
"So 4866
al@@ 4842
these 4820
by 4819
ts 4809
if 4792
se@@ 4780
an@@ 4744
ation 4609
know 4513
up 4485
more 4478
going 4473
them 4461
ly 4412
us 4356
had 4343
ar@@ 4336
g@@ 4329
le@@ 4306
u@@ 4225
when 4199
he 4190
because 4174
( 4172
It 4126
ma@@ 4096
were 4001
think 3988
see 3985
how 3975
d 3940
their 3937
C@@ 3865
So 3851
which 3838
ic@@ 3830
your 3773
get 3767
M@@ 3756
n@@ 3753
who 3734
time 3734
y@@ 3732
would 3719
st@@ 3711
here 3664
really 3652
or@@ 3650
ac@@ 3626
ted 3582
w@@ 3530
te@@ 3517
&apos;ve 3515
ex@@ 3492
ate 3481
&apos;m 3399
li@@ 3391
way 3389
ro@@ 3381
where 3366
m 3351
ds 3336
th@@ 3333
B@@ 3316
A@@ 3300
has 3295
some 3282
actually 3272
then 3263
We 3242
is@@ 3230
as@@ 3197
il@@ 3187
world 3170
don 3165
will 3160
un@@ 3135
"I 3132
me@@ 3126
now 3112
l 3094
pro@@ 3072
Laughter 3034
years 3032
it@@ 3020
?" 2989
into 2987
be@@ 2981
on@@ 2973
er 2928
la@@ 2902
h@@ 2893
er@@ 2888
The 2885
could 2873
D@@ 2861
m@@ 2856
ra@@ 2848
go 2840
p 2833
ter 2806
other 2797
di@@ 2789
been 2788
ri@@ 2770
make 2769
at@@ 2768
fe@@ 2766
things 2733
ap@@ 2656
"But 2638
P@@ 2636
ce 2633
ally 2609
ity 2601
th 2596
want 2586
T@@ 2555
W@@ 2552
G@@ 2551
able 2539
ting 2529
im@@ 2511
we@@ 2501
right 2484
something 2484
But 2470
work 2465
for@@ 2444
than 2411
thing 2395
much 2391
ent 2385
first 2373
ad@@ 2362
"@@ 2358
ter@@ 2353
red 2330
le 2315
to@@ 2300
said 2280
those 2274
k 2271
su@@ 2267
"It 2264
no 2262
ne@@ 2247
two 2243
h 2242
tr@@ 2240
also 2232
ul@@ 2225
o 2217
x@@ 2216
ice 2213
sh@@ 2206
ti@@ 2197
back 2182
os@@ 2179
H@@ 2179
ers 2174
This 2173
ct 2151
"The 2127
ve 2122
dis@@ 2119
pre@@ 2106
F@@ 2083
co@@ 2082
got 2079
ar 2077
little 2072
"We 2068
E@@ 2066
over 2056
"Now 2047
only 2033
look 2024
even 2021
op@@ 2018
de 1997
life 1994
many 1990
ses 1989
You 1981
sp@@ 1981
qu@@ 1976
most 1974
N@@ 1974
am@@ 1950
she 1947
take 1941
tra@@ 1938
say 1934
O@@ 1933
ch@@ 1930
he@@ 1928
I@@ 1923
its 1916
L@@ 1910
om@@ 1905
ci@@ 1902
ous 1896
ding 1891
his 1890
need 1882
new 1851
n 1846
day 1845
lot 1838
ir@@ 1833
ig@@ 1832
did 1819
R@@ 1811
kind 1809
Applause 1808
tion 1798
lo@@ 1790
us@@ 1777
ge 1775
use 1769
her 1769
g 1765
k@@ 1764
ch 1759
bo@@ 1753
sed 1748
po@@ 1744
come 1742
around 1738
ment 1732
ev@@ 1727
c 1725
pr@@ 1715
ga@@ 1715
ver@@ 1713
different 1705
vi@@ 1704
cr@@ 1700
z@@ 1695
r 1693
through 1681
mo@@ 1680
ta@@ 1680
J@@ 1677
ic 1676
ical 1675
They 1675
st 1674
ur@@ 1660
"In 1659
same 1650
en 1645
sa@@ 1628
ations 1626
pe@@ 1621
ol@@ 1611
down 1609
good 1608
pa@@ 1592
per@@ 1584
com@@ 1557
&apos;ll 1557
gen@@ 1549
cre@@ 1546
the@@ 1542
every 1537
ha@@ 1533
ce@@ 1520
um@@ 1519
gre@@ 1513
cl@@ 1501
ble 1494
1@@ 1493
"( 1483
ion 1478
being 1475
par@@ 1474
That 1473
do@@ 1456
ve@@ 1455
any 1444
sta@@ 1442
si@@ 1432
ru@@ 1430
br@@ 1426
put 1422
doing 1415
ters 1415
gr@@ 1409
ons 1408
col@@ 1404
ten@@ 1402
What 1399
ot@@ 1397
sc@@ 1392
"A@@ 1386
ab@@ 1385
ist 1385
; 1383
es@@ 1378
ks 1376
ating 1375
percent 1370
ying 1363
ho@@ 1362
wor@@ 1355
et 1345
fin@@ 1344
called 1336
made 1325
try 1325
♫ 1323
&apos;d 1320
ob@@ 1318
ded 1318
ge@@ 1316
K@@ 1312
se 1305
ps 1299
"This 1299
man@@ 1292
em@@ 1286
ine 1286
no@@ 1283
gi@@ 1276
"You 1268
bu@@ 1266
three 1262
ved 1262
low 1262
change 1261
ver 1258
tions 1255
fact 1252
year 1250
tell 1248
te 1241
spe@@ 1232
less 1228
ves 1227
find 1221
ary 1219
min@@ 1215
ck 1215
inter@@ 1214
well 1213
ose 1213
tly 1209
gu@@ 1202
sion 1201
ca@@ 1191
let 1189
ies 1185
human 1184
"S@@ 1179
sho@@ 1174
king 1172
started 1172
ant 1170
why 1169
les 1168
el@@ 1166
b 1160
od 1160
cor@@ 1160
used 1151
better 1149
als 1141
ated 1140
"O@@ 1137
tic 1136
today 1132
"If 1131
Thank 1131
oun@@ 1130
so@@ 1127
w 1126
wing 1123
own 1120
didn 1119
great 1119
ll 1114
cho@@ 1112
ad 1102
after 1096
am 1096
ni@@ 1093
before 1092
der 1090
idea 1089
j@@ 1086
important 1078
big 1076
still 1074
sur@@ 1070
ou@@ 1068
talk 1067
ran@@ 1067
ning 1066
ph@@ 1065
"They 1060
pl@@ 1059
old 1059
together 1052
body 1051
ight 1047
ty 1047
last 1046
igh@@ 1045
man 1044
thought 1039
place 1038
ill@@ 1037
problem 1033
ite 1033
went 1030
lea@@ 1029
x 1026
should 1025
V@@ 1024
another 1023
bit 1022
ll@@ 1021
ther 1019
part 1019
next 1019
There 1018
ss 1017
technology 1015
off 1015
system 1014
ag@@ 1011
car@@ 1004
au@@ 1001
never 1000
gs 995
bl@@ 994
end 994
ago 992
course 992
fac@@ 992
give 991
tre@@ 989
ever 987
A 987
ence 984
water 980
might 979
ction 973
few 973
him 970
ast 970
again 968
story 968
data 968
ws 965
tic@@ 963
tri@@ 963
wa@@ 962
brain 961
da@@ 955
ities 953
ins 952
ars 950
women 950
ving 948
start 945
sen@@ 942
each 939
U@@ 939
2@@ 937
came 932
does 930
sure 930
ise 928
show 928
found 922
tes 921
ger 919
ition 917
age 917
pu@@ 912
ful 911
too 902
tu@@ 901
mean 901
ings 900
example 896
between 893
"Well 893
using 893
comes 891
pos@@ 887
str@@ 886
lu@@ 884
3@@ 883
trans@@ 883
fi@@ 881
ists 878
plan@@ 878
point 874
fl@@ 872
looking 871
long 869
ld 869
ke@@ 869
ked 859
ors 858
cap@@ 855
sort 854
pla@@ 852
ish 846
mar@@ 842
gener@@ 842
iz@@ 841
live 840
por@@ 837
wanted 836
cur@@ 835
gra@@ 835
han@@ 832
&apos; 832
children 832
He 832
under@@ 830
How 829
mon@@ 826
ative 825
real 823
chan@@ 821
ach 819
understand 818
fa@@ 818
question 814
sub@@ 811
doesn 810
ness 810
ging 809
done 808
Th@@ 805
ser@@ 803
Now 802
always 802
ms 799
du@@ 798
ide@@ 797
ics 791
dic@@ 790
ill 790
bi@@ 788
any@@ 788
trying 786
mil@@ 785
10 782
ef@@ 782
den@@ 782
wi@@ 780
working 779
love 777
act 774
hi@@ 773
information 772
rec@@ 771
away 770
.@@ 766
may 763
million 762
ments 761
onal 760
f 758
line 753
light 752
ren@@ 751
ste@@ 751
tan@@ 750
ans 749
mis@@ 748
ore 745
whole 742
inv@@ 735
supp@@ 734
person 734
pres@@ 733
coming 731
power 731
ents 729
means 727
sol@@ 726
feel 726
pol@@ 725
believe 723
ry 723
cu@@ 723
"When 721
sig@@ 720
call 717
har@@ 717
ing@@ 717
mi@@ 716
ent@@ 715
ree@@ 714
ces 713
tin@@ 711
ye@@ 710
ard 709
produc@@ 706
stan@@ 705
took 705
help 705
maybe 704
energy 703
making 702
room 700
create 699
small 697
form 694
art 694
conne@@ 693
der@@ 692
country 692
land 689
all@@ 688
school 687
men@@ 686
i 684
dan@@ 684
dre@@ 683
go@@ 679
bre@@ 679
"There 677
ima@@ 677
pic@@ 677
imp@@ 675
four 674
ati@@ 673
thinking 673
per 672
wn 672
itu@@ 668
"T@@ 667
tor 667
men 666
pri@@ 665
second 665
tur@@ 663
times 661
wed 661
enough 660
ges 660
cy 659
become 659
everything 658
"W@@ 655
home 653
0@@ 653
getting 653
quite 651
val@@ 649
ick 648
best 648
&quot;" 648
sing 647
develop@@ 646
money 645
bac@@ 645
air 644
ome 644
without 644
cted 643
sto@@ 643
left 643
um 641
fun@@ 640
tive 639
ven@@ 637
ak@@ 637
"That 637
lan@@ 636
cen@@ 636
dri@@ 636
el 635
fu@@ 632
care 630
iting 629
side 628
set 628
book 628
future 626
equ@@ 626
comp@@ 625
fore@@ 624
ways 624
5@@ 624
respon@@ 624
five 623
number 623
ls 623
ari@@ 621
ten 621
high@@ 621
interesting 620
saw 620
et@@ 619
fic@@ 618
stu@@ 618
sense 616
ue 614
happened 611
science 609
! 609
rel@@ 606
win@@ 606
led 606
id 606
bio@@ 606
design 605
wh@@ 604
ines 604
tal@@ 602
case 601
"He 599
ive 598
4@@ 598
"H@@ 597
move 596
ba@@ 596
probably 595
ital 595
cul@@ 593
ore@@ 593
space 592
19@@ 591
lives 590
told 588
,000 588
effe@@ 586
ones 585
pas@@ 583
shi@@ 582
plic@@ 581
ner 579
shed 579
ned 577
ven 577
ture 576
countries 575
ices 575
pretty 574
coun@@ 574
family 573
talking 571
ously 571
che@@ 571
fic 570
kids 570
ality 570
social 569
Let 568
neur@@ 568
half 567
20@@ 564
days 563
living 562
ia 562
war@@ 562
clo@@ 561
cells 561
5 560
inte@@ 560
star@@ 560
seen 560
cer@@ 559
though 559
"E@@ 558
ance 557
50 557
sive 556
works 556
ism 556
makes 555
across 555
young 555
mor@@ 554
having 553
process 552
ability 551
"C@@ 551
son 551
prote@@ 551
blo@@ 550
such 548
car 548
ship 547
af@@ 546
not@@ 545
Well 545
anything 544
No 543
simple 543
while 542
gl@@ 542
"What 541
tru@@ 540
hand 540
dar@@ 539
serv@@ 539
speci@@ 538
ure 537
happen 537
sor@@ 536
wat@@ 536
des 536
stuff 535
art@@ 534
turn 533
dra@@ 533
reg@@ 533
ort 532
asked 532
ai@@ 531
experience 531
happens 530
wr@@ 529
stru@@ 528
city 527
hard 526
flo@@ 526
"M@@ 526
log@@ 525
20 524
♪ 523
dollars 521
order 519
"F@@ 519
disco@@ 519
building 518
possible 518
goes 517
top 516
In@@ 516
S 516
av@@ 515
wo@@ 514
7@@ 514
later 513
pat@@ 513
pi@@ 513
jo@@ 511
Y@@ 511
ace 510
ther@@ 510
ced 510
ask 510
ited 508
contin@@ 508
computer 507
ber@@ 506
face 506
nd 506
moment 506
community 505
amazing 505
single 504
hon@@ 503
suc@@ 501
fe 501
nu@@ 501
ders 500
myself 500
iden@@ 499
oc@@ 499
" 496
tion@@ 496
chi@@ 496
often 495
tures 495
ys 495
fr@@ 495
over@@ 495
ward 494
test 494
picture 493
says 493
build 492
almost 492
gest 492
plo@@ 491
already 491
fil@@ 491
looked 490
mind 490
Africa 489
stra@@ 488
head 488
Earth 488
inside 487
New 487
clas@@ 487
Re@@ 486
fici@@ 486
food 486
cts 484
lar@@ 484
high 484
Why 483
ban@@ 482
"Th@@ 482
res@@ 482
play 482
tem@@ 482
ged 480
grap@@ 480
clear 479
6@@ 479
both 479
planet 479
sum@@ 479
2 479
allo@@ 479
tro@@ 478
bly 478
health 478
remember 478
ton 477
nothing 477
stre@@ 476
else 476
bad 475
ights 474
far 472
whether 472
desig@@ 471
ions 470
acc@@ 470
vely 469
aliz@@ 468
table 468
bers 468
looks 468
ined 467
pen@@ 466
est 465
species 465
ear@@ 464
yet 464
basically 464
history 463
uni@@ 463
once 463
months 463
sim@@ 462
someone 462
dev@@ 461
"B@@ 461
reason 460
"For 460
answer 459
saying 459
ically 459
words 459
learn 458
ot 458
ong 457
est@@ 457
il 457
hope 456
wal@@ 456
woman 455
keep 455
diti@@ 454
mother 454
logy 454
cra@@ 454
ite@@ 453
public 453
enti@@ 453
dro@@ 453
duc@@ 453
200@@ 452
within 452
night 452
ase 452
dies 451
nature 451
doc@@ 450
dru@@ 450
tal 449
vil@@ 448
ler 448
ger@@ 445
ought 444
government 444
job 444
big@@ 443
typ@@ 443
imagine 443
billion 443
business 443
polit@@ 442
ols 442
incredi@@ 442
project 442
pp@@ 442
bab@@ 442
cep@@ 442
wrong 441
ian 441
phone 441
beautiful 440
30 439
bor@@ 438
six 437
ately 436
ns 436
child 436
open 436
ctive 436
ome@@ 436
gro@@ 435
hel@@ 435
produ@@ 434
places 433
read 433
tors 432
tun@@ 432
dig@@ 432
completely 432
friends 431
bring 431
matter 431
tely 430
ape 430
global 430
dly 429
decided 429
built 428
resu@@ 428
hy@@ 427
action 426
adv@@ 426
partic@@ 426
3 426
vis@@ 426
0s 425
res 425
incre@@ 424
Internet 424
dy 423
bas@@ 423
Ch@@ 423
cell 423
standing 422
study 422
ok@@ 421
feel@@ 421
fully 421
cos@@ 421
je@@ 421
loc@@ 420
kill@@ 420
group 420
exactly 420
dee@@ 419
ming 418
guy 418
9 417
"As 417
materi@@ 416
"L@@ 416
wasn 416
gets 416
compu@@ 416
level 415
appro@@ 415
ft 415
expe@@ 415
United 415
cess@@ 414
den 414
lec@@ 413
ber 413
These 413
view 413
ory 413
oper@@ 413
arly 412
house 412
control 412
7 412
against 411
0,000 411
da 411
problems 411
ut 411
net@@ 411
animals 410
&#91; 408
exc@@ 408
"I@@ 408
true 408
logical 407
olution 406
under 406
cle 406
ous@@ 406
&#93; 405
She 405
app@@ 404
stories 404
word 403
video 402
music 402
ki@@ 401
large 400
tation 400
An@@ 400
until 399
wer 399
kinds 399
iti@@ 398
ze 398
company 398
cancer 398
med 396
since 396
heard 396
cities 395
D 395
particular 395
society 394
taking 394
individu@@ 394
and@@ 394
ire 394
ffe@@ 394
tain@@ 394
ware 394
ky 394
up@@ 393
couple 393
ched 393
"Because 393
research 392
My 391
jects 391
ess 391
piece 391
isn 391
tle 390
ently 390
En@@ 390
ching 389
run 389
stop 389
nam@@ 389
prin@@ 389
ject 389
pan@@ 388
happening 387
inf@@ 387
of@@ 387
sy@@ 387
taken 386
mas@@ 386
ris@@ 386
organiz@@ 386
ack 385
ough@@ 384
learned 384
mot@@ 384
out@@ 383
ping 383
tial 383
’ 383
mu@@ 382
ams 382
name 382
expla@@ 382
sometimes 381
tting 381
lis@@ 381
hum@@ 381
sil@@ 381
kay 381
itself 380
ake 380
bur@@ 380
sts 379
communic@@ 379
see@@ 379
turns 379
America 379
dience 379
presen@@ 378
viol@@ 378
ties 378
ur 378
model 377
ideas 377
heart 377
Ar@@ 377
ples 375
soci@@ 375
disease 375
hor@@ 375
vered 375
black 374
cept 374
takes 374
bility 374
photograp@@ 374
ach@@ 373
ots 373
became 373
tual 373
ele@@ 372
created 372
couldn 372
hear 372
knew 372
some@@ 372
hun@@ 372
national 371
ling 371
share 371
mes@@ 371
States 371
matic@@ 371
experim@@ 371
must 370
front 370
changed 370
requ@@ 370
worked 370
dom 369
mer 369
huge 369
indus@@ 369
Ma@@ 369
questions 369
ner@@ 369
fas@@ 368
appe@@ 368
pt 368
00 368
lions 368
self 368
Because 367
off@@ 367
tent 366
4 366
vo@@ 366
India 365
lab@@ 365
language 365
yed 364
"N@@ 364
bro@@ 363
dge 363
hours 363
instead 363
ates 362
tor@@ 361
lin@@ 361
pris@@ 360
dou@@ 359
ope 359
machine 359
bed 359
century 359
key 358
seri@@ 358
t-@@ 358
entire 358
early 358
based 358
seem@@ 357
person@@ 357
vari@@ 357
structure 357
"D@@ 356
state 356
electr@@ 356
innov@@ 356
techno@@ 356
expl@@ 355
TED 355
known 355
bot@@ 354
least 354
war 354
education 353
organ@@ 353
teach@@ 353
everybody 352
ats 352
tribu@@ 352
ature 352
ser 352
everyone 351
acy 351
turned 351
fer@@ 351
others 351
China 350
rin@@ 350
natural 350
ground 349
themselves 349
parents 349
American 349
sym@@ 348
ple 347
ational 347
tern 346
One 346
tually 346
tom@@ 345
ote 345
mul@@ 345
inve@@ 345
bra@@ 345
ize 344
difficult 344
bri@@ 344
during 343
issue 343
100 343
fol@@ 343
jour@@ 343
vers@@ 342
shar@@ 342
ak 341
rather 341
ir 341
versity 341
kno@@ 340
micro@@ 340
far@@ 340
mos@@ 340
yp@@ 339
y-@@ 339
image 339
outside 338
itive 338
cha@@ 338
somebody 338
depen@@ 338
growth 337
Here 337
won 336
bil@@ 336
8 336
open@@ 336
Eur@@ 336
pain@@ 335
father 335
companies 334
ug@@ 334
cir@@ 333
our@@ 333
lim@@ 333
ular 333
cou@@ 332
fir@@ 332
olved 332
thousands 331
struc@@ 330
reas@@ 330
ed@@ 330
15 330
os 330
activ@@ 329
leave 329
"A 329
cost 329
along 328
arch@@ 328
behind 328
seeing 327
maj@@ 327
past 327
collec@@ 327
son@@ 327
pur@@ 327
Mus@@ 326
9@@ 326
given 326
"One 326
area 325
free 325
survi@@ 324
Be@@ 324
run@@ 324
market 323
sis@@ 323
ust 322
gram 322
int 322
ben@@ 322
ere 322
liter@@ 321
sions 321
gave 321
beginning 321
needed 321
difference 321
York 320
scale 320
environment 320
T 320
guys 320
fish 320
recor@@ 320
pap@@ 319
ces@@ 319
anima@@ 319
heal@@ 319
scre@@ 319
students 319
sl@@ 318
ator 318
lt 318
felt 318
size 318
decis@@ 317
foc@@ 317
close 317
oil 317
institu@@ 317
figure 317
1 316
sequ@@ 316
sible 316
eyes 316
perhaps 315
movi@@ 315
ker 315
happy 315
ali@@ 315
ourselves 315
moving 314
deca@@ 314
local 314
cle@@ 314
tot@@ 314
thy 314
died 314
third 314
universe 314
cial 313
news 313
her@@ 313
medi@@ 312
tical 312
blu@@ 312
tou@@ 311
ys@@ 310
poin@@ 310
cy@@ 310
population 309
ree 309
fo@@ 308
ich 308
ese 308
ei@@ 307
Con@@ 307
beli@@ 306
famil@@ 306
gin@@ 306
full 305
longer 305
met 304
norma@@ 304
lls 304
minutes 304
elec@@ 304
rest 304
pped 304
Oh 303
If 303
wards 302
terms 302
sound 302
oo@@ 302
finally 302
cal@@ 302
ost 302
inclu@@ 301
systems 301
comple@@ 301
surface 301
ident 301
plant 301
girl 301
cus@@ 300
re 300
shing 300
obvi@@ 300
Right 299
ank 299
squ@@ 299
possi@@ 299
reality 299
self-@@ 298
descri@@ 298
lots 298
6 298
wan@@ 298
extre@@ 298
friend 297
present 296
num@@ 296
ep@@ 296
ori@@ 296
row 295
economic 294
walk 294
"P@@ 294
easy 294
realiz@@ 294
chem@@ 294
quickly 294
ace@@ 294
consci@@ 294
d-@@ 293
atta@@ 293
bar@@ 292
powerful 292
phys@@ 292
All 292
learning 292
ka@@ 291
"My 291
ey@@ 291
needs 290
cks 290
insp@@ 290
De@@ 290
fer 290
Yeah 290
ens 289
ious 288
culture 288
Al@@ 288
care@@ 287
grow 287
engine@@ 287
relation@@ 287
comm@@ 287
anta@@ 286
8@@ 286
part@@ 286
hy 286
certain 285
range 285
ip@@ 285
mem@@ 285
hands 284
hos@@ 284
simply 284
wonderful 284
week 284
ches 284
stage 284
mat@@ 284
ike 283
dom@@ 283
trac@@ 283
stic 283
realized 283
white 282
om 282
amount 282
team 282
ption 282
perfe@@ 282
text 282
air@@ 282
born 281
sources 281
ures 281
lost 280
absolu@@ 280
movement 280
U.S@@ 280
solution 279
demo@@ 279
access 279
ocean 279
ook 279
molec@@ 279
economy 278
mental 278
ool 278
emot@@ 278
wers 278
memor@@ 278
wouldn 277
atten@@ 277
kers 277
In 277
sting 277
idence 277
patients 277
M 277
ime 276
impro@@ 276
e-@@ 276
parts 276
spend 276
weeks 276
humans 276
na@@ 276
hold 276
spre@@ 275
ences 275
whatever 275
ju@@ 275
predic@@ 275
stor@@ 275
physical 275
non@@ 275
ized 274
Nor@@ 274
gone 274
... 274
conside@@ 274
images 274
thers 273
telling 273
cam@@ 272
common 272
"&quot; 272
die 272
mag@@ 272
fied 272
sitting 271
od@@ 271
rely 271
tran@@ 271
God 271
verage 271
"These 271
follo@@ 270
speak 270
risk 270
ads 269
lies 269
climate 269
ners 269
game 269
seven 268
areas 268
lon@@ 268
les@@ 268
super@@ 268
charac@@ 268
yourself 268
knowledge 267
complex 267
essen@@ 267
curren@@ 267
smar@@ 267
tics 267
middle 266
scientists 266
ney 266
Just 265
ught 265
logies 265
B 265
bir@@ 265
inal 265
mus@@ 265
step 264
changes 264
People 263
Yes 263
behavior 263
deal 262
oke 262
llig@@ 262
tried 262
wit@@ 262
DNA 262
tan 261
vol@@ 261
vision 261
alone 261
challenge 261
bes 261
ar-@@ 261
force 261
perfor@@ 260
spent 260
book@@ 260
Z@@ 259
char@@ 259
thre@@ 259
Le@@ 259
dat@@ 258
P 258
des@@ 258
OK 258
cing 258
psy@@ 258
cannot 257
enga@@ 257
Wor@@ 257
compe@@ 257
aking 257
shows 256
lease 256
girls 256
like@@ 256
death 255
40 255
hundre@@ 255
poten@@ 255
ians 255
nit@@ 255
recogni@@ 255
peri@@ 255
field 254
oud 254
fund@@ 254
ik@@ 254
writ@@ 254
ordinary 254
sage 254
ining 253
box 253
began 253
inven@@ 253
sci@@ 253
green 253
write 253
every@@ 252
fail@@ 252
opportunity 252
source 251
nal 251
interested 251
C 250
nin@@ 250
nan@@ 250
econom@@ 249
ata@@ 248
dle 247
thr@@ 246
tech@@ 246
hen 246
pati@@ 246
hou@@ 245
lling 245
intere@@ 243
tim@@ 242
soun@@ 242
whe@@ 240
usu@@ 240
issu@@ 238
fig@@ 238
ee@@ 238
marke@@ 238
sear@@ 238
cent 237
gin 236
eas@@ 235
got@@ 234
challen@@ 234
ban 234
exam@@ 233
,@@ 233
robot@@ 233
fur@@ 232
vel 232
commun@@ 232
pop@@ 232
med@@ 232
sma@@ 230
u 230
sou@@ 229
sug@@ 229
differen@@ 228
yon@@ 227
ame 227
teria 226
La@@ 224
onto 223
ound 223
gine 222
ran 222
iness 220
oss 219
ope@@ 219
contro@@ 218
G 218
experi@@ 217
12 217
ths 217
happ@@ 216
nor@@ 216
tar@@ 216
tory 216
grou@@ 214
11 214
60 214
fun 214
)@@ 214
Google 214
his@@ 213
can@@ 213
tain 213
san@@ 211
ath 209
gen 209
Ph@@ 208
mer@@ 207
stand 207
develo@@ 206
media 206
bat@@ 206
rap@@ 205
199@@ 205
inst@@ 204
iru@@ 204
ready 203
secon@@ 203
search 203
Q@@ 202
too@@ 201
ide 201
won@@ 200
25 200
ma 199
Afr@@ 198
tas@@ 198
are@@ 198
buil@@ 198
environ@@ 197
ey 196
amen@@ 196
ina@@ 196
plac@@ 196
gle 195
don@@ 195
K 195
kin@@ 195
F 194
ough 194
zer@@ 194
mode@@ 194
lear@@ 194
stem 193
ah 192
ton@@ 192
ird 192
ans@@ 191
very@@ 190
imate 190
oka@@ 190
z 190
mou@@ 190
ano@@ 188
mach@@ 188
ughter 188
bon 187
fam@@ 186
scri@@ 186
side@@ 185
hu@@ 185
ren 184
rs 184
bit@@ 183
foo@@ 183
bun@@ 182
para@@ 180
80 180
cent@@ 180
ican 179
cause 179
call@@ 179
kin 179
bus@@ 178
exper@@ 178
Chin@@ 178
ut@@ 177
ho 177
mom@@ 176
pie@@ 176
ybe 176
gan@@ 175
cess 175
minu@@ 175
amera 175
ich@@ 175
fore 174
ses@@ 173
gy 172
kee@@ 172
studen@@ 172
id@@ 172
importan@@ 170
clu@@ 169
ta 168
shou@@ 168
ime@@ 168
read@@ 168
Amer@@ 167
shin@@ 166
rit@@ 165
mit@@ 164
bin@@ 164
olu@@ 164
CA 164
500 163
ff 163
mam@@ 162
ulation 162
ara@@ 161
O 161
Sta@@ 161
gar@@ 160
sun 160
teri@@ 160
mig@@ 159
R 159
tai@@ 157
solu@@ 156
ugh@@ 156
asu@@ 155
atte@@ 154
rai@@ 154
HIV 153
publi@@ 153
din@@ 153
ick@@ 152
ety 152
ideo 152
date 152
mid@@ 152
ince 151
was@@ 150
ily 150
ie 150
V 149
rom 149
ult 149
U.@@ 149
Pe@@ 149
dia 149
H 149
mir@@ 149
sing@@ 148
forma@@ 147
oi@@ 147
hit@@ 147
18 146
lly 146
my@@ 145
govern@@ 143
18@@ 143
ell 143
demon@@ 142
ame@@ 142
him@@ 142
verse 141
oto@@ 141
dise@@ 141
sch@@ 140
eve 140
nar@@ 140
une 140
ably 139
mee@@ 139
198@@ 138
ama 138
pon@@ 137
ind@@ 136
tiv@@ 135
ation@@ 135
gor@@ 134
sel@@ 133
sam@@ 133
thin@@ 132
E 132
..@@ 132
but@@ 132
ra 132
70 131
ends 129
net 128
ane 128
sha@@ 128
/ 127
ility 127
ya 127
rou@@ 125
&apos;@@ 125
ron@@ 125
14 124
16 124
ided 124
wo 124
cour@@ 123
tries 123
X@@ 122
stead 122
200 121
era 121
member 121
Goo@@ 119
ow 118
!@@ 117
TE@@ 117
wee@@ 116
chil@@ 115
sted 115
beau@@ 115
hal@@ 114
L 114
shu@@ 112
doll@@ 112
has@@ 112
age@@ 110
educ@@ 110
ky@@ 110
ldn 108
main@@ 108
ural 108
behavi@@ 106
ona@@ 106
wha@@ 106
scient@@ 106
oce@@ 105
90 104
set@@ 103
fri@@ 103
hid@@ 101
ale 101
nat@@ 101
tee@@ 100
photo@@ 100
begin@@ 99
reco@@ 99
aria 98
ury 98
fus@@ 98
ita@@ 98
nee@@ 97
sit@@ 96
opportun@@ 96
wonder@@ 96
you@@ 96
mak@@ 96
oto 95
ana 95
inta@@ 94
sume 94
illion 94
aran@@ 94
lob@@ 92
gun 92
mic@@ 92
hen@@ 92
econ@@ 92
q 91
tach@@ 90
formation 90
lit@@ 90
uring 89
vement 89
un 89
ha 89
bli@@ 89
f-@@ 88
dn 88
quot@@ 87
mod@@ 87
zen 87
youn@@ 86
ordin@@ 85
ener@@ 85
ne 84
ano 84
$ 83
tate 83
hat@@ 82
mok@@ 82
amer@@ 82
nak@@ 82
shak@@ 82
Inter@@ 81
fron@@ 81
oni@@ 79
gover@@ 79
ku@@ 78
tat@@ 76
ue@@ 76
glob@@ 75
simp@@ 75
hig@@ 75
ina 75
sen 75
cer 75
power@@ 74
shir@@ 74
mur@@ 74
ja@@ 73
ea 73
ume 72
sat@@ 72
iron@@ 72
spon@@ 72
logi@@ 72
wer@@ 71
wake 71
prob@@ 71
ita 70
igu@@ 69
ken@@ 68
ure@@ 68
engin@@ 68
ica 68
haps 67
W 67
ile 67
omot@@ 67
ken 65
maz@@ 65
ino@@ 65
na 65
moto@@ 64
ito@@ 64
ket@@ 63
kit@@ 63
shipp@@ 63
omo@@ 63
dor@@ 63
langu@@ 62
quest@@ 62
dec@@ 61
N 61
Ap@@ 61
hin@@ 60
bo 60
velo@@ 59
dai@@ 58
jun@@ 58
- 58
iki@@ 58
ole 57
gan 57
wou@@ 56
dif@@ 56
amoun@@ 55
0 55
yo@@ 55
U 55
ze@@ 54
gun@@ 54
ka 54
amaz@@ 53
selves 53
ara 53
chu@@ 52
tems 52
nai@@ 52
ba 52
nano@@ 52
oe 52
rare@@ 52
ipp@@ 51
hi 51
ai 50
ake@@ 49
itan@@ 48
za 48
v 48
eld 47
divi@@ 47
kis@@ 47
tere@@ 47
tori@@ 47
recog@@ 47
hai 46
ron 46
J 45
Y 45
igat@@ 44
tak@@ 44
diffic@@ 44
zen@@ 43
sha 43
ae 43
awa@@ 43
oso@@ 43
izen 42
ook@@ 42
ker@@ 42
uma 42
compan@@ 41
nov@@ 41
ani 41
uke 41
dan 41
&@@ 40
ima 40
han 40
ino 40
gir@@ 39
sour@@ 39
dren 39
ato@@ 38
X 38
ura 38
au 37
mono@@ 37
Ear@@ 36
sa 36
iro 35
wak@@ 35
ri 35
NA 35
♫@@ 34
ga 34
yo 34
onna 34
Ye@@ 34
izon 34
ii 34
tty 33
til 33
beauti@@ 33
proble@@ 32
wok@@ 32
ata 32
ok 32
gur@@ 32
oma 32
ini 31
ro 31
ora@@ 31
your@@ 31
uk@@ 31
oton@@ 31
omo 31
tome 31
gether 30
ono@@ 30
zan@@ 30
tari@@ 30
ode 30
mon 30
iron 30
ato 30
them@@ 29
tsu@@ 29
with@@ 29
ema 29
é@@ 29
ew 28
é 27
ari 27
anat@@ 27
eru@@ 27
know@@ 27
bet@@ 27
ki 27
yone 26
sore@@ 26
hat 26
á@@ 26
q@@ 26
HI@@ 26
node 26
knowle@@ 25
ain@@ 25
mite 25
bai 24
mi 24
tever 24
obi 24
impor@@ 24
_ 24
zu@@ 23
ji@@ 23
tta 23
ke 22
aren@@ 22
Q 22
ware@@ 22
bi 22
ito 22
ou 22
ya@@ 21
hak@@ 21
mise 21
eru 21
+ 21
yun@@ 21
wom@@ 21
tok@@ 21
plause 20
yar@@ 20
sai@@ 20
= 20
kir@@ 20
oro@@ 20
thousan@@ 19
zon@@ 19
sak@@ 19
za@@ 19
sar@@ 19
beha@@ 18
nom@@ 18
aga@@ 18
tte 18
ko@@ 18
imon@@ 18
jo 17
tta@@ 17
Z 17
hik@@ 17
jan@@ 17
gi 16
reb@@ 16
ja 16
ori 16
ora 16
í@@ 16
wa 16
^ 16
pa 16
ando 16
ross 15
oko 15
Yor@@ 15
grow@@ 15
ike@@ 15
imi 15
nou@@ 15
shi 15
abe 15
mo 14
toi@@ 14
bu 14
ko 14
env@@ 14
imon 14
isa 14
ni 14
chi 14
chin 14
demo 14
kat@@ 14
aa@@ 14
oug@@ 14
apos@@ 13
iro@@ 13
kan@@ 13
♪@@ 13
yu@@ 13
ween 13
ono 13
ira 13
ami 13
esn 12
hir@@ 12
bou@@ 12
arer@@ 12
usan 12
ç@@ 12
som@@ 12
asa 12
fferen@@ 12
uto@@ 12
tte@@ 12
noz@@ 12
kite 11
hai@@ 11
ã@@ 11
inst 11
thou@@ 11
odor@@ 11
kon@@ 11
dare 11
aka 11
actly 11
ö@@ 11
iy@@ 11
ei 11
zo 11
hind 10
chok@@ 10
look@@ 10
tos@@ 10
bak@@ 10
gat@@ 10
aru@@ 10
bai@@ 9
ika 9
ura@@ 9
è@@ 9
oso 9
kar@@ 9
rano 9
wake@@ 8
sate 8
nan 8
oru@@ 8
ó@@ 8
fu 8
nis@@ 7
oni 7
ji 7
yor@@ 7
gu 7
otte@@ 7
owa 7
% 7
umen 7
dai 7
motto 7
aha 6
ashi@@ 6
ñ@@ 6
shit@@ 6
—@@ 6
omi 6
á 6
usa 6
runo@@ 6
iu@@ 6
isu@@ 6
hou 6
iki 6
osa 6
uke@@ 6
chir@@ 5
tto 5
tei 5
e. 5
nag@@ 5
yat@@ 5
chin@@ 5
oku@@ 5
umi 5
mani 5
uri 5
aku 5
oi 5
aru 5
seis@@ 5
amo 5
shun@@ 5
quick@@ 4
@ 4
zu 4
iri 4
made@@ 4
aku@@ 4
das@@ 4
yak@@ 4
aa 4
aik@@ 4
dividu@@ 4
san 4
rete@@ 4
mono 4
imo@@ 4
ika@@ 4
oro 4
shim@@ 4
ru 4
000 4
;@@ 4
stems 4
kon 4
heik@@ 4
iku 4
jin@@ 4
ō 4
hin 4
iu 4
inai 4
eba 3
supi@@ 3
² 3
fut@@ 3
reru@@ 3
mina 3
happen@@ 3
iwa 3
hay@@ 3
# 3
tame@@ 3
aide@@ 3
igen 3
kou@@ 3
tari 3
shii 3
nited 3
ado 3
– 3
atari 3
mora@@ 3
mata 3
aba 3
oka 3
otto 3
etto 3
&#93@@ 3
aka@@ 3
oshi 2
bou 2
dou 2
hok@@ 2
tane 2
uru 2
imo 2
ô@@ 2
aga 2
kata@@ 2
shu 2
ui 2
nen 2
yu 2
reta 2
ï@@ 2
buk@@ 2
ø@@ 2
nik@@ 2
nado 2
uto 2
saki 2
sei@@ 2
atte 2
jik@@ 2
otte 2
tato 2
à 2
igo 2
ó 2
iken@@ 2
aki 2
sono@@ 2
iku@@ 2
è 2
mada 2
taka 2
itte 2
dek@@ 2
sho 2
sek@@ 1
amu 1
‘ 1
a. 1
nen@@ 1
kara@@ 1
sumu 1
mie 1
urai 1
jit@@ 1
desu@@ 1
bun 1
awa 1
É@@ 1
oya 1
chik@@ 1
atsu@@ 1
∇ 1
τ 1
oshi@@ 1
tano@@ 1
uka 1
beki 1
haha@@ 1
haha 1
meni 1
mou 1
mata@@ 1
masen 1
jin 1
kot@@ 1
muk@@ 1
shig@@ 1
jou 1
shus@@ 1
sei 1
tair@@ 1
tachi@@ 1
hikari 1
suk@@ 1
” 1
sou 1
ople 1
kom@@ 1
iten 1
yaku@@ 1
suko 1
£ 1
usan@@ 1
eki 1
iken 1
gai 1
nani 1
imono 1
woo 1
ii@@ 1
imu 1
doku 1
aino@@ 1
kou 1
igi 1
toki 1
sok@@ 1
gawa 1
yos@@ 1
û@@ 1
ě@@ 1
ī@@ 1
nai 1
j 1
esu 1
ddo 1
aruk@@ 1
tato@@ 1
ë@@ 1
kan 1
sui 1
ikan@@ 1
* 1
akir@@ 1
isu 1
\ 1
shuk@@ 1
shin 1
zure 1
isha 1
miz@@ 1
