, 118942
the 77506
." 51721
. 49087
to 49060
of 45534
a 45177
and 42558
that 35225
in 31271
I 29294
is 26256
it 24834
you 23732
&quot; 22003
&apos;s 21895
we 21816
this 16264
on 12599
was 12442
are 11873
for 11242
have 10828
they 10112
with 9580
"And 9071
— 9063
at 9051
can 9046
an 8715
&apos;t 8525
what 8505
be 8447
ed 8435
re@@ 8406
as 8361
ing 8086
about 8058
And 7782
all 7722
in@@ 7345
es 7159
or 7158
not 7130
s@@ 7026
e@@ 6953
do 6730
one 6710
b@@ 6660
d@@ 6630
my 6616
l@@ 6545
&apos;re 6493
t@@ 6477
there 6437
m@@ 6355
like 6339
-@@ 6304
i@@ 6248
f@@ 6000
from 5992
so 5978
p@@ 5964
our 5955
people 5903
? 5770
me 5706
c@@ 5585
but 5558
g@@ 5523
: 5512
just 5503
o@@ 5455
) 5447
en@@ 5369
very 5308
ar@@ 5251
h@@ 5251
st@@ 5150
a@@ 5019
out 4957
S@@ 4912
"So 4866
by 4827
these 4820
if 4803
al 4784
r@@ 4704
s 4650
us 4643
an@@ 4579
up 4521
know 4513
more 4490
going 4473
them 4461
had 4344
u@@ 4332
ac@@ 4319
e 4280
when 4199
al@@ 4186
because 4174
( 4172
y@@ 4127
It 4126
w@@ 4033
were 4001
think 3988
he 3988
see 3983
how 3978
er 3969
er@@ 3942
their 3937
y 3936
So 3851
li@@ 3840
which 3838
n@@ 3836
your 3773
get 3767
ate 3756
time 3741
who 3734
would 3719
M@@ 3673
tion 3660
really 3652
on@@ 3598
C@@ 3584
t 3564
B@@ 3562
v@@ 3519
&apos;ve 3515
here 3505
ation 3467
&apos;m 3399
way 3386
or@@ 3386
un@@ 3380
con@@ 3376
where 3366
ts 3353
di@@ 3323
has 3295
th@@ 3285
actually 3272
then 3263
ro@@ 3257
We 3242
ent 3222
some 3212
at@@ 3198
world 3170
don 3165
will 3160
"I 3132
now 3112
ers 3094
k@@ 3090
ly 3063
de@@ 3057
Laughter 3034
years 3031
?" 2989
into 2987
as@@ 2967
ti@@ 2933
ri@@ 2923
it@@ 2914
o 2913
The 2885
could 2873
able 2857
go 2841
D@@ 2804
other 2797
been 2788
P@@ 2774
make 2769
sh@@ 2755
things 2733
el@@ 2703
"But 2638
A@@ 2627
m 2627
os@@ 2608
ex@@ 2603
want 2586
le@@ 2571
ap@@ 2560
T@@ 2554
ad@@ 2506
ra@@ 2505
right 2486
something 2484
But 2470
en 2460
n 2448
than 2411
G@@ 2403
thing 2395
ic@@ 2393
much 2391
first 2373
ds 2284
said 2280
those 2274
sp@@ 2269
"It 2264
two 2243
work 2233
also 2232
no 2224
back 2182
H@@ 2179
si@@ 2177
This 2173
me@@ 2167
k 2162
om@@ 2138
th 2133
lo@@ 2128
"The 2127
ting 2127
se@@ 2101
got 2082
es@@ 2078
"@@ 2077
little 2072
"We 2068
ag@@ 2064
over 2059
ul@@ 2053
ated 2052
E@@ 2051
even 2048
de 2047
"Now 2047
le 2046
only 2046
ec@@ 2039
d 2037
look 2024
tions 2006
am@@ 2002
us@@ 2000
co@@ 1998
ot@@ 1996
life 1994
ve 1992
ur@@ 1992
many 1990
tr@@ 1987
x@@ 1986
ous 1983
You 1981
most 1974
its 1970
her 1969
im@@ 1966
R@@ 1950
she 1946
say 1934
L@@ 1931
p 1914
ma@@ 1901
ally 1899
op@@ 1893
ab@@ 1892
his 1892
take 1885
need 1882
lot 1878
str@@ 1852
new 1850
ch@@ 1849
ted 1848
F@@ 1839
age 1833
se 1832
day 1824
did 1819
W@@ 1815
ks 1814
kind 1809
Applause 1808
z@@ 1804
ar 1785
be@@ 1783
come 1741
around 1738
use 1736
ter 1735
il@@ 1721
ine 1716
um@@ 1706
different 1705
N@@ 1703
qu@@ 1702
we@@ 1699
ter@@ 1698
red 1688
O@@ 1683
through 1681
They 1675
"In 1659
par@@ 1655
same 1650
j@@ 1639
ic 1636
pro@@ 1630
is@@ 1618
ou@@ 1611
down 1609
good 1608
ity 1595
est 1592
ance 1591
ver@@ 1583
ol@@ 1580
g 1566
&apos;ll 1557
l 1548
sa@@ 1540
every 1537
sc@@ 1532
pl@@ 1529
to@@ 1524
end 1523
ph@@ 1518
ir@@ 1513
ne@@ 1501
ding 1501
vi@@ 1499
ha@@ 1498
te@@ 1495
tive 1490
em@@ 1487
"( 1483
ant 1482
being 1475
That 1473
lic@@ 1471
any 1464
pre@@ 1457
h 1448
no@@ 1447
J@@ 1443
inter@@ 1436
tic 1434
put 1422
fi@@ 1420
cl@@ 1416
doing 1415
ci@@ 1412
king 1405
bi@@ 1399
What 1399
per@@ 1396
gu@@ 1387
; 1383
mo@@ 1382
ence 1380
po@@ 1376
percent 1370
su@@ 1367
ta@@ 1357
wor@@ 1355
bo@@ 1344
called 1336
ment 1332
i 1329
la@@ 1329
et 1328
made 1325
♫ 1323
ations 1321
&apos;d 1320
K@@ 1312
"This 1299
1@@ 1296
I@@ 1280
ded 1279
"You 1268
three 1262
change 1261
for@@ 1255
fact 1252
ect 1250
year 1250
tell 1249
used 1248
ents 1239
der 1237
am 1237
fe@@ 1236
ves 1227
ob@@ 1224
find 1221
sion 1220
hi@@ 1220
ating 1217
ary 1215
ver 1213
pe@@ 1212
well 1212
ge 1206
ty 1199
als 1192
ice 1191
let 1186
human 1184
started 1172
why 1169
pa@@ 1165
gh@@ 1163
ans 1156
better 1149
tu@@ 1145
ent@@ 1140
"O@@ 1137
tri@@ 1136
today 1132
"If 1131
Thank 1131
tra@@ 1127
dis@@ 1127
own 1124
ev@@ 1122
ad 1121
didn 1119
great 1119
cor@@ 1117
body 1115
ess@@ 1113
c 1113
br@@ 1112
ings 1107
after 1096
st 1092
before 1092
ins 1089
idea 1089
ies 1088
less 1086
still 1081
old 1081
ons 1079
important 1078
big 1076
do@@ 1072
talk 1067
min@@ 1063
"They 1060
ties 1054
ever 1053
ked 1052
together 1052
ms 1049
last 1046
gre@@ 1044
thought 1039
place 1038
exp@@ 1038
problem 1033
ge@@ 1033
ch 1032
car@@ 1031
au@@ 1031
went 1030
off 1027
should 1025
V@@ 1024
another 1023
A 1022
bit 1021
part 1019
ru@@ 1019
next 1019
There 1018
cr@@ 1016
system 1014
wi@@ 1012
ying 1010
id 1005
never 1000
,000 999
ical 998
el 995
ago 993
ke 992
mar@@ 991
give 991
fac@@ 990
story 989
bu@@ 987
try 984
technology 983
course 983
0 983
ose 983
cre@@ 980
might 979
water 976
few 973
him 970
sho@@ 969
again 968
data 968
ws 966
brain 961
ors 956
each 953
sts 951
ved 950
women 950
gen@@ 949
start 945
ce 944
ni@@ 943
b 940
"S@@ 937
fin@@ 936
comp@@ 933
came 932
low 930
does 930
"A@@ 927
show 925
found 922
ps 917
tre@@ 916
ful 911
wa@@ 908
man 903
too 902
produc@@ 901
mean 901
pres@@ 899
w 898
example 896
tic@@ 895
between 893
"Well 893
using 893
act 892
ay 884
gra@@ 882
mon@@ 880
pri@@ 877
so@@ 877
point 874
gi@@ 872
wing 872
bl@@ 871
he@@ 871
looking 871
ure 867
cho@@ 866
ates 862
ters 861
ear@@ 847
sort 844
ke@@ 841
2@@ 841
les 840
live 840
ble 840
gr@@ 840
wanted 836
light 833
&apos; 832
children 832
He 832
cap@@ 831
How 829
and@@ 823
understand 821
the@@ 820
fa@@ 820
long 819
pr@@ 817
question 814
ning 811
real 810
doesn 810
sub@@ 808
done 807
ist 807
ce@@ 806
Th@@ 806
ay@@ 806
Now 802
always 802
il 802
ill@@ 800
ness 798
fl@@ 793
tion@@ 791
x 788
trying 786
ther 783
10 782
man@@ 779
working 779
sk@@ 777
ing@@ 777
love 776
rec@@ 776
ite 775
oc@@ 775
go@@ 774
away 773
information 772
trans@@ 770
ser@@ 768
wh@@ 766
.@@ 766
ones 765
may 763
million 762
Ch@@ 759
r 756
all@@ 756
um 753
ast 747
ome 746
line 745
inv@@ 744
ght 742
whole 742
ang@@ 740
cri@@ 740
times 737
por@@ 734
person 734
ore 733
power 731
oun@@ 730
means 727
feel 726
believe 723
"When 721
ving 719
sig@@ 718
call 717
sing 717
sur@@ 714
et@@ 713
ia 712
ill 711
ali@@ 710
ther@@ 709
uc@@ 709
ong 706
3@@ 706
help 705
took 704
maybe 704
energy 703
making 702
ry 702
room 701
create 699
prot@@ 699
small 697
land 696
high@@ 694
app@@ 693
country 692
coll@@ 688
tional 687
tly 686
els 686
com@@ 683
pic@@ 681
comes 679
ase 679
"There 677
form 675
tw@@ 675
four 674
thinking 673
school 671
loc@@ 670
dre@@ 668
wn 668
dec@@ 667
ig@@ 667
"T@@ 667
possible 662
ory 661
enough 660
har@@ 659
become 659
men 659
second 659
everything 658
ses 657
comm@@ 654
home 653
getting 653
plan@@ 652
quite 651
best 648
&quot;" 648
ines 648
money 645
ir 644
ell@@ 644
without 644
off@@ 643
des@@ 643
left 643
mis@@ 642
ach 641
art 641
pi@@ 640
ve@@ 639
sed 637
"That 637
sure 637
id@@ 634
gener@@ 634
dri@@ 632
care 630
equ@@ 630
book 628
ess 627
future 626
son 625
ways 624
respon@@ 624
ell 624
ger 624
five 623
number 623
20@@ 623
interesting 620
saw 620
ability 619
sec@@ 616
sense 616
side 615
hard 614
iz@@ 613
ics 613
iting 612
der@@ 612
happened 611
science 609
! 609
ask 608
ately 606
up@@ 606
read 606
design 605
bio@@ 604
cer@@ 601
case 600
set 600
"He 599
led 597
ot 597
move 596
probably 595
ices 594
space 592
ten@@ 591
struc@@ 590
lives 590
ely 588
told 588
fore@@ 587
ously 587
coming 586
tor 586
ste@@ 586
ality 584
ack 581
"L@@ 580
war@@ 578
countries 575
any@@ 575
pretty 574
ran@@ 574
social 573
te 573
family 573
jo@@ 572
stri@@ 572
mat@@ 572
talking 571
ner 570
kids 570
per 570
half 567
coun@@ 566
5 565
gs 565
tal@@ 564
ster 564
sen@@ 564
mem@@ 564
eff@@ 563
living 562
ga@@ 560
seen 560
though 559
"E@@ 558
50 557
mag@@ 557
having 556
works 556
makes 555
across 555
young 555
cont@@ 555
tics 554
sup@@ 554
cur@@ 554
sive 553
process 552
cha@@ 551
ped 551
ven 550
pos@@ 550
rou@@ 549
U@@ 549
such 548
ist@@ 545
Well 545
tical 545
anything 544
ici@@ 544
cells 544
No 543
simple 543
while 542
ture 542
du@@ 542
"What 541
dic@@ 541
ghts 540
ected 540
hand 540
"B@@ 539
eng@@ 537
ber@@ 537
happen 537
Y@@ 537
turn 536
asked 536
sm@@ 536
stuff 535
days 531
att@@ 531
men@@ 531
ship 531
experience 531
happens 530
ca@@ 529
bas@@ 528
enti@@ 527
"M@@ 526
car 525
Wh@@ 525
ven@@ 524
order 524
In@@ 524
sum@@ 524
20 524
anc@@ 524
dra@@ 523
♪ 523
serv@@ 521
dollars 521
hel@@ 521
ood 520
f 520
"F@@ 519
int@@ 519
tim@@ 518
building 518
aff@@ 518
goes 517
ement 517
bro@@ 517
res@@ 517
ard 516
top 516
S 516
city 515
ank 515
200@@ 514
later 513
ass 512
des 512
ace 511
sions 511
ited 511
na@@ 511
ments 510
tis@@ 509
contin@@ 508
computer 507
face 506
moment 506
community 505
cam@@ 505
cen@@ 505
amazing 505
lar@@ 504
single 504
myself 500
ling 499
imp@@ 499
end@@ 498
duc@@ 498
oo@@ 497
col@@ 496
ue 496
fe 496
often 495
picture 493
deci@@ 493
says 493
ed@@ 493
build 492
tures 492
fra@@ 492
almost 492
already 491
ach@@ 490
looked 490
4 490
Africa 489
mind 489
head 488
Earth 488
inside 487
New 487
logy 487
cra@@ 486
ome@@ 486
food 486
cu@@ 485
aliz@@ 484
high 484
Why 483
"Th@@ 482
play 482
ep@@ 482
ically 482
8 482
"C@@ 480
enc@@ 479
both 479
planet 479
2 479
est@@ 478
health 478
remember 478
nothing 477
else 476
bad 475
arti@@ 474
ently 473
ery 473
allo@@ 473
whether 472
ined 471
far 470
over@@ 470
poli@@ 469
flo@@ 469
pas@@ 469
fic 468
direc@@ 468
looks 468
doc@@ 467
ele@@ 467
star@@ 465
species 465
under@@ 464
yet 464
basically 464
history 463
once 463
months 463
expl@@ 462
someone 462
reason 460
"For 460
answer 459
saying 459
fer@@ 459
words 459
learn 458
hope 456
wal@@ 456
4@@ 455
ick 455
woman 455
19@@ 455
keep 455
mother 454
public 453
oper@@ 453
ens 453
ences 452
within 452
7@@ 452
ism 452
dies 451
nature 451
ight 450
wed 449
tru@@ 447
cul@@ 447
ow 447
action 447
ft 445
os 445
res 444
government 444
job 444
imagine 443
billion 443
bre@@ 443
business 443
acy 442
project 442
exc@@ 442
vir@@ 442
wrong 441
phone 441
Let 440
beautiful 440
emp@@ 439
ative 439
fu@@ 439
30 439
sta@@ 437
six 437
child 436
open 436
hy@@ 436
develop@@ 434
places 433
ily 432
completely 432
friends 431
bring 431
ape 431
matter 431
ree 430
ns 430
9@@ 430
ages 430
global 430
lead@@ 430
decided 428
built 428
table 428
organiz@@ 428
An@@ 428
tation 427
3 426
St@@ 426
bly 425
incre@@ 424
shed 424
night 424
Internet 424
spec@@ 423
kers 422
ases 422
study 422
6 422
stu@@ 421
ular 421
fully 421
ink 420
group 420
ous@@ 420
cep@@ 420
exactly 420
ential 419
ff@@ 419
guy 418
9 417
level 417
"As 417
wasn 416
gets 416
appro@@ 415
United 415
ars 415
These 413
view 413
control 412
7 412
ain@@ 412
stories 412
against 411
house 411
problems 411
ise 411
ker 410
ain 410
animals 410
"P@@ 408
&#91; 408
under 408
ber 408
ort 408
true 408
logical 407
sli@@ 407
tici@@ 406
&#93; 405
ion 405
tur@@ 405
She 405
wat@@ 404
fic@@ 403
bri@@ 403
word 403
gl@@ 403
ive 402
win@@ 402
dr@@ 402
video 402
music 402
adv@@ 401
large 400
val@@ 400
ree@@ 399
until 399
wer 399
kinds 399
ping 399
company 398
cancer 398
gg@@ 397
cell 397
ori@@ 396
ut@@ 396
tice 396
since 396
heard 396
D 395
particular 395
ss 394
society 394
provi@@ 394
her@@ 394
ounds 393
"Because 393
ective 393
tors 392
taking 392
clos@@ 392
couple 392
lea@@ 392
bra@@ 392
research 392
My 391
cities 391
ten 391
jects 391
piece 391
isn 391
tle 390
ple 390
ur 389
run 389
ast@@ 389
stop 389
ject 389
happening 387
ton 387
ats 385
sti@@ 385
learned 384
tivity 383
requ@@ 383
’ 383
name 382
sometimes 381
ire 381
itself 380
turns 379
America 379
ate@@ 378
ots 378
Ar@@ 378
aw@@ 378
stra@@ 377
ching 377
model 377
ant@@ 377
ideas 377
heart 377
taken 376
ched 376
ples 375
soci@@ 375
"H@@ 375
disease 375
pol@@ 375
black 374
cept 374
cle 374
ale 374
consi@@ 374
photograp@@ 374
bor@@ 373
became 373
tual 373
created 372
couldn 372
hear 372
knew 372
national 371
bar@@ 371
ide@@ 371
some@@ 371
States 371
experim@@ 371
must 370
lim@@ 370
front 370
changed 370
worked 370
dom 369
share 369
huge 369
questions 369
ari@@ 368
meas@@ 368
Because 367
ned 367
ey 367
av@@ 367
electr@@ 367
ys 366
appe@@ 366
ital 365
India 365
inst@@ 365
hor@@ 365
"N@@ 365
language 365
sol@@ 364
ld 364
communic@@ 363
China 363
ze 363
bur@@ 363
hours 363
instead 363
ese 362
key 361
sion@@ 361
machine 359
century 359
entire 358
early 358
sor@@ 358
bed 358
nam@@ 358
ner@@ 358
prof@@ 357
tom@@ 357
dy 357
structure 357
based 357
ection 357
"D@@ 356
self 356
form@@ 355
u 355
TED 355
known 355
least 354
ering 354
state 353
education 353
everybody 352
dge 352
turned 352
tically 352
ature 352
everyone 351
ak 351
sel@@ 351
others 351
vari@@ 350
yp@@ 350
natural 350
pu@@ 350
out@@ 349
ground 349
themselves 349
parents 349
American 349
dist@@ 348
ind 348
ator 348
war 348
sym@@ 348
Re@@ 347
cop@@ 347
connec@@ 346
far@@ 346
One 346
ual 346
tually 346
e-@@ 345
see@@ 345
sil@@ 345
outh 344
difficult 344
dro@@ 344
tain@@ 344
ourselves 344
pul@@ 343
100 343
jour@@ 343
air 342
ark 342
uses 342
rather 341
reg@@ 339
kno@@ 338
mus@@ 338
outside 338
somebody 338
growth 337
posed 337
Here 337
won 336
ene@@ 336
vo@@ 336
neur@@ 336
"Wh@@ 335
ext 335
rest 335
chan@@ 335
father 335
log@@ 334
companies 334
int 334
image 334
stor@@ 333
speci@@ 332
acc@@ 332
dent 332
cir@@ 331
ects 331
ening 331
thousands 331
pot@@ 331
size 331
during 330
list@@ 330
15 330
rop@@ 330
leave 329
"A 329
50@@ 329
mor@@ 329
cost 329
emo@@ 329
along 328
micro@@ 328
behind 328
seeing 327
past 327
run@@ 327
engine@@ 327
scienti@@ 327
fol@@ 327
t-@@ 326
ented 326
given 326
"One 326
foc@@ 326
fo@@ 326
elec@@ 326
ming 326
conf@@ 325
re 325
area 325
ho@@ 325
ash@@ 325
free 325
survi@@ 324
5@@ 324
pur@@ 324
tively 323
ote 323
suc@@ 323
market 323
cos@@ 323
ust 322
Au@@ 322
gave 321
beginning 321
needed 321
difference 321
ize 320
York 320
scale 320
environment 320
"W@@ 320
T 320
tem@@ 320
guys 320
ple@@ 320
fir@@ 319
heal@@ 319
scre@@ 319
grap@@ 319
kay 319
fish 319
students 319
air@@ 318
felt 318
oil 318
1 317
close 317
sequ@@ 317
institu@@ 317
pt 317
figure 317
flu@@ 316
ath 316
eyes 316
takes 315
perhaps 315
happy 315
ord 315
moving 314
tou@@ 314
local 314
thy 314
died 314
third 314
universe 314
medi@@ 313
Al@@ 313
uni@@ 312
af@@ 312
ool 312
news 312
curr@@ 312
y-@@ 311
cal@@ 311
ands 310
population 309
possi@@ 308
beli@@ 307
Con@@ 307
ey@@ 307
che@@ 307
resi@@ 306
ich 306
bility 306
full 305
longer 305
evol@@ 305
met 304
chem@@ 304
minutes 304
ook 304
anci@@ 303
civi@@ 303
ants 303
famili@@ 303
Oh 303
test 303
If 303
beg@@ 303
inc@@ 302
V 302
ju@@ 302
ency 302
terms 302
sound 302
od 302
finally 302
illed 302
ost 302
om 301
inclu@@ 301
systems 301
sible 301
comple@@ 301
surface 301
plant 301
girl 301
wards 300
ared 300
perf@@ 300
obvi@@ 300
bot@@ 299
Right 299
squ@@ 299
dd@@ 299
lots 299
reality 299
ining 298
self-@@ 298
rel@@ 298
descri@@ 298
sim@@ 298
extre@@ 298
sour@@ 297
friend 297
present 296
anti@@ 296
ures 296
hol@@ 295
row 295
shi@@ 295
economic 294
nec@@ 294
walk 294
easy 294
ake 294
quickly 294
unities 293
leg@@ 293
ass@@ 293
6@@ 292
powerful 292
kes 292
phys@@ 292
All 292
learning 292
ki@@ 291
"My 291
sted 291
imag@@ 291
needs 290
ues 290
deli@@ 290
Yeah 290
ye@@ 290
lab@@ 289
ban@@ 289
poin@@ 288
consci@@ 288
patter@@ 287
tot@@ 287
grow 287
relation@@ 287
dep@@ 286
8@@ 286
culture 286
ills 285
certain 285
surpri@@ 285
trac@@ 285
ound@@ 284
zed 284
care@@ 284
hands 284
simply 284
partic@@ 284
wonderful 284
week 284
mi@@ 284
stage 284
hon@@ 283
lan@@ 283
disco@@ 283
brea@@ 283
wr@@ 283
colle@@ 283
realized 283
white 282
trav@@ 282
amount 282
team 282
cy@@ 282
ric@@ 282
ination 281
our@@ 281
illi@@ 281
dom@@ 281
born 281
ending 281
back@@ 281
func@@ 281
lost 280
movement 280
solution 279
access 279
ocean 279
patients 279
molec@@ 279
priv@@ 279
economy 278
ith 278
bel@@ 278
" 278
wers 278
rela@@ 277
demo@@ 277
wouldn 277
ond 277
In 277
ption 277
med 277
M 277
parts 276
weeks 276
humans 276
Eng@@ 276
whatever 275
predic@@ 275
inf@@ 275
telling 275
mental 275
physical 275
0@@ 274
part@@ 274
... 274
images 274
ious 273
ets 273
thers 273
identi@@ 273
Nor@@ 273
gone 273
stud@@ 273
Is@@ 272
common 272
"&quot; 272
die 272
ater 272
fied 272
ered 272
sitting 271
God 271
sha@@ 271
ol 271
"These 271
follo@@ 270
speak 270
peri@@ 270
non@@ 270
risk 270
ners 269
game 269
unch 269
play@@ 268
climate 268
seven 268
areas 268
fil@@ 268
charac@@ 268
yourself 268
knowledge 267
complex 267
smar@@ 267
ace@@ 267
ads 266
mer 266
spend 266
middle 266
scientists 266
ney 266
Just 265
B 265
bir@@ 265
sis 265
step 264
changes 264
desig@@ 264
condi@@ 264
ople 264
cat@@ 263
regi@@ 263
Pe@@ 263
Yes 263
behavior 263
deal 262
cle@@ 262
vol@@ 262
ere 262
tried 262
wit@@ 262
DNA 262
eight 261
manag@@ 261
alone 261
challenge 261
utting 260
dol@@ 260
mod@@ 260
tain 260
spent 260
hold 260
thre@@ 260
Z@@ 259
ental 259
read@@ 259
antly 258
P 258
OK 258
bene@@ 258
astic 258
writ@@ 258
versity 258
psy@@ 258
cannot 257
o-@@ 257
wan@@ 257
lies 257
shows 256
fr@@ 256
dical 256
girls 256
logi@@ 256
death 255
40 255
sting 255
recogn@@ 255
pain@@ 254
fas@@ 254
wer@@ 254
lev@@ 254
tiv@@ 254
field 254
ordinary 254
box 253
began 253
ories 253
fundam@@ 253
era 253
green 253
write 253
every@@ 252
super@@ 252
fail@@ 252
opportunity 252
tradi@@ 251
ingly 251
ists 251
preci@@ 251
nal 251
Music 251
interested 251
lish 251
force 251
C 250
prac@@ 250
ells 250
ggest 250
Okay 250
growing 250
dem@@ 249
tools 249
incredible 249
econom@@ 249
defin@@ 249
perform@@ 249
clear 248
low@@ 248
fav@@ 248
def@@ 248
den@@ 248
computers 248
grand@@ 248
ky 247
multi@@ 246
feet 246
ults 246
Do 246
ution 245
op 245
mer@@ 245
audience 245
understanding 244
developed 244
ends 244
Fr@@ 244
char@@ 244
technologies 244
tech@@ 244
prom@@ 243
forward 243
ea@@ 243
value 243
ged 243
"At 242
ball 242
"She 242
realize 242
ush 242
situ@@ 241
sit 241
emer@@ 241
ial 241
archit@@ 241
can@@ 241
buy 241
program 241
numbers 241
visu@@ 241
cut 241
changing 240
ign 240
abo@@ 240
ash 240
gene@@ 240
vision 240
effici@@ 240
gest 240
ore@@ 240
U.S. 240
medic@@ 240
blood 240
dou@@ 239
anding 239
ward 239
roc@@ 239
typ@@ 239
rely 239
hundreds 239
produce 239
site 238
sex 238
intellig@@ 238
seems 237
revol@@ 237
brought 237
fortun@@ 237
creating 237
color 237
blue 237
discovered 237
bes 237
vie@@ 237
ep 237
year-@@ 237
mos@@ 237
either 236
solve 236
fear 236
ators 236
hop@@ 236
ches 236
evolution 236
tural 236
likely 236
progra@@ 236
oss 235
ging 235
alls 235
miles 235
explain 235
spea@@ 235
radi@@ 235
0s 234
esp@@ 234
mean@@ 234
Jo@@ 234
suff@@ 234
sea 234
tin@@ 234
exam@@ 233
organ@@ 233
animal 233
anal@@ 233
ken 233
challeng@@ 233
met@@ 233
rate 233
ban 233
average 233
Is 233
issue 232
support 232
uck 232
dev@@ 232
pan@@ 232
network 232
pop@@ 232
open@@ 232
mil@@ 231
que 231
gar@@ 231
exist@@ 231
moved 231
ularly 231
cars 231
comb@@ 231
zy 231
fly 231
sear@@ 231
eas@@ 231
fur@@ 230
impro@@ 230
attention 230
pression 230
pose 230
digital 230
gic 230
differ@@ 229
sever@@ 229
ried 229
result 229
compe@@ 229
Gre@@ 229
ades 229
"In@@ 229
terri@@ 229
rules 229
allow 229
paper 228
neigh@@ 228
press 228
sust@@ 228
tiny 228
oms 228
political 227
ile 227
bers 227
device 227
az@@ 227
human@@ 227
asking 227
violence 227
ester@@ 226
ili@@ 226
giving 226
baby 226
free@@ 226
feeling 226
urity 225
reasons 225
d-@@ 225
starting 225
iness 225
industry 225
pay 225
dru@@ 225
ute 224
sudd@@ 224
bigger 224
stop@@ 224
chi@@ 224
fit 224
anyone 224
books 224
onto 223
tro@@ 223
literally 223
orig@@ 223
choice 223
fast 223
lon@@ 223
ut 223
millions 223
ian 222
univer@@ 222
patient 222
"Here 222
ran 222
ces 221
hosp@@ 221
morning 221
ans@@ 221
material 221
nuclear 221
head@@ 220
ade 220
entially 220
illing 220
lab 220
ause 220
plants 220
bab@@ 220
mas@@ 219
mine 219
mechan@@ 219
class 219
degre@@ 219
contro@@ 218
recently 218
od@@ 218
individual 218
cent 218
secre@@ 218
hear@@ 218
nor@@ 218
depend@@ 218
film 218
G 218
wrote 217
experi@@ 217
inspi@@ 217
Li@@ 217
ships 217
ational 217
teach@@ 217
absolutely 217
conv@@ 217
When 217
my@@ 217
12 217
Europe 217
ths 217
religi@@ 216
board 216
Mo@@ 216
bottom 216
happ@@ 216
yes 216
tiz@@ 216
pen@@ 216
posi@@ 216
avail@@ 215
oph@@ 215
ils 215
ef 215
proper@@ 215
watch 215
grou@@ 214
hood 214
60 214
nd 214
extra@@ 214
fun 214
bs 214
ack@@ 214
innovation 214
playing 214
scri@@ 214
)" 214
Google 214
11 213
ba@@ 213
transp@@ 213
ny 213
map 213
major 213
sof@@ 213
ony 213
ority 212
"All 212
inten@@ 212
becomes 212
eci@@ 212
dly 212
showed 212
ah 212
media 212
rit@@ 212
ances 211
ls 211
main 211
den 211
syn@@ 211
lear@@ 211
success@@ 210
fy 210
solar 210
bacteria 210
conversa@@ 209
movie 209
World 209
sle@@ 209
Le@@ 209
oot 208
involved 208
cess@@ 208
inal 208
ma 208
designed 207
bal@@ 207
vacc@@ 207
ush@@ 207
kets 207
generation 207
resources 207
ech 207
kid 207
rais@@ 207
deep@@ 207
moder@@ 206
issu@@ 206
personal 206
nice 206
princi@@ 206
irst 206
special 206
ames 206
stand@@ 205
connected 205
type 205
lived 205
199@@ 205
achi@@ 205
robot 205
similar 205
message 205
fem@@ 205
nu@@ 205
normal 204
mark@@ 204
stre@@ 204
position 204
deep 204
No@@ 204
evidence 204
stand 204
invest@@ 204
effect 204
street 203
ready 203
ish 203
speed 203
theory 203
term 203
teach 203
mathema@@ 203
hand@@ 203
comfor@@ 203
drugs 203
mu@@ 202
tar@@ 202
Q@@ 202
Su@@ 202
publi@@ 202
wish 202
,@@ 200
ols 200
Uni@@ 200
bit@@ 198
buil@@ 198
clu@@ 197
gh 197
environ@@ 197
Afr@@ 196
plac@@ 196
bus@@ 195
Ma@@ 195
25 195
K 195
F 194
son@@ 193
incredi@@ 193
stem 193
ably 192
ird 192
govern@@ 191
secon@@ 191
ulation 191
cent@@ 191
duce 191
very@@ 190
z 190
Un@@ 190
fam@@ 189
ys@@ 189
sing@@ 189
port 188
ll 188
aughter 188
tun@@ 187
hund@@ 186
gro@@ 185
igh@@ 185
osp@@ 185
materi@@ 184
und@@ 183
gn@@ 182
Chin@@ 181
mach@@ 180
HI@@ 179
"I@@ 179
exper@@ 178
fri@@ 178
arly 177
30@@ 177
individu@@ 176
mom@@ 176
10@@ 176
fun@@ 176
thous@@ 176
spe@@ 175
search 175
sy@@ 175
ican 174
cess 174
devel@@ 174
ult 174
call@@ 174
fore 174
bec@@ 173
prin@@ 173
gy 172
minut@@ 172
aps 171
import@@ 170
ince 170
ff 170
ould 169
omes 169
piec@@ 169
ine@@ 169
ord@@ 168
clim@@ 168
underst@@ 167
Amer@@ 167
net@@ 167
ick@@ 165
sch@@ 165
mation 165
ole 165
ules 165
educ@@ 164
CA 164
ama@@ 163
zing 163
tran@@ 163
throu@@ 162
198@@ 162
pat@@ 162
cou@@ 161
ays 161
O 161
eri@@ 160
ural 160
R 159
dle 158
18@@ 156
sity 155
hum@@ 155
org@@ 155
mid@@ 154
person@@ 152
ety 152
whe@@ 152
won@@ 152
viol@@ 151
augh@@ 150
rom 149
U.@@ 149
H 149
ograp@@ 148
infor@@ 146
stry 146
reco@@ 146
60@@ 145
indu@@ 145
ound 145
wonder@@ 144
compu@@ 144
40@@ 143
80 143
ouse 143
dia 143
innov@@ 142
ris@@ 142
dise@@ 141
eve 140
power@@ 139
ech@@ 139
Ap@@ 138
tting 138
hu@@ 138
ply 138
dat@@ 137
vered 137
phot@@ 137
uring 136
aper 135
loo@@ 134
dience 134
ough 134
stitu@@ 133
tter 133
thin@@ 132
E 132
..@@ 132
divi@@ 132
sit@@ 131
mess@@ 129
En@@ 129
solu@@ 128
eling 128
fund@@ 128
/ 127
net 127
of@@ 126
&apos;@@ 125
AI@@ 125
arch@@ 125
ful@@ 125
econ@@ 123
X@@ 122
stead 122
reli@@ 121
dig@@ 121
reas@@ 121
illions 121
member 121
lit@@ 121
Eu@@ 119
ours 118
ury 118
!@@ 117
nov@@ 117
Mus@@ 116
cour@@ 115
maj@@ 114
beau@@ 114
L 114
chil@@ 113
197@@ 112
liter@@ 112
ordin@@ 111
quot@@ 111
techno@@ 110
lob@@ 108
ouldn 108
behavi@@ 106
movi@@ 106
iP@@ 105
mul@@ 104
oce@@ 102
mic@@ 101
fel@@ 101
hal@@ 100
spi@@ 100
norm@@ 99
NA@@ 99
conver@@ 99
resp@@ 98
invol@@ 98
TED@@ 98
00@@ 98
nee@@ 97
opport@@ 96
nat@@ 94
een 93
kin@@ 93
illion 93
ener@@ 92
100@@ 91
was@@ 91
q 91
dn 88
Inter@@ 86
youn@@ 86
ne 84
$ 83
dence 83
interest@@ 82
17@@ 81
fron@@ 81
bac@@ 81
tries 80
fig@@ 79
thou@@ 77
prob@@ 77
glob@@ 76
pub@@ 75
mov@@ 75
evi@@ 75
vide@@ 75
sh 74
fiel@@ 73
resour@@ 73
bacter@@ 72
ility 71
wee@@ 70
bloo@@ 70
elling 69
ei@@ 68
15@@ 67
haps 67
robo@@ 67
W 67
langu@@ 62
ica 62
N 61
vern@@ 59
ame 59
- 58
are@@ 56
12@@ 56
amoun@@ 55
num@@ 55
U 55
stems 55
anim@@ 53
realiz@@ 52
atten@@ 50
ail@@ 48
v 48
f-@@ 47
sci@@ 46
boo@@ 46
25@@ 45
J 45
Y 45
port@@ 44
lig@@ 44
diffic@@ 44
Wor@@ 43
ems 43
16@@ 42
ques@@ 41
&@@ 40
U.S@@ 40
compan@@ 39
dren 39
may@@ 38
X 38
pret@@ 38
verage 38
Ear@@ 36
ou 36
what@@ 36
simil@@ 35
them@@ 35
ancer 35
♫@@ 34
rope 34
,00@@ 33
nucle@@ 33
11@@ 33
til 33
proble@@ 32
inning 32
pati@@ 32
gger 32
commun@@ 32
ew 31
beauti@@ 31
gether 30
unity 30
gir@@ 30
mol@@ 30
diff@@ 30
ima@@ 29
know@@ 29
with@@ 29
é@@ 29
é 27
uch 27
rought 27
del 26
quick@@ 26
Goo@@ 26
á@@ 26
q@@ 26
knowle@@ 25
selves 24
_ 24
Yor@@ 23
Q 22
solutely 22
500@@ 22
logies 21
+ 21
plause 20
= 20
like@@ 20
acr@@ 20
wom@@ 19
TE@@ 19
thema@@ 19
beha@@ 18
beh@@ 18
tom 18
Z 17
í@@ 16
hundre@@ 16
^ 16
apos@@ 15
echan@@ 15
ellig@@ 15
grow@@ 15
som@@ 15
year@@ 14
♪@@ 13
viron@@ 13
ucle@@ 13
esn 12
ç@@ 12
chang@@ 12
Goog@@ 12
ok 11
enge 11
ã@@ 11
actly 11
ö@@ 11
tween 9
è@@ 9
ó@@ 8
% 7
eah 6
ñ@@ 6
tely 6
—@@ 6
lars 6
á 6
ourself 5
@ 4
dividu@@ 4
;" 4
nex@@ 4
ō 4
² 3
happen@@ 3
# 3
DNA@@ 3
– 3
&#93@@ 3
ô@@ 2
ï@@ 2
ø@@ 2
à 2
ó 2
è 2
again@@ 2
‘ 1
É@@ 1
∇ 1
τ 1
chall@@ 1
” 1
£ 1
û@@ 1
ě@@ 1
ī@@ 1
j 1
ë@@ 1
* 1
\ 1
