の@@ 48463
を@@ 35622
に@@ 29610
が@@ 24877
は@@ 22786
は 16289
です 15695
で@@ 13161
と@@ 13018
に 10751
い@@ 10638
を 10307
この@@ 10005
な@@ 9969
が 9934
で 9291
、 9162
も@@ 8810
「 8015
」 7989
の 7668
や@@ 7543
か@@ 7537
その@@ 7110
る@@ 6949
く@@ 6831
する@@ 6695
し@@ 6632
り@@ 6134
から@@ 5981
？ 5953
ン@@ 5896
と 5784
ス@@ 5671
した@@ 5546
・ 5433
ル@@ 5403
た@@ 5092
ー@@ 5034
し 4857
き@@ 4839
った@@ 4809
人@@ 4789
） 4752
ア@@ 4731
（ 4687
ない@@ 4469
。 4373
リ@@ 4301
という@@ 4163
て@@ 4155
う@@ 4105
もの@@ 4059
って@@ 4049
には@@ 3824
でも@@ 3779
ラ@@ 3738
私は@@ 3706
します 3643
年@@ 3571
的な@@ 3530
のです 3511
して@@ 3462
れ@@ 3457
しました 3442
お@@ 3435
大@@ 3435
イ@@ 3417
す@@ 3389
出@@ 3350
え@@ 3334
ト@@ 3334
ました 3325
には 3323
マ@@ 3318
ら@@ 3301
でしょう 3282
これは@@ 3278
て 3217
事@@ 3213
一@@ 3208
そして@@ 3154
さ@@ 3147
も 3139
では@@ 3137
でした 3125
的@@ 3085
カ@@ 3076
見@@ 3066
み@@ 3044
か 3023
ま@@ 3011
生@@ 2975
何@@ 2942
ある@@ 2937
つ@@ 2915
のは 2890
バ@@ 2886
国@@ 2871
だ@@ 2860
る 2855
め@@ 2820
ク@@ 2751
者@@ 2740
ロ@@ 2733
笑 2722
では 2718
こと@@ 2693
しています 2685
から 2684
や 2657
シ@@ 2652
って 2649
り 2637
体@@ 2624
私の@@ 2588
― 2583
け@@ 2552
知@@ 2546
っている@@ 2540
わ@@ 2530
どう@@ 2528
コ@@ 2507
行@@ 2484
ます 2463
今@@ 2461
して 2457
している@@ 2443
レ@@ 2438
それ@@ 2430
を見@@ 2424
ません 2410
数@@ 2396
い 2386
力@@ 2368
手@@ 2352
作@@ 2352
っています 2342
家@@ 2319
あ@@ 2306
合@@ 2296
考え@@ 2284
できる@@ 2260
そう@@ 2228
中@@ 2222
学@@ 2215
日@@ 2211
地@@ 2205
方@@ 2198
ッ@@ 2198
上@@ 2195
ています 2174
分@@ 2170
ジ@@ 2170
性@@ 2170
オ@@ 2169
だけ@@ 2164
ド@@ 2154
ビ@@ 2124
プ@@ 2104
える@@ 2101
パ@@ 2095
世界@@ 2094
ている@@ 2093
用@@ 2081
ウ@@ 2080
心@@ 2074
( 2061
時@@ 2058
エ@@ 2042
１@@ 2041
ですが 2038
ミ@@ 2037
) 1998
不@@ 1995
タ@@ 1995
び@@ 1995
にも@@ 1989
ナ@@ 1967
これ@@ 1959
ブ@@ 1956
私が@@ 1955
物@@ 1955
言@@ 1954
ない 1943
りました 1936
気@@ 1906
でも 1892
にな@@ 1884
います 1872
化@@ 1869
発@@ 1863
ります 1860
問題@@ 1858
1@@ 1854
本@@ 1844
ると 1842
キ@@ 1840
度@@ 1835
ダ@@ 1834
ン 1833
れる@@ 1826
ック@@ 1800
チ@@ 1798
成@@ 1795
話@@ 1790
いた@@ 1785
3@@ 1774
拍手 1768
っ@@ 1760
目@@ 1754
2@@ 1749
下@@ 1747
会@@ 1746
ん@@ 1742
ール@@ 1732
無@@ 1720
ること@@ 1717
メ@@ 1707
入@@ 1695
しい@@ 1695
るの@@ 1690
ガ@@ 1685
後@@ 1684
人の@@ 1683
モ@@ 1674
水@@ 1674
について@@ 1668
達@@ 1666
ことが@@ 1664
ニ@@ 1662
フ@@ 1651
てい@@ 1650
ことを@@ 1649
点@@ 1647
た 1641
せ@@ 1631
とても@@ 1620
の人@@ 1619
ート@@ 1611
られ@@ 1604
回@@ 1592
ボ@@ 1591
グ@@ 1591
があります 1590
ー 1588
ものです 1581
より@@ 1577
がある@@ 1573
からです 1567
内@@ 1560
テ@@ 1556
く 1554
部@@ 1549
立@@ 1549
され@@ 1549
ますが 1541
なのです 1522
間@@ 1519
高@@ 1513
でき@@ 1510
それは@@ 1508
む@@ 1501
外@@ 1498
研究@@ 1497
法@@ 1492
スト@@ 1480
つの@@ 1478
まで@@ 1476
ち@@ 1474
ズ@@ 1472
こう@@ 1468
前@@ 1465
子@@ 1462
サ@@ 1456
ベ@@ 1454
ノ@@ 1453
じ@@ 1445
してい@@ 1444
イン@@ 1444
的に@@ 1443
場@@ 1438
動@@ 1429
自分@@ 1426
所@@ 1425
私たちは@@ 1424
だ 1420
同じ@@ 1418
車@@ 1418
ム@@ 1413
理@@ 1411
思@@ 1410
ってい@@ 1409
業@@ 1395
ことです 1392
として@@ 1387
させ@@ 1385
いました 1383
れば 1381
同@@ 1377
ような@@ 1377
技術@@ 1367
ティ@@ 1358
先@@ 1356
セ@@ 1355
しかし@@ 1354
ソ@@ 1353
定@@ 1347
よう@@ 1344
する 1343
ター@@ 1343
２@@ 1340
皆さん@@ 1334
方法@@ 1332
4@@ 1332
デ@@ 1331
万@@ 1331
私@@ 1328
ポ@@ 1327
ハ@@ 1325
げ@@ 1315
ここ@@ 1314
ット@@ 1314
こ@@ 1312
された@@ 1303
リー@@ 1303
対@@ 1302
形@@ 1299
と言@@ 1293
期@@ 1291
5@@ 1288
ード@@ 1287
海@@ 1285
れた@@ 1280
を持@@ 1274
当@@ 1272
明@@ 1270
来@@ 1266
社会@@ 1263
ね 1263
ず@@ 1259
実@@ 1250
きました 1248
よ 1247
いい@@ 1247
だった@@ 1238
通@@ 1235
必要@@ 1234
ピ@@ 1233
聞@@ 1231
大きな@@ 1230
たい@@ 1230
になる@@ 1228
起こ@@ 1227
なく@@ 1226
の中@@ 1225
— 1224
すること@@ 1224
これが@@ 1223
時間@@ 1223
なかった@@ 1220
ケ@@ 1210
った 1210
ので 1206
自@@ 1204
面@@ 1201
そして 1196
ゴ@@ 1193
こんな@@ 1191
解@@ 1185
使@@ 1181
場所@@ 1179
女性@@ 1178
とは@@ 1173
ンの@@ 1168
んです 1168
ように 1167
書@@ 1167
得@@ 1166
進@@ 1165
新しい@@ 1164
ではありません 1164
感じ@@ 1164
３@@ 1162
ように@@ 1161
連@@ 1159
現@@ 1157
を作@@ 1152
： 1152
もし@@ 1150
&quot; 1148
ではなく 1140
ける@@ 1138
でしょうか 1136
あります 1131
出来@@ 1127
子供@@ 1121
光@@ 1120
たち@@ 1114
ば@@ 1113
あり@@ 1112
死@@ 1109
語@@ 1105
他の@@ 1102
音@@ 1100
脳@@ 1100
リア@@ 1094
意@@ 1088
ところ@@ 1087
制@@ 1087
き 1085
ご@@ 1083
ング@@ 1082
彼は@@ 1081
有@@ 1081
できます 1079
ら 1075
長@@ 1073
である@@ 1071
な 1070
例@@ 1070
ということです 1069
しか@@ 1067
データ@@ 1067
ル 1063
良い@@ 1063
多くの@@ 1063
アメリカ@@ 1060
観@@ 1058
ス 1058
確@@ 1057
え 1055
電@@ 1055
しかし 1054
として 1052
機@@ 1051
んだ@@ 1051
ラン@@ 1041
のは@@ 1040
れ 1038
結@@ 1035
ライ@@ 1035
道@@ 1034
質@@ 1032
集@@ 1029
続@@ 1027
また@@ 1027
込@@ 1026
ほど@@ 1026
全@@ 1025
持@@ 1022
他@@ 1021
ネ@@ 1014
色@@ 1013
人間@@ 1011
ツ@@ 1011
自分の@@ 1009
へ@@ 1009
われ@@ 1003
素@@ 1001
られる@@ 1000
戦@@ 997
ます@@ 991
地球@@ 991
次@@ 990
身@@ 990
何か@@ 988
てく@@ 984
感@@ 980
金@@ 979
思い@@ 977
とな@@ 976
ワ@@ 975
20@@ 975
二@@ 974
になります 974
なる@@ 969
に行@@ 967
残@@ 967
人々@@ 964
非常に@@ 961
意味@@ 961
分か@@ 960
着@@ 959
なの@@ 959
科学@@ 959
強@@ 958
を使@@ 958
取@@ 957
もっと@@ 957
最も@@ 954
ップ@@ 951
もう@@ 947
経済@@ 946
直@@ 946
ありません 945
重@@ 944
どの@@ 943
のか 943
最@@ 940
々@@ 935
にある@@ 934
写真@@ 934
など@@ 932
それが@@ 932
私たちの@@ 928
指@@ 927
可能@@ 924
線@@ 924
とき@@ 922
スの@@ 919
きます 918
教@@ 916
どこ@@ 912
素晴らしい@@ 912
少@@ 910
私たち@@ 910
生き@@ 906
んで@@ 905
理解@@ 899
S@@ 895
かけ@@ 895
表@@ 891
始め@@ 891
料@@ 889
量@@ 889
足@@ 888
存在@@ 886
それを@@ 885
ぶ@@ 884
空@@ 884
正@@ 881
器@@ 881
向@@ 881
共@@ 880
加@@ 880
ませんでした 879
限@@ 879
ホ@@ 877
食@@ 875
真@@ 875
以@@ 875
運@@ 874
人が@@ 874
べき@@ 873
しく@@ 873
少し@@ 873
だと@@ 872
頭@@ 869
ント@@ 869
ロー@@ 867
約@@ 866
信@@ 866
なら 864
上げ@@ 859
ろ@@ 859
置@@ 856
変@@ 855
彼らは@@ 855
話を@@ 854
よく@@ 851
これらの@@ 848
小さな@@ 848
かに@@ 846
細胞@@ 844
主@@ 843
6@@ 842
検@@ 842
関係@@ 839
元@@ 836
ため@@ 835
システム@@ 835
示@@ 834
言葉@@ 833
相@@ 832
関@@ 829
情報@@ 829
本当に@@ 829
ーの@@ 827
かった@@ 827
断@@ 826
たのです 825
ないのです 823
増@@ 821
ペ@@ 821
どんな@@ 819
ただ@@ 817
統@@ 816
こと 815
とも@@ 815
女@@ 815
ることが@@ 814
新@@ 814
0@@ 813
役@@ 811
文@@ 811
広@@ 810
7@@ 809
僕@@ 809
医@@ 808
変化@@ 807
した 807
そこ@@ 807
生活@@ 806
コン@@ 806
父@@ 805
ていました 803
について 803
理由@@ 801
速@@ 800
と思@@ 800
者の@@ 799
9@@ 799
転@@ 798
代@@ 797
保@@ 797
つけ@@ 797
ース@@ 795
ましょう 795
ことは 794
D@@ 794
取り@@ 793
離@@ 793
そんな@@ 792
平@@ 791
きた@@ 790
公@@ 790
このような@@ 788
億@@ 787
ドル@@ 786
近@@ 785
権@@ 784
影響@@ 781
ディ@@ 780
チャ@@ 780
という 779
まだ@@ 779
誰@@ 778
全て@@ 778
想@@ 777
ですね 777
自然@@ 776
C@@ 775
仕事@@ 773
そこで@@ 771
フィ@@ 767
選@@ 767
薬@@ 766
であ@@ 765
収@@ 765
される@@ 765
交@@ 763
ど@@ 763
そ@@ 762
私たちが@@ 762
設@@ 759
10@@ 759
図@@ 758
私は 757
月@@ 756
環境@@ 755
める@@ 755
への@@ 754
視@@ 753
風@@ 753
論@@ 752
時 750
試@@ 750
歩@@ 749
かもしれません 749
結果@@ 748
働@@ 747
のような@@ 746
伝@@ 746
説明@@ 746
都市@@ 745
間 742
特@@ 741
重要な@@ 738
なら@@ 738
0年@@ 738
命@@ 733
8@@ 733
と思います 731
失@@ 730
け 729
てください 728
これを@@ 728
ために 727
悪@@ 727
流@@ 725
ましたが 724
なん@@ 724
すると 722
う 721
サイ@@ 719
ませんが 718
に関@@ 717
答え@@ 717
再@@ 716
を受け@@ 712
母@@ 712
側@@ 711
行動@@ 708
解決@@ 706
見え@@ 704
種@@ 704
するの@@ 703
読@@ 703
応@@ 702
待@@ 701
ージ@@ 701
プロ@@ 700
いて 700
いて@@ 700
アフリカ@@ 699
での@@ 695
決@@ 694
違@@ 694
千@@ 694
ゲ@@ 694
彼女@@ 693
ったのです 691
ド 689
バー@@ 689
なく 688
初@@ 688
大な@@ 687
星@@ 687
ことは@@ 686
やり@@ 686
安@@ 685
住@@ 684
生物@@ 683
切@@ 682
彼ら@@ 681
があ@@ 681
フォ@@ 680
しましょう 679
！ 678
ンド@@ 677
ファ@@ 677
信じ@@ 677
違い@@ 677
民@@ 676
地域@@ 674
によって 673
くな@@ 671
第@@ 671
彼@@ 671
今日@@ 670
によ@@ 670
要@@ 670
ヒ@@ 670
毎@@ 669
人生@@ 668
親@@ 667
名@@ 667
200@@ 666
ュ@@ 666
小@@ 666
ですから 666
リン@@ 665
ますか 665
力を@@ 664
予@@ 664
愛@@ 664
キャ@@ 663
減@@ 663
全く@@ 662
ジャ@@ 662
動物@@ 662
状況@@ 661
皆@@ 661
経験@@ 661
シャ@@ 660
ニュー@@ 660
” 657
ュー@@ 656
画@@ 655
とは 654
ていた@@ 654
格@@ 654
なぜ@@ 653
ません@@ 653
イル@@ 653
付@@ 653
政府@@ 652
起@@ 651
であり 651
多@@ 651
にも 651
% 651
放@@ 651
よ@@ 650
出す@@ 649
個@@ 648
ような 646
適@@ 645
熱@@ 645
然@@ 643
に入@@ 643
組織@@ 643
何が@@ 642
品@@ 642
ーム@@ 642
突@@ 641
実際@@ 641
だから@@ 641
レー@@ 640
ことを 639
A@@ 638
極@@ 637
宇宙@@ 637
ではない@@ 635
P@@ 632
られた@@ 631
位@@ 630
っていました 630
ね@@ 629
重要@@ 629
受@@ 628
証@@ 628
いる@@ 628
年の@@ 627
周@@ 627
優@@ 627
活動@@ 626
多く@@ 626
おり 625
続け@@ 625
利@@ 624
んだ 624
るのです 624
時代@@ 623
してく@@ 623
エネルギー@@ 623
絶@@ 622
カー@@ 622
可能性@@ 622
にとって@@ 621
大き@@ 621
発見@@ 621
組み@@ 620
ジェ@@ 620
後 619
単@@ 618
様@@ 617
クリ@@ 615
型@@ 615
売@@ 613
あなた@@ 612
目の@@ 610
かか@@ 608
デザイン@@ 608
男性@@ 608
さん@@ 608
深@@ 605
員@@ 605
とい@@ 605
ありがとうございました 605
細@@ 604
我々は@@ 603
T@@ 603
ず 603
ト 603
容@@ 602
現在@@ 601
♫ 600
部分@@ 599
何を@@ 598
想像@@ 597
以上@@ 596
実験@@ 596
常@@ 594
全ての@@ 594
配@@ 594
家族@@ 593
望@@ 593
べ@@ 592
原@@ 592
好き@@ 592
I@@ 591
しない@@ 591
会社@@ 591
界@@ 590
育@@ 590
赤@@ 589
％ 589
投@@ 589
送@@ 589
経@@ 587
まず@@ 587
成長@@ 586
認@@ 585
系@@ 585
たり@@ 584
していました 584
スを@@ 583
ぐ@@ 583
れました 583
M@@ 583
付け@@ 582
別の@@ 582
まれ@@ 582
口@@ 581
前に@@ 581
したい@@ 580
とき 577
00@@ 576
教え@@ 576
わけ@@ 575
ち 575
別@@ 574
資@@ 574
構@@ 573
変わ@@ 573
これら@@ 573
ここで@@ 572
工@@ 571
自身@@ 570
立ち@@ 570
始@@ 570
らない@@ 569
つまり 569
異@@ 569
学者@@ 569
てしま@@ 568
難@@ 568
タイ@@ 568
ほ@@ 567
簡単@@ 566
程@@ 565
移@@ 565
演@@ 565
室@@ 565
人たち@@ 564
学校@@ 564
引き@@ 564
にお@@ 562
４@@ 562
です@@ 562
能@@ 562
描@@ 561
作品@@ 561
５@@ 560
判@@ 560
ギ@@ 560
開@@ 559
実際に@@ 559
根@@ 558
まで 558
率@@ 557
問@@ 557
我々の@@ 556
を通@@ 556
式@@ 556
議@@ 556
起き@@ 555
追@@ 555
象@@ 555
ヤ@@ 555
グラ@@ 555
存@@ 554
人は@@ 554
調@@ 554
つまり@@ 554
言う@@ 553
ここに@@ 553
基@@ 552
やって@@ 552
彼の@@ 551
張@@ 551
声@@ 550
笑@@ 549
され 549
様々な@@ 548
全体@@ 548
引@@ 548
産@@ 548
病@@ 548
教育@@ 548
義@@ 547
支@@ 547
パー@@ 547
満@@ 546
誰も@@ 545
ッド@@ 545
られます 545
割@@ 544
のですが 544
材@@ 544
半@@ 544
ショ@@ 541
のか@@ 541
差@@ 541
ジョ@@ 540
さらに@@ 539
士@@ 539
だと 538
察@@ 538
♪ 538
気づ@@ 537
することが@@ 536
してみ@@ 534
大学@@ 534
と同じ@@ 533
を行@@ 532
になりました 532
ーク@@ 532
ルの@@ 531
探@@ 531
バイ@@ 530
患者@@ 527
B@@ 527
類@@ 527
天@@ 526
現実@@ 526
“ 526
ため 525
導@@ 525
男@@ 525
っていた@@ 524
我々@@ 523
されています 522
映画@@ 522
開発@@ 521
国の@@ 520
１つ@@ 520
オー@@ 519
止@@ 518
つい@@ 518
になった@@ 518
.@@ 517
しま@@ 517
どれ@@ 516
されました 514
さて 514
持ち@@ 514
の人々@@ 513
機能@@ 512
れます 512
状態@@ 511
わか@@ 511
石@@ 511
なくな@@ 511
すべて@@ 510
があり 510
インド@@ 510
つか@@ 510
の一@@ 510
19@@ 509
ニア@@ 508
記@@ 508
ってく@@ 507
殺@@ 507
によって@@ 506
ザ@@ 505
ながら 504
これは 504
恐@@ 504
効果@@ 504
彼女は@@ 503
したのです 502
番@@ 502
製@@ 502
かの@@ 501
アイデア@@ 501
すぐ@@ 500
ステ@@ 500
成功@@ 499
美@@ 499
のある@@ 499
買@@ 499
を得@@ 499
渡@@ 499
遠@@ 498
かもしれ@@ 498
もあります 497
策@@ 497
一番@@ 496
政治@@ 495
接@@ 495
建@@ 493
世@@ 493
プロジェクト@@ 492
食べ@@ 492
マン@@ 492
ご覧@@ 492
務@@ 492
備@@ 491
進化@@ 490
』 489
ヘ@@ 489
『 488
め 488
測@@ 488
価値@@ 487
低@@ 487
習@@ 486
質問@@ 486
歳@@ 486
していた@@ 485
と考え@@ 485
との@@ 485
100@@ 484
人類@@ 484
なければ@@ 483
源@@ 483
計@@ 482
飛@@ 482
わり@@ 481
一つ@@ 481
ことに@@ 480
活@@ 480
日 480
倍@@ 479
アル@@ 479
年 478
利用@@ 478
かな@@ 478
したら 477
私達@@ 477
E@@ 477
治療@@ 477
: 477
世界の@@ 475
職@@ 475
ことに 475
りの@@ 475
害@@ 474
似@@ 474
を取り@@ 474
頼@@ 473
に出@@ 473
ブラ@@ 473
遺伝子@@ 473
念@@ 473
合わせ@@ 472
温@@ 472
木@@ 470
物語@@ 469
求@@ 469
ても 469
だろう@@ 467
事を@@ 467
彼らの@@ 466
年間@@ 466
ンを@@ 465
マー@@ 465
れば@@ 464
主義@@ 463
準@@ 463
フェ@@ 463
場合@@ 462
っと@@ 462
次の@@ 462
ありがとう 462
友@@ 461
最後@@ 461
師@@ 460
未来@@ 460
時に@@ 459
ちょっと@@ 459
生命@@ 459
反@@ 458
あらゆる@@ 458
好@@ 458
古@@ 457
が必要@@ 456
白@@ 456
ば 456
消@@ 456
火@@ 456
めて@@ 455
和@@ 455
だと思@@ 454
づ@@ 453
電話@@ 453
コンピュータ@@ 453
こちら@@ 452
座@@ 451
されている@@ 451
また 451
である 451
紹介@@ 451
ほとんど@@ 450
良@@ 450
積@@ 449
お金@@ 449
ってしま@@ 448
スタ@@ 447
件@@ 447
情@@ 446
ウェ@@ 446
欲@@ 446
受け@@ 446
与@@ 445
最初の@@ 445
農@@ 445
調査@@ 445
医療@@ 445
初めて@@ 444
O@@ 444
上が@@ 444
最初@@ 443
紙@@ 443
州@@ 443
シュ@@ 443
ですか 443
歴史@@ 442
標@@ 442
症@@ 442
状@@ 442
我々が@@ 441
振@@ 441
? 441
をする@@ 440
考@@ 440
の方@@ 440
具@@ 439
聴@@ 439
激@@ 439
非@@ 438
山@@ 438
囲@@ 438
セン@@ 438
過去@@ 437
告@@ 437
子ども@@ 437
ひ@@ 437
だけでなく 436
それら@@ 436
企業@@ 436
いけ@@ 436
言いました 435
私たちは 435
規模@@ 435
文化@@ 435
すれば 435
を探@@ 434
R@@ 434
意識@@ 434
政@@ 433
換@@ 433
頃@@ 433
台@@ 432
上の@@ 432
密@@ 432
お見せ@@ 432
太陽@@ 432
年に@@ 430
つ 430
呼@@ 430
音楽@@ 430
いつ@@ 429
説@@ 429
費@@ 429
に戻@@ 429
核@@ 429
みんな@@ 429
例えば 427
戻@@ 427
による@@ 427
ずっと@@ 427
態@@ 426
あまり@@ 425
神@@ 425
急@@ 424
なもの@@ 424
ウィ@@ 424
独@@ 423
造@@ 423
覚@@ 423
手を@@ 422
血@@ 422
G@@ 421
早@@ 421
エン@@ 421
ロボット@@ 421
15@@ 420
スク@@ 420
前の@@ 419
帰@@ 419
それで@@ 419
よりも@@ 419
人間の@@ 418
苦@@ 417
テクノロジー@@ 417
中国@@ 417
ということ@@ 417
十分@@ 417
てみ@@ 417
自己@@ 417
参加@@ 416
されます 416
健康@@ 416
えます 416
故@@ 416
インターネット@@ 416
が生@@ 415
ざ@@ 414
ヴ@@ 414
自由@@ 413
乗@@ 413
なり@@ 413
終@@ 413
になり 413
ている 412
らせ@@ 412
願@@ 412
世紀@@ 411
計画@@ 411
復@@ 411
たくさん@@ 410
サン@@ 410
世界中@@ 410
滅@@ 410
やす@@ 410
今 409
幸@@ 409
従@@ 408
を知@@ 408
にあ@@ 408
ゼ@@ 407
時に 407
からの@@ 406
防@@ 406
動き@@ 405
北@@ 404
本当@@ 404
十@@ 403
せ 403
向か@@ 403
になり@@ 403
の問題@@ 402
事が@@ 402
み 402
できない@@ 402
船@@ 402
物の@@ 402
病気@@ 402
果@@ 401
するのです 401
くらい@@ 401
すべき@@ 400
違う@@ 400
曲@@ 400
含@@ 399
あなたの@@ 399
報@@ 398
ぎ@@ 398
登@@ 397
てみましょう 397
目に@@ 397
いくつか@@ 396
かり@@ 396
英@@ 396
あの@@ 396
に対@@ 395
通り@@ 395
シー@@ 395
高い@@ 394
過@@ 394
を変え@@ 393
めて 392
ーション@@ 392
基本@@ 392
等@@ 392
を持つ@@ 391
神経@@ 391
､ 390
提供@@ 390
よう 389
安全@@ 389
ても@@ 389
うち@@ 389
がありました 389
絵@@ 389
超@@ 388
左@@ 388
れて@@ 387
植@@ 387
構造@@ 387
たら@@ 387
顔@@ 386
人 385
いている@@ 385
TED@@ 385
触@@ 385
F@@ 385
街@@ 384
文字@@ 384
にいる@@ 384
科@@ 384
作り@@ 383
ふ@@ 383
社@@ 382
野@@ 382
ナー@@ 381
のが@@ 381
生産@@ 381
レベル@@ 380
変え@@ 380
そうです 380
装置@@ 380
えば 379
危険@@ 379
イス@@ 378
亡@@ 378
抗@@ 378
提@@ 377
伝え@@ 377
楽@@ 377
ア 377
のでしょうか 377
診@@ 377
字@@ 376
運動@@ 376
すると@@ 376
旅@@ 376
反応@@ 376
特に@@ 375
すぎ@@ 373
右@@ 373
しい 373
寄@@ 372
のため@@ 372
みたい@@ 372
払@@ 372
人は 371
のように 371
価@@ 371
黒@@ 370
始めました 370
モデル@@ 370
何も@@ 369
まり@@ 369
夜@@ 368
仕@@ 367
路@@ 367
実現@@ 367
だから 367
驚@@ 366
を与え@@ 366
かなり@@ 366
市場@@ 366
専門@@ 366
６@@ 366
可@@ 366
夢@@ 366
南@@ 365
的に 365
査@@ 365
じゃ@@ 365
している 364
にとって 364
が見@@ 364
うまく@@ 364
警@@ 364
学生@@ 364
なければ 363
落@@ 363
場合 362
前に 362
小さ@@ 362
下さい 362
しようと@@ 361
を使って 361
たちの@@ 361
貧@@ 361
骨@@ 361
するため@@ 359
為@@ 359
機械@@ 359
ますね 359
傷@@ 359
目を@@ 359
につ@@ 358
端@@ 358
させる@@ 358
さら@@ 358
代の@@ 357
挙@@ 357
に使@@ 357
お話し@@ 357
歌@@ 356
はありません 355
ることです 355
入れ@@ 355
実は@@ 355
空間@@ 354
戦争@@ 354
ンス@@ 354
互い@@ 353
除@@ 353
がい@@ 353
グループ@@ 353
団@@ 352
取り組@@ 352
ることができます 352
のに 352
投資@@ 352
罪@@ 352
なければなりません 351
例えば@@ 351
しているのです 351
分野@@ 351
それは 351
必要があります 350
のもの@@ 350
をも@@ 350
悲@@ 350
西@@ 350
軍@@ 349
障害@@ 349
向け@@ 349
アイ@@ 349
洋@@ 349
ようと@@ 349
体の@@ 348
ティー@@ 348
大切@@ 348
スピ@@ 348
を見つけ@@ 348
ション@@ 348
科学者@@ 348
よりも 348
とか 348
抱@@ 347
立て@@ 347
したり 347
撮@@ 347
感情@@ 347
服@@ 347
リスト@@ 346
及@@ 346
の子@@ 346
興味@@ 346
週間@@ 346
者 346
サー@@ 346
争@@ 345
と言う@@ 345
値@@ 345
コー@@ 345
種類@@ 345
分の@@ 345
長い@@ 344
手に@@ 343
ランド@@ 343
ンが@@ 343
巨@@ 343
なんです 343
テー@@ 342
比@@ 342
誰か@@ 342
拡@@ 342
知識@@ 341
助け@@ 341
レス@@ 341
完@@ 341
のでしょう 341
ました@@ 341
人を@@ 341
客@@ 341
考える@@ 341
勝@@ 341
越@@ 340
ことも@@ 340
ルー@@ 340
ばかり@@ 340
と呼ば@@ 339
種の@@ 339
景@@ 339
大変@@ 339
虫@@ 339
芸術@@ 339
ム 338
わけです 338
っても 338
50@@ 338
それから@@ 338
のように@@ 338
んでいます 337
らく@@ 337
してしま@@ 337
の上@@ 337
私達は@@ 337
能力@@ 336
たと@@ 336
２つの@@ 336
クラ@@ 335
救@@ 335
採@@ 335
分かり@@ 335
レイ@@ 335
ネットワーク@@ 335
炭@@ 335
抜@@ 334
自動@@ 334
一緒に@@ 334
マイ@@ 334
両@@ 334
則@@ 333
肉@@ 333
それぞれ@@ 332
難しい@@ 332
負@@ 332
に関する@@ 332
ビデオ@@ 332
案@@ 331
創@@ 331
人に@@ 331
へと@@ 331
す 330
っている 330
土@@ 330
たり 330
索@@ 330
菌@@ 330
N@@ 329
覚え@@ 329
奇@@ 329
こうした@@ 328
できる 328
ブル@@ 328
ックス@@ 328
アー@@ 328
面白い@@ 328
－ 328
選択@@ 328
養@@ 327
若@@ 327
の数@@ 327
興味深い@@ 326
百@@ 326
画像@@ 326
明ら@@ 325
射@@ 325
皮@@ 325
調べ@@ 324
ダー@@ 324
ぼ@@ 323
の中で@@ 323
できません 322
もう一@@ 322
チーム@@ 322
もの 322
授@@ 322
できるのです 321
悪い@@ 321
となる@@ 321
われる@@ 321
波@@ 321
痛@@ 321
児@@ 321
どのように@@ 320
かれ@@ 320
動か@@ 320
返@@ 320
砂@@ 320
暗@@ 319
姿@@ 319
題@@ 319
の話@@ 319
犯@@ 319
物を@@ 318
夫@@ 318
さえ@@ 318
んでいる@@ 318
感染@@ 318
複雑@@ 317
されてい@@ 317
組@@ 317
アン@@ 317
歳の@@ 317
爆@@ 316
んでい@@ 316
最近@@ 316
でしたが 316
ありました 316
最高@@ 316
大きく@@ 316
処@@ 315
展@@ 315
の間@@ 315
" 315
未@@ 315
ことが 315
の中で 315
改@@ 315
認識@@ 315
助@@ 314
彼が@@ 314
常に@@ 314
かつ@@ 314
記録@@ 314
なんて@@ 314
撮影@@ 314
いく@@ 314
表現@@ 314
同様@@ 314
を示@@ 313
ど 313
事実@@ 313
わかり@@ 313
ッチ@@ 313
ありませんでした 312
人が 312
なぜなら 312
を作り@@ 311
タン@@ 311
らず 311
言い@@ 311
既@@ 310
更@@ 310
去@@ 309
に住@@ 309
"@@ 309
発展@@ 309
ズ 309
みな@@ 309
機会@@ 308
短@@ 308
人も@@ 308
ヶ月@@ 308
携帯@@ 308
こそ@@ 307
層@@ 307
フラン@@ 307
分子@@ 307
言語@@ 307
記憶@@ 307
三@@ 306
浮@@ 306
リー 306
許@@ 306
予測@@ 306
ひと@@ 306
できた@@ 305
の一部@@ 305
プログラム@@ 305
ですよ 305
に対する@@ 305
が出@@ 305
だからです 304
ほど 304
30@@ 303
りを@@ 303
ださい 303
たちは@@ 303
壁@@ 302
自ら@@ 302
どん@@ 302
それに@@ 302
燃@@ 302
よね 302
刑@@ 302
当時@@ 301
にする@@ 301
アの@@ 301
営@@ 301
祖@@ 301
患@@ 301
飲@@ 300
物質@@ 300
染@@ 300
すれば@@ 300
だけです 300
せる@@ 300
名前@@ 300
L@@ 300
ニー@@ 300
だろう 300
規@@ 299
精神@@ 299
過ぎ@@ 299
片@@ 299
レン@@ 299
知り@@ 299
と呼@@ 298
移動@@ 298
監@@ 298
保護@@ 298
タル@@ 298
前 297
部屋@@ 297
18@@ 297
ラー@@ 297
いつも@@ 297
壊@@ 296
隠@@ 296
創造@@ 296
で見@@ 296
欠@@ 295
ことで 295
号@@ 295
ようになりました 294
ロン@@ 294
ゆ@@ 294
帯@@ 294
訪@@ 293
できました 293
に見@@ 293
など 293
ようです 293
注@@ 293
多い@@ 293
よい@@ 293
新たな@@ 293
問題を@@ 292
固@@ 292
管理@@ 292
実際 292
これまで@@ 292
k@@ 292
吸@@ 292
脳の@@ 292
ようにな@@ 291
一般@@ 291
消費@@ 291
百万@@ 291
物理@@ 291
験@@ 291
酸@@ 291
と共@@ 291
圧@@ 290
は何@@ 290
施@@ 290
はどう@@ 290
に来@@ 290
味@@ 289
必要な@@ 288
V@@ 288
青@@ 288
普通@@ 288
さん 288
敵@@ 287
決め@@ 287
ワー@@ 287
キー@@ 287
良く@@ 287
にある 286
人々が@@ 286
混@@ 286
くと 286
飛行@@ 286
協力@@ 286
ズム@@ 286
てきました 286
ているのです 286
えた@@ 285
課題@@ 285
特定@@ 285
つも@@ 285
作業@@ 284
ちゃん@@ 284
だと思います 283
者が@@ 283
屋@@ 283
ある 283
コンピューター@@ 283
ラク@@ 283
において 282
練@@ 282
気候@@ 282
暮ら@@ 282
ものを@@ 282
方を@@ 282
走@@ 282
耳@@ 282
さ 282
のが 281
民主@@ 281
暴力@@ 281
ハイ@@ 281
ラム@@ 281
楽し@@ 281
を作る@@ 281
の大@@ 281
逆@@ 281
の世界@@ 281
将来@@ 281
植物@@ 281
セス@@ 280
を取@@ 280
議論@@ 280
衝@@ 280
築@@ 280
がない@@ 280
もちろん@@ 280
被@@ 280
給@@ 280
ョ@@ 280
美しい@@ 280
ろう@@ 280
扱@@ 280
感覚@@ 280
たった@@ 279
を出@@ 279
られました 278
通り 278
球@@ 278
ては@@ 278
映像@@ 278
セント@@ 278
押@@ 277
ーチ@@ 277
なので 277
中の@@ 277
賞@@ 277
必@@ 277
官@@ 276
体験@@ 276
避@@ 276
庭@@ 276
求め@@ 276
推@@ 276
プラ@@ 276
衆@@ 275
スター@@ 275
ゃ@@ 275
拠@@ 275
排@@ 275
過ご@@ 275
市民@@ 274
途@@ 274
いう@@ 274
魚@@ 274
もちろん 274
10年@@ 273
ることは@@ 273
広が@@ 273
疑問@@ 273
要素@@ 273
ありますが 273
気付@@ 273
… 273
られない@@ 273
わ 273
により 272
なぜなら@@ 272
すべての@@ 272
ひとつ@@ 272
電気@@ 272
いは@@ 272
退@@ 272
あ 272
一人@@ 272
を使う@@ 271
建築@@ 271
階@@ 271
居@@ 271
終わ@@ 271
東@@ 271
すごい@@ 271
にい@@ 271
忘@@ 271
異なる@@ 271
落ち@@ 271
情報を@@ 271
陸@@ 270
仮@@ 270
家の@@ 270
方 270
思う@@ 270
けど 270
0年代@@ 269
に乗@@ 269
徴@@ 269
つく@@ 269
生まれ@@ 269
化学@@ 269
兵@@ 269
我@@ 268
ニューヨーク@@ 268
どうやって@@ 268
劇@@ 268
れない@@ 268
底@@ 268
原因@@ 267
支援@@ 267
ながら@@ 267
背@@ 267
計算@@ 267
まま@@ 267
理論@@ 267
これから@@ 267
ベル@@ 266
方が@@ 266
シェ@@ 266
単純@@ 266
惑星@@ 266
守@@ 266
米国@@ 266
に対して@@ 266
族@@ 266
リスク@@ 266
集団@@ 265
ンは@@ 265
勢@@ 265
より 265
傾@@ 265
友達@@ 265
彼らが@@ 264
性の@@ 264
るでしょう 263
まさに@@ 263
そこで 263
メディア@@ 263
乳@@ 263
彼女の@@ 263
捕@@ 263
における@@ 262
目的@@ 262
たちが@@ 262
花@@ 262
ると@@ 262
たちは 262
資金@@ 262
というのは 262
節@@ 262
ひど@@ 262
われた@@ 261
と思う@@ 261
ていて 261
機関@@ 261
段階@@ 261
完全に@@ 260
12@@ 260
舞@@ 260
森@@ 260
あげ@@ 259
まる@@ 259
性を@@ 259
の一つ@@ 258
革@@ 258
局@@ 258
使用@@ 258
仕事を@@ 258
スペ@@ 258
上手@@ 258
いています 257
多くの人@@ 257
手段@@ 257
もので 257
を開@@ 257
若い@@ 257
チェ@@ 257
ダイ@@ 257
パター@@ 257
自分が@@ 257
おそ@@ 256
コミュニティ@@ 256
でしょう@@ 256
降@@ 256
２つ@@ 256
事です 256
一方@@ 255
弾@@ 255
設計@@ 255
届@@ 255
融@@ 255
効率@@ 255
産業@@ 255
頂@@ 255
講@@ 255
性 255
イメージ@@ 255
と思い@@ 255
訳@@ 255
コスト@@ 255
領@@ 255
術@@ 254
メート@@ 254
ンプル@@ 254
逃@@ 254
栄@@ 254
息@@ 254
刺@@ 254
米@@ 253
っているのです 253
商@@ 253
整@@ 253
繰り返@@ 253
可能な@@ 253
破@@ 253
とか@@ 253
にしました 253
してください 253
数の@@ 253
私に@@ 253
っても@@ 253
ゲーム@@ 253
革命@@ 252
派@@ 252
在@@ 252
クト@@ 252
メッセージ@@ 252
はずです 252
ですよね 252
んで 252
を書@@ 252
DNA@@ 252
切り@@ 251
人々の@@ 251
０@@ 251
あなたが@@ 251
に対して 250
わた@@ 250
館@@ 250
御@@ 250
といった@@ 250
ものを 250
喜@@ 249
そこに@@ 249
反対@@ 249
ザー@@ 249
そういう@@ 249
デジ@@ 249
実に@@ 248
私達の@@ 248
困@@ 248
時間を@@ 248
依@@ 248
汚@@ 248
カメラ@@ 248
秒@@ 248
数学@@ 248
まれた@@ 247
スー@@ 247
撃@@ 247
お話@@ 247
ろうと@@ 247
られ 246
ビジネス@@ 246
遊@@ 246
ることも@@ 246
平均@@ 246
維@@ 246
イ 246
原子@@ 246
刻@@ 245
最終@@ 245
区@@ 245
私を@@ 245
土地@@ 245
生物学@@ 245
ータ@@ 245
ンプ@@ 245
林@@ 245
過程@@ 244
このように@@ 244
評価@@ 244
効@@ 244
いった@@ 244
トロ@@ 244
並@@ 244
リーダー@@ 244
してきました 243
ける 243
方向@@ 243
スケ@@ 243
才@@ 243
特別@@ 243
母親@@ 243
破壊@@ 243
m@@ 243
しません 242
トラ@@ 242
キロ@@ 242
角@@ 242
危機@@ 242
ック 242
各@@ 241
至@@ 241
修@@ 241
幸せ@@ 241
秘@@ 241
徒@@ 241
仲@@ 241
わず@@ 241
中に@@ 241
ぬ@@ 240
製品@@ 240
を理解@@ 240
横@@ 240
進歩@@ 240
こういう@@ 240
嫌@@ 240
ク 239
々の@@ 239
ることで 239
遅@@ 239
考えてみ@@ 239
半分@@ 239
以上の@@ 239
市@@ 239
護@@ 239
ために@@ 239
っと 239
攻撃@@ 239
操@@ 239
変動@@ 238
７@@ 238
装@@ 238
1 238
るか@@ 238
ところ 238
いか@@ 237
てもら@@ 237
今まで@@ 237
ならない@@ 236
はず@@ 236
んな@@ 236
今の@@ 236
協@@ 236
テレ@@ 236
くり@@ 236
跡@@ 236
にか@@ 236
再生@@ 236
息子@@ 236
を送@@ 235
映@@ 235
代わり@@ 235
なかった 235
まと@@ 235
を起こ@@ 235
ほどの@@ 235
変える@@ 235
ほん@@ 235
なくては@@ 235
福@@ 235
正しい@@ 234
なのか 234
すごく@@ 234
君@@ 234
はとても@@ 234
っていて 233
載@@ 233
豊@@ 233
ちゃ@@ 233
間の@@ 232
度も@@ 232
条@@ 232
バル@@ 232
クロ@@ 232
えて@@ 232
列@@ 232
昇@@ 232
ユ@@ 232
富@@ 232
略@@ 231
捉@@ 231
与え@@ 231
普@@ 231
共有@@ 231
床@@ 231
れる 231
W@@ 231
財@@ 230
するのは 230
有名@@ 230
話し@@ 230
始めた@@ 230
があった@@ 230
的な 230
見せ@@ 230
液@@ 230
責任@@ 230
込み@@ 230
れて 230
が必要です 229
段@@ 229
を守@@ 229
することで 229
娘@@ 229
国際@@ 228
つなが@@ 228
のない@@ 228
手に入@@ 228
辺@@ 228
ガン@@ 228
見た@@ 228
全員@@ 228
ものでした 228
昔@@ 228
るのか 228
僕は@@ 228
誤@@ 227
個人@@ 227
シン@@ 227
された 227
があるのです 227
ーン@@ 227
ハー@@ 227
をもたら@@ 227
精@@ 227
を表@@ 227
なんて 227
担@@ 226
インフ@@ 226
複@@ 226
注意@@ 226
分析@@ 226
最後の@@ 226
石油@@ 226
したら@@ 226
奏@@ 226
様子@@ 226
ヨーロッパ@@ 226
ソフト@@ 226
しば@@ 225
人口@@ 225
模@@ 225
村@@ 225
イツ@@ 225
結婚@@ 225
いたい@@ 225
閉@@ 225
ネット@@ 225
介@@ 224
かせ@@ 224
気が@@ 224
比べ@@ 224
冷@@ 224
の写真@@ 224
唯@@ 224
-@@ 224
謝@@ 224
恐怖@@ 224
握@@ 223
まった@@ 223
衛@@ 223
としても 223
少なく@@ 223
そう 223
11@@ 222
たくさんの@@ 222
ォ@@ 222
わかります 222
気に入@@ 222
始ま@@ 222
余@@ 222
齢@@ 222
ご存知@@ 221
強い@@ 221
驚くべき@@ 221
まるで@@ 221
あなたは@@ 221
ったり 221
まったく@@ 221
どちら@@ 221
病院@@ 221
妻@@ 221
とも 221
困難@@ 220
において@@ 220
店@@ 220
範@@ 220
皆 220
られています 220
年も@@ 220
詳@@ 220
瞬間@@ 220
首@@ 219
び 219
散@@ 219
宗教@@ 219
はこの@@ 219
基づ@@ 219
話す@@ 219
信号@@ 219
てきた@@ 219
ツール@@ 219
集め@@ 219
の中に@@ 219
工場@@ 219
ヒト@@ 219
利益@@ 218
学ぶ@@ 218
箱@@ 218
わせ@@ 218
プ 218
以外@@ 218
革新@@ 218
してもら@@ 218
手術@@ 218
テスト@@ 218
失敗@@ 218
弱@@ 217
コミュニ@@ 217
世代@@ 217
厳@@ 217
選択肢@@ 217
止め@@ 217
ット 217
妙@@ 217
たく@@ 217
損@@ 217
管@@ 217
しよう@@ 217
打ち@@ 217
治@@ 216
体を@@ 216
上 216
世界中の@@ 216
られている@@ 216
群@@ 216
行く@@ 216
のために@@ 216
ることを@@ 216
仕組み@@ 216
興@@ 216
縮@@ 215
境@@ 215
労働@@ 215
ワクチ@@ 215
律@@ 215
公開@@ 215
緑@@ 215
行われ@@ 215
朝@@ 215
を用@@ 215
つつ@@ 214
でない@@ 214
だけで 214
多様@@ 214
本の@@ 214
週@@ 214
199@@ 214
ばら@@ 214
メール@@ 214
領域@@ 214
ウェブ@@ 214
意見@@ 213
するために 213
８@@ 213
子供の@@ 213
度の@@ 213
心配@@ 213
流れ@@ 213
イギリ@@ 213
一の@@ 213
後に@@ 213
印@@ 213
かという@@ 212
てる@@ 212
いてい@@ 212
複雑な@@ 211
生み出@@ 211
アク@@ 211
リオ@@ 211
昨@@ 211
の研究@@ 211
現象@@ 211
こういった@@ 211
乱@@ 211
正確@@ 211
銀行@@ 211
現在 210
裏@@ 210
エイ@@ 210
両親@@ 210
票@@ 210
一緒@@ 210
通信@@ 210
際@@ 209
を見て 209
ることは 209
者は@@ 209
沢山@@ 209
のこと@@ 209
ことができます 209
ケット@@ 209
注目@@ 209
魅@@ 208
サービ@@ 208
ナイ@@ 208
ほぼ@@ 208
おかげ@@ 208
したいと思います 208
ですから@@ 208
25@@ 208
間違@@ 208
ブロ@@ 208
数年@@ 208
頃 208
考え方@@ 208
王@@ 208
剤@@ 208
静@@ 208
最大の@@ 208
直面@@ 207
スタン@@ 207
ただ 207
替@@ 207
実際の@@ 207
いを@@ 207
じゃない@@ 207
属@@ 207
発明@@ 207
まず 207
したのは 207
視覚@@ 207
わない@@ 206
建物@@ 206
タイム@@ 206
近く@@ 206
処理@@ 206
女性の@@ 206
たら 206
アメリカの@@ 206
書き@@ 206
ラ 206
見えます 205
希望@@ 205
掛@@ 205
概念@@ 205
らい@@ 205
繋が@@ 205
っき@@ 205
ちょ@@ 205
ものは 204
私も@@ 204
聞こ@@ 204
必要と@@ 204
と思いました 204
を利用@@ 204
いろいろ@@ 204
表面@@ 204
使う@@ 204
言った@@ 204
ユー@@ 204
がん@@ 204
えば@@ 203
間に@@ 203
道路@@ 203
ウン@@ 203
行為@@ 203
改善@@ 203
因@@ 203
決定@@ 203
することです 203
聖@@ 203
スが@@ 203
枚@@ 203
やる@@ 203
訓@@ 202
大量@@ 202
尋ね@@ 202
競@@ 202
心臓@@ 202
ハン@@ 202
ペン@@ 202
微生物@@ 202
臓@@ 202
･ 201
草@@ 201
較@@ 201
e@@ 201
む 200
埋@@ 200
馬@@ 200
怒@@ 200
善@@ 199
恵@@ 198
島@@ 198
i@@ 198
遂@@ 197
5 197
挑@@ 197
ィ@@ 196
まり 196
輸@@ 196
博@@ 196
楽 196
倒@@ 195
快@@ 195
称@@ 195
答@@ 195
院@@ 195
中 194
へ 194
素晴ら@@ 194
伸@@ 194
鳴@@ 194
偉@@ 193
鳥@@ 193
魔@@ 193
易@@ 192
500@@ 192
録@@ 192
氷@@ 192
裁@@ 192
継@@ 192
休@@ 191
補@@ 191
写@@ 191
暴@@ 191
編@@ 190
グ 190
駆@@ 190
微@@ 189
順@@ 188
腕@@ 188
膨@@ 188
慣@@ 188
0 187
技@@ 187
典@@ 186
もら@@ 186
ぱ@@ 186
麻@@ 186
筋@@ 186
辞@@ 186
2 185
潜@@ 185
詩@@ 185
々 184
献@@ 184
Y@@ 184
的 184
雨@@ 184
額@@ 183
川@@ 183
抑@@ 182
だけで@@ 182
校@@ 182
占@@ 182
末@@ 182
ブ 182
照@@ 181
算@@ 181
脅@@ 181
述@@ 181
努@@ 180
したが 180
賢@@ 180
留@@ 178
席@@ 178
威@@ 178
ディア@@ 178
ネル@@ 178
識@@ 177
９@@ 177
円@@ 177
デザ@@ 177
,00@@ 176
なりません 176
犬@@ 176
そ 175
像@@ 175
束@@ 175
ゾ@@ 175
幼@@ 174
隣@@ 174
宅@@ 174
延@@ 174
ろ 174
ァ@@ 173
60@@ 173
誌@@ 173
折@@ 172
老@@ 172
40@@ 172
毛@@ 172
障@@ 171
兆@@ 171
来 171
驚く@@ 171
&#91; 171
鏡@@ 171
招@@ 171
ャ@@ 171
198@@ 170
ぜ 170
疑@@ 170
都@@ 170
軽@@ 170
幹@@ 170
H@@ 169
完全@@ 169
最大@@ 169
癌@@ 169
版@@ 169
果 168
&#93; 168
総@@ 168
匹@@ 168
著@@ 168
アフ@@ 167
禁@@ 167
歯@@ 167
園@@ 167
候@@ 166
～ 166
繁@@ 166
否@@ 166
糸@@ 166
粒@@ 165
瞬@@ 165
毒@@ 165
幅@@ 164
蓄@@ 163
布@@ 163
雇@@ 162
16@@ 162
踊@@ 162
包@@ 161
耐@@ 161
17@@ 161
諸@@ 160
ジー@@ 160
鉄@@ 160
力 160
到@@ 160
卒@@ 160
暖@@ 160
踏@@ 159
覆@@ 159
任@@ 159
党@@ 159
針@@ 159
ゥ@@ 159
隊@@ 158
迎@@ 158
HI@@ 158
訴@@ 158
ィ 158
葉@@ 157
章@@ 157
氏@@ 156
捨@@ 156
度 156
賛@@ 155
史@@ 155
丈@@ 155
おか@@ 155
伴@@ 154
雑@@ 154
洗@@ 154
生み@@ 154
便@@ 153
響@@ 153
域@@ 152
距@@ 152
河@@ 152
婦@@ 152
眠@@ 152
航@@ 152
免@@ 152
ろう 151
妊@@ 151
抵@@ 151
ほとん@@ 150
打@@ 150
抽@@ 150
岸@@ 150
巣@@ 150
尊@@ 149
申@@ 149
険@@ 149
ジ 149
黄@@ 148
巻@@ 148
闘@@ 148
穴@@ 147
U@@ 147
怖@@ 147
削@@ 147
震@@ 147
供@@ 146
永@@ 146
欧@@ 145
課@@ 145
緊@@ 145
迫@@ 145
油@@ 145
崩@@ 144
済@@ 144
輪@@ 144
ぜ@@ 144
腫@@ 144
深い@@ 143
透@@ 143
互@@ 143
ん 143
僚@@ 143
級@@ 143
寝@@ 143
物 142
り返@@ 142
,@@ 142
疾@@ 142
3 141
さい 141
慮@@ 140
岩@@ 140
詰@@ 140
春@@ 139
声 139
肥@@ 139
漠@@ 139
粉@@ 138
げ 138
盤@@ 138
軸@@ 138
援@@ 137
椅@@ 137
廃@@ 137
じ 137
獲@@ 137
哲@@ 137
疫@@ 137
臨@@ 136
倫@@ 136
璧@@ 136
学 136
磁@@ 136
停@@ 136
網@@ 135
徳@@ 135
税@@ 135
誇@@ 134
10 134
殖@@ 134
かった 134
然 133
屈@@ 133
誘@@ 133
武@@ 132
絡@@ 132
板@@ 132
しょう@@ 132
２ 132
le@@ 132
掘@@ 131
貢@@ 131
ありがとうござ@@ 131
太@@ 131
NA@@ 131
療@@ 131
瘍@@ 131
宣@@ 131
紛@@ 130
勉@@ 130
犠@@ 129
牲@@ 129
牛@@ 129
ミュ@@ 129
兄@@ 129
脚@@ 129
偽@@ 129
司@@ 128
町@@ 128
惑@@ 128
マ 128
勇@@ 127
ェ@@ 127
p@@ 127
懸@@ 127
四@@ 127
糧@@ 127
貯@@ 127
央@@ 126
オ 126
恥@@ 126
借@@ 126
俺@@ 125
港@@ 125
門@@ 125
事 124
奪@@ 124
績@@ 124
u@@ 124
銀@@ 124
冒@@ 124
釈@@ 123
促@@ 122
ぞ 122
貴@@ 122
なが@@ 122
致@@ 122
糖@@ 122
益@@ 121
誕@@ 121
看@@ 121
儀@@ 121
１ 120
侵@@ 120
X@@ 120
o@@ 120
幾@@ 120
省@@ 120
弟@@ 120
酷@@ 120
エネルギ@@ 120
まさ@@ 119
孤@@ 119
稼@@ 119
影@@ 119
... 119
泣@@ 119
ヨ@@ 119
匂@@ 119
銃@@ 118
繊@@ 118
孫@@ 117
面白@@ 117
充@@ 117
丸@@ 117
197@@ 117
奮@@ 117
すべ@@ 117
携@@ 116
腹@@ 116
洞@@ 116
鍵@@ 116
騒@@ 116
弁@@ 116
談@@ 115
靴@@ 115
ダ 115
化 115
腐@@ 115
遺伝@@ 115
K@@ 115
清@@ 114
窓@@ 114
駄@@ 114
偶@@ 114
志@@ 114
掲@@ 114
泳@@ 114
脊@@ 114
貨@@ 113
討@@ 113
いろ@@ 113
沿@@ 113
滞@@ 113
実 113
漁@@ 112
裂@@ 112
カ 112
曜@@ 112
iP@@ 112
荷@@ 111
a@@ 111
吹@@ 111
培@@ 111
即@@ 110
販@@ 110
環@@ 110
敬@@ 110
尽@@ 110
購@@ 110
妹@@ 110
奥@@ 110
濃@@ 109
災@@ 109
ょ 109
語 109
脱@@ 109
偏@@ 109
ぞ@@ 109
虐@@ 109
礎@@ 108
批@@ 108
4 108
田@@ 108
盗@@ 108
健@@ 108
薄@@ 107
ま 107
20 107
ご存@@ 107
嘘@@ 107
髄@@ 107
Goog@@ 107
令@@ 106
ませ@@ 106
労@@ 106
膜@@ 106
惨@@ 106
子ど@@ 106
H 106
謎@@ 106
羽@@ 106
橋@@ 106
/ 106
9 105
F 105
隔@@ 105
卵@@ 105
裕@@ 105
脈@@ 105
CA 105
唱@@ 104
究@@ 104
溶@@ 104
慈@@ 104
揺@@ 104
アイデ@@ 104
遺@@ 104
陥@@ 103
駐@@ 103
茶@@ 103
眼@@ 103
テク@@ 103
鎖@@ 102
専@@ 102
就@@ 102
家 102
暇@@ 101
雲@@ 101
につい@@ 100
柔@@ 100
タ 100
了@@ 100
房@@ 100
フ 100
郊@@ 99
拍@@ 99
体 99
A 99
テクノロ@@ 99
にと@@ 99
枠@@ 98
闇@@ 98
樹@@ 98
恋@@ 98
猿@@ 98
躍@@ 98
腺@@ 98
盛@@ 98
B 98
ヌ@@ 97
分 97
悩@@ 97
音 97
子 97
べ 97
〜 97
髪@@ 96
50 96
蔵@@ 96
狂@@ 96
姉@@ 96
&apos; 96
渉@@ 95
々な@@ 95
溢@@ 95
インター@@ 95
場 95
双@@ 95
把@@ 94
序@@ 94
沈@@ 94
寿@@ 94
所 94
ナ 94
幻@@ 94
- 94
x@@ 94
襲@@ 93
揮@@ 93
棄@@ 93
国 93
悔@@ 93
塗@@ 92
歴@@ 92
郷@@ 92
委@@ 91
宿@@ 91
焼@@ 91
納@@ 91
刷@@ 91
煙@@ 91
縁@@ 91
締@@ 91
敗@@ 91
蚊@@ 91
漫@@ 90
ギリ@@ 89
項@@ 89
娠@@ 89
法 89
婚@@ 88
頻@@ 88
池@@ 88
月 88
軟@@ 88
y@@ 88
奴@@ 88
焦@@ 87
胸@@ 87
晩@@ 86
参@@ 86
飾@@ 86
係@@ 86
軌@@ 86
黙@@ 86
凍@@ 86
陰@@ 86
代 86
｢ 86
彫@@ 85
殊@@ 85
肩@@ 85
6 85
8 85
慢@@ 85
ぽ@@ 85
析@@ 85
飼@@ 85
ぁ 85
３ 84
拒@@ 84
勤@@ 84
ぎ 84
猫@@ 84
プログラ@@ 84
遭@@ 83
摘@@ 83
浸@@ 83
袋@@ 83
危@@ 83
貸@@ 83
承@@ 83
秀@@ 83
執@@ 83
邦@@ 83
ロ 82
鮮@@ 82
舎@@ 82
嬉@@ 82
塩@@ 82
殆@@ 82
昼@@ 82
膚@@ 82
催@@ 82
肝@@ 82
30 82
ビジネ@@ 81
回 81
由@@ 81
近 81
覧@@ 81
! 81
掃@@ 80
副@@ 80
もち@@ 80
動 80
題 80
ワク@@ 80
厚@@ 79
痺@@ 79
湾@@ 79
鉱@@ 79
餌@@ 79
胎@@ 79
践@@ 78
遇@@ 78
仰@@ 78
辿@@ 78
錯@@ 78
鹿@@ 78
眺@@ 78
恩@@ 78
企@@ 78
筆@@ 78
AI@@ 78
圏@@ 78
チ 78
干@@ 78
b@@ 78
株@@ 77
夏@@ 77
輝@@ 77
霊@@ 77
荒@@ 77
雄@@ 77
礼@@ 76
m 76
虚@@ 76
哺@@ 76
露@@ 76
フト@@ 76
鼻@@ 76
ou@@ 76
囚@@ 76
｣ 76
審@@ 75
杯@@ 75
香@@ 75
稿@@ 75
叫@@ 74
庫@@ 74
尿@@ 74
蒸@@ 74
脂@@ 74
礁@@ 74
祈@@ 74
摂@@ 74
J@@ 74
t@@ 74
棒@@ 74
様 73
柄@@ 73
夜 73
午@@ 73
償@@ 73
顧@@ 73
評@@ 73
需@@ 72
贈@@ 72
壮@@ 72
d@@ 72
目 72
垂@@ 72
乾@@ 72
将@@ 71
翌@@ 71
剣@@ 71
尾@@ 71
l@@ 71
g@@ 71
奨@@ 71
T 71
鬱@@ 71
獄@@ 70
7 70
純@@ 70
顕@@ 70
叩@@ 70
籍@@ 70
= 70
狭@@ 70
貼@@ 69
秩@@ 69
縦@@ 69
局 69
珍@@ 69
久@@ 69
新た@@ 69
涯@@ 69
枝@@ 69
昆@@ 69
飢@@ 69
冬@@ 68
均@@ 68
ビデ@@ 68
腸@@ 68
生 68
寒@@ 68
界 68
妨@@ 68
履@@ 68
ゃ 68
拾@@ 67
ぺ@@ 67
熟@@ 67
すご@@ 67
湖@@ 67
惹@@ 67
凄@@ 67
灯@@ 66
ぶ 66
巡@@ 66
祝@@ 66
デル@@ 66
s@@ 66
緩@@ 66
募@@ 66
督@@ 66
硬@@ 66
穫@@ 66
簡@@ 66
彗@@ 66
徐@@ 65
却@@ 65
客 65
部 65
羊@@ 65
潔@@ 65
a 64
朝 64
ノ 64
睡@@ 64
歓@@ 64
契@@ 64
潮@@ 64
80 64
粋@@ 64
臭@@ 63
肺@@ 63
克@@ 63
S 63
藻@@ 63
ロッ@@ 63
盲@@ 63
味 63
冠@@ 63
滑@@ 62
in@@ 62
巧@@ 62
遡@@ 62
叔@@ 62
I 62
殻@@ 62
辛@@ 61
５ 61
C 61
狩@@ 61
業 61
h@@ 61
頑@@ 61
論 61
E 61
貫@@ 61
請@@ 61
坊@@ 61
会 60
芸@@ 60
堂@@ 60
迷@@ 60
ニ 60
灰@@ 60
韓@@ 60
D 59
炎@@ 59
債@@ 59
剰@@ 59
なた@@ 59
達 59
本 59
肢@@ 59
媒@@ 59
壌@@ 59
蛍@@ 59
蜂@@ 59
瓶@@ 58
旧@@ 58
酔@@ 58
華@@ 58
r@@ 58
繋@@ 58
酒@@ 58
竜@@ 58
浴@@ 58
勧@@ 58
括@@ 57
ゆる@@ 57
リ 57
遍@@ 57
盾@@ 57
画 57
湿@@ 57
揃@@ 56
コ 56
紫@@ 56
噴@@ 56
丘@@ 56
冗@@ 56
厄@@ 56
詞@@ 56
戸@@ 56
癒@@ 56
冊@@ 56
術 56
ュ 56
没@@ 56
40 56
豚@@ 56
牧@@ 55
雪@@ 55
ツ 55
烈@@ 55
為 55
妥@@ 55
be@@ 55
ace@@ 55
あら@@ 55
on@@ 55
25 54
60 54
愚@@ 54
夕@@ 54
理 54
, 54
罰@@ 54
肌@@ 54
尻@@ 54
ワーク@@ 54
倣@@ 54
嫉@@ 54
衣@@ 54
酬@@ 53
疲@@ 53
al@@ 53
循@@ 53
遥@@ 53
徹@@ 53
アメ@@ 53
品 53
蓋@@ 53
貝@@ 53
阻@@ 53
妬@@ 53
京@@ 52
井@@ 52
甲@@ 52
ヶ@@ 52
絞@@ 52
x 52
粘@@ 52
歪@@ 52
窟@@ 52
隷@@ 52
邪@@ 52
胆@@ 52
誉@@ 52
逮@@ 52
宝@@ 52
. 52
貿@@ 51
恒@@ 51
概@@ 51
如@@ 51
塊@@ 51
捧@@ 51
悟@@ 51
100 51
帝@@ 51
話 51
遮@@ 51
狙@@ 51
忍@@ 50
還@@ 50
質 50
矛@@ 50
怪@@ 50
c@@ 50
ぐ 50
栽@@ 50
K 50
柱@@ 49
符@@ 49
用 49
車 49
攻@@ 49
うござ@@ 49
懐@@ 49
訊@@ 49
降 49
員 49
伐@@ 49
こ 48
賃@@ 48
衆 48
掴@@ 48
R 48
墓@@ 48
喩@@ 48
錠@@ 48
責@@ 48
泡@@ 48
15 48
句@@ 48
際 47
署@@ 47
常 47
玉@@ 47
研@@ 47
封@@ 47
帽@@ 47
跳@@ 47
甘@@ 47
Google 47
覗@@ 46
嘆@@ 46
ありが@@ 46
脆@@ 46
釣@@ 46
遣@@ 46
夫 46
励@@ 46
桁@@ 46
織@@ 46
勘@@ 46
季@@ 46
机@@ 46
馴@@ 46
サ 46
Ap@@ 46
閲@@ 46
縛@@ 45
是@@ 45
旗@@ 45
控@@ 45
The 45
下 45
芝@@ 45
陽@@ 45
例え@@ 45
童@@ 45
幕@@ 45
翻@@ 45
n@@ 45
隅@@ 44
泥@@ 44
見 44
沢@@ 44
搭@@ 44
漂@@ 44
傍@@ 44
暑@@ 44
族 44
餓@@ 44
溝@@ 44
晩 44
箇@@ 44
憲@@ 44
病 44
ちら@@ 43
嵐@@ 43
涙@@ 43
塞@@ 43
寛@@ 43
勿@@ 43
賭@@ 43
心 43
綿@@ 43
Ｔ@@ 43
週 43
hon@@ 43
素晴@@ 43
衰@@ 43
繰@@ 42
メッ@@ 42
帳@@ 42
忙@@ 42
辱@@ 42
磨@@ 42
宮@@ 42
boo@@ 42
疎@@ 42
pe@@ 42
泌@@ 42
憂@@ 41
暮@@ 41
量 41
五@@ 41
点 41
劣@@ 41
賄@@ 41
猟@@ 41
ロボ@@ 41
像 41
紡@@ 41
祭@@ 41
私 41
醜@@ 41
俳@@ 41
能 41
往@@ 41
鑑@@ 41
U 41
e 41
欺@@ 41
凝@@ 40
機 40
数 40
ニューヨ@@ 40
it@@ 40
径@@ 40
莫@@ 40
ter@@ 40
凡@@ 40
システ@@ 40
コンピュー@@ 40
諦@@ 40
種 40
魂@@ 40
僅@@ 40
炉@@ 40
慎@@ 40
紀@@ 40
弓@@ 40
am@@ 40
艇@@ 40
畜@@ 39
撲@@ 39
腰@@ 39
潰@@ 39
Z@@ 39
扉@@ 39
裸@@ 39
架@@ 39
捜@@ 39
骸@@ 39
燥@@ 39
幣@@ 39
４ 39
ヵ@@ 39
＝ 39
漕@@ 39
OK 39
麗@@ 38
程 38
渋@@ 38
とん@@ 38
戒@@ 38
っ 38
耕@@ 38
TED 38
Q@@ 38
逸@@ 38
葬@@ 38
唆@@ 38
レ 37
敷@@ 37
供 37
内 37
堆@@ 37
歌 37
般@@ 37
気 37
ぴ@@ 37
O 37
仏@@ 37
膝@@ 37
歳 37
棚@@ 37
趣@@ 37
女 37
吐@@ 37
砕@@ 37
敢@@ 37
肪@@ 37
斜@@ 37
， 37
お 37
ザ 37
ぷ@@ 37
翼@@ 37
うま@@ 36
脇@@ 36
or@@ 36
敏@@ 36
叶@@ 36
士 36
蔓@@ 36
畑@@ 36
ょ@@ 36
哀@@ 36
浄@@ 36
er@@ 36
隙@@ 36
es@@ 36
身 36
ki@@ 36
豆@@ 36
鶏@@ 36
作 36
拘@@ 36
リカ@@ 36
盟@@ 35
泊@@ 35
鉛@@ 35
段 35
w@@ 35
滴@@ 35
丁@@ 35
擦@@ 35
穏@@ 35
寂@@ 35
旋@@ 35
何 35
矢@@ 35
尺@@ 35
嗅@@ 34
缶@@ 34
衡@@ 34
喫@@ 34
淡@@ 34
忠@@ 34
ol@@ 34
痕@@ 34
曲 34
添@@ 34
銭@@ 34
誓@@ 34
緯@@ 34
師 34
形 34
谷@@ 34
害 34
肖@@ 34
絆@@ 34
崇@@ 34
率 34
デ 33
艦@@ 33
ゴ 33
揚@@ 33
育 33
ぁ@@ 33
飽@@ 33
喪@@ 33
テ 33
湧@@ 33
昔 33
儲@@ 33
預@@ 33
P 33
Ｄ@@ 33
卓@@ 33
芽@@ 33
手 33
蜜@@ 33
蛇@@ 33
併@@ 33
枯@@ 33
~ 32
殿@@ 32
en@@ 32
z@@ 32
砲@@ 32
朗@@ 32
社 32
書 32
男 32
胚@@ 32
須@@ 32
珊@@ 32
随@@ 32
鼓@@ 32
モ 32
希@@ 32
誠@@ 32
憧@@ 31
命 31
噛@@ 31
とこ@@ 31
拷@@ 31
惧@@ 31
酵@@ 31
瑚@@ 31
ゅ@@ 31
託@@ 31
晶@@ 31
奏 31
ar@@ 31
o 31
諜@@ 31
Ｅ@@ 31
洪@@ 31
報 31
陶@@ 31
玄@@ 30
郵@@ 30
功@@ 30
拝@@ 30
鋭@@ 30
擁@@ 30
弦@@ 30
しょ@@ 30
一 30
th@@ 30
; 30
識 30
己@@ 30
］ 30
享@@ 29
綻@@ 29
星 29
晒@@ 29
g 29
覚 29
由 29
僧@@ 29
些@@ 29
源 29
知 29
ウ 29
謀@@ 29
稀@@ 29
校 29
硫@@ 29
問 29
霧@@ 29
at@@ 29
陣@@ 29
蚕@@ 29
乏@@ 28
［ 28
ャ 28
器 28
迅@@ 28
召@@ 28
爪@@ 28
搬@@ 28
豪@@ 28
ay@@ 28
鎮@@ 28
故 28
M 28
カメ@@ 28
披@@ 28
式 28
水 28
剥@@ 28
臣@@ 28
奉@@ 28
粧@@ 28
長 28
旦@@ 28
面 28
里@@ 28
城@@ 28
札@@ 28
ma@@ 28
濯@@ 28
彩@@ 28
叢@@ 28
岐@@ 28
+ 28
盪@@ 28
孔@@ 27
wit@@ 27
窒@@ 27
摩@@ 27
瞑@@ 27
渇@@ 27
戚@@ 27
崖@@ 27
侮@@ 27
民 27
棲@@ 27
プロジェ@@ 27
憎@@ 27
接 27
ic@@ 27
葉 27
膵@@ 27
隕@@ 27
腎@@ 27
秋@@ 26
雷@@ 26
綺@@ 26
感 26
穀@@ 26
ッ 26
明 26
an@@ 26
ri@@ 26
俗@@ 26
怯@@ 26
六@@ 26
色 26
初 26
剖@@ 26
駅@@ 26
行 26
祉@@ 26
関 26
竹@@ 26
騙@@ 26
f@@ 26
槽@@ 26
譜@@ 26
寺@@ 26
キ 26
皿@@ 26
et@@ 26
絹@@ 26
Ａ@@ 26
綱@@ 26
&@@ 26
夏 25
i 25
義 25
庁@@ 25
os@@ 25
据@@ 25
這@@ 25
搾@@ 25
バ 25
織 25
菜@@ 25
類 25
ぇ 25
市 25
熊@@ 25
パ 25
鯨@@ 25
拓@@ 25
憶@@ 25
先 25
ヨー@@ 25
匿@@ 25
係 25
位 25
l 25
塔@@ 25
系 25
_ 25
枢@@ 24
６ 24
帆@@ 24
線 24
栓@@ 24
親 24
塵@@ 24
征@@ 24
堅@@ 24
牽@@ 24
拭@@ 24
v@@ 24
殴@@ 24
ビ 24
粗@@ 24
足 24
褒@@ 24
汰@@ 24
地 24
メ 24
愉@@ 24
銅@@ 24
棟@@ 24
雰@@ 24
寸@@ 24
蛮@@ 24
ヤ 24
薬 24
ple@@ 24
ra@@ 24
療 24
他 24
ha@@ 24
詐@@ 24
and 24
大 24
擬@@ 24
罠@@ 24
番 23
銘@@ 23
＆ 23
舗@@ 23
倉@@ 23
ot@@ 23
謙@@ 23
il@@ 23
ap@@ 23
濡@@ 23
験 23
況@@ 23
憩@@ 23
軒@@ 23
沌@@ 23
譲@@ 23
糞@@ 23
窮@@ 23
漏@@ 23
肯@@ 23
瞭@@ 23
紐@@ 23
鋼@@ 23
Ｉ@@ 23
挨@@ 23
拶@@ 23
亜@@ 23
産 23
活 23
ac@@ 23
稚@@ 23
態 23
啓@@ 23
od@@ 23
桃@@ 23
縫@@ 23
扁@@ 23
mi@@ 23
教 22
済 22
喝@@ 22
通 22
境 22
械 22
廷@@ 22
拐@@ 22
st@@ 22
瀕@@ 22
tu@@ 22
撤@@ 22
争 22
伏@@ 22
曖@@ 22
昧@@ 22
呪@@ 22
ループ@@ 22
V 22
筒@@ 22
舌@@ 22
咲@@ 22
イメ@@ 22
潤@@ 22
域 22
No 22
又@@ 22
獣@@ 22
℃ 22
溜@@ 22
鞍@@ 22
真 22
ad@@ 22
戦 22
壇@@ 22
万 22
件 22
路 22
憤@@ 22
挿@@ 22
則 22
顎@@ 22
Al@@ 22
dia 22
貞@@ 22
斬@@ 21
抵 21
８ 21
ro@@ 21
兼@@ 21
雅@@ 21
贅@@ 21
愕@@ 21
倍 21
等 21
ur@@ 21
G 21
畳@@ 21
姦@@ 21
y 21
料 21
府 21
涼@@ 21
０ 21
構 21
郡@@ 21
猛@@ 21
ver@@ 21
li@@ 21
． 21
汎@@ 21
幽@@ 21
羅@@ 21
渦@@ 21
fra@@ 21
それぞ@@ 20
梁@@ 20
垣@@ 20
痢@@ 20
置 20
娯@@ 20
成 20
念 20
舵@@ 20
査 20
om@@ 20
腔@@ 20
妄@@ 20
di@@ 20
s 20
ig@@ 20
ミ 20
re@@ 20
情 20
ir@@ 20
択 20
ab@@ 20
An@@ 20
姿 20
un@@ 20
11 20
苛@@ 20
浅@@ 20
側 20
陳@@ 20
尋@@ 20
山 20
賊@@ 20
de@@ 20
伺@@ 20
止 20
tic@@ 20
sh@@ 20
島 20
差 20
喋@@ 20
胞 20
罹@@ 20
球 20
蹴@@ 20
挫@@ 20
肘@@ 20
宗@@ 19
瓦@@ 19
慌@@ 19
co@@ 19
於@@ 19
漢@@ 19
廊@@ 19
浜@@ 19
困 19
• 19
園 19
シ 19
In@@ 19
− 19
皇@@ 19
侶@@ 19
言 19
浪@@ 19
貌@@ 19
陪@@ 19
沖@@ 19
金 19
箋@@ 19
飯@@ 19
Li@@ 19
秒 19
了 19
解 19
高 19
晴@@ 19
佐@@ 19
賂@@ 19
康 19
湯@@ 19
造 19
泉@@ 19
茂@@ 19
DNA 19
鳩@@ 19
合 19
one 19
St@@ 19
珠@@ 19
j@@ 18
道 18
訣@@ 18
en 18
荘@@ 18
ing@@ 18
津@@ 18
ag@@ 18
向 18
材 18
懲@@ 18
熱 18
刈@@ 18
el@@ 18
com@@ 18
12 18
応 18
素 18
昏@@ 18
もちろ@@ 18
t 18
L 18
７ 18
定 18
do@@ 18
官 18
母 18
神 18
be 18
W 18
倹@@ 18
稜@@ 18
纂@@ 18
団 17
計 17
汗@@ 17
剤 17
喉@@ 17
耗@@ 17
牙@@ 17
半 17
勃@@ 17
券@@ 17
寮@@ 17
蔭@@ 17
訟@@ 17
椎@@ 17
X 17
木 17
愛 17
刃@@ 17
信 17
新 17
症 17
口 17
史 17
吊@@ 17
９ 17
姫@@ 17
雌@@ 17
＿ 17
Ma@@ 17
牢@@ 17
／ 17
b 17
um@@ 17
lic@@ 17
隊 16
胞@@ 16
沸@@ 16
騰@@ 16
ke@@ 16
要 16
as@@ 16
徒 16
紳@@ 16
閃@@ 16
匠@@ 16
賜@@ 16
光 16
発 16
赴@@ 16
id@@ 16
采 16
隻@@ 16
訳 16
字 16
af@@ 16
怠@@ 16
an 16
wi@@ 16
矯@@ 16
甚@@ 16
鈍@@ 16
杖@@ 16
灌@@ 16
壊 16
TE@@ 16
Ｘ@@ 16
ar 16
焉@@ 16
si@@ 16
惜@@ 15
曰@@ 15
僻@@ 15
別 15
蔑@@ 15
八@@ 15
枕@@ 15
傑@@ 15
喘@@ 15
緒@@ 15
具 15
op@@ 15
逐@@ 15
聡@@ 15
股@@ 15
薦@@ 15
袖@@ 15
型 15
喚@@ 15
柵@@ 15
篤@@ 15
説 15
敗 15
郭@@ 15
ワ 15
戯@@ 15
Ｑ@@ 15
繍@@ 15
Mo@@ 15
無 15
治 14
折 14
掻@@ 14
呈@@ 14
罵@@ 14
bo@@ 14
赤 14
眉@@ 14
淘@@ 14
約 14
dro@@ 14
坂@@ 14
Yes 14
釘@@ 14
鞭@@ 14
宙@@ 14
赦@@ 14
of 14
野 14
卑@@ 14
考 14
綴@@ 14
エ 14
慰@@ 14
lo@@ 14
蝶@@ 14
蒙@@ 14
務 14
痩@@ 14
策 14
州 14
ソ 14
骨 14
措@@ 14
ul@@ 14
妖@@ 14
盆@@ 14
葛@@ 14
藤@@ 14
ch@@ 14
thema@@ 14
ハ 13
麦@@ 13
究 13
凧@@ 13
望 13
怖 13
澄@@ 13
k 13
憑@@ 13
囁@@ 13
胴@@ 13
室 13
剃@@ 13
名 13
犬 13
騎@@ 13
讃@@ 13
死 13
虜@@ 13
屋 13
凶@@ 13
邸@@ 13
斐@@ 13
帯 13
溺@@ 13
峡@@ 13
九@@ 13
図 13
馳@@ 13
礼 13
悪 13
去 13
当 13
鍋@@ 13
標 13
覇@@ 13
領 13
虫 13
p 13
末 13
宛@@ 13
格 13
亀@@ 13
遙@@ 13
斧@@ 13
父 13
is@@ 13
ge@@ 13
汲@@ 13
撒@@ 13
漑@@ 13
遷@@ 13
畏@@ 13
堪@@ 13
任 13
元 13
ぉ 13
彙@@ 13
瀬@@ 13
肉 13
蟻@@ 13
七@@ 13
to 13
r 13
net 13
our@@ 13
蛋@@ 13
松@@ 12
嫁@@ 12
筈@@ 12
利 12
濁@@ 12
零@@ 12
虹@@ 12
頬@@ 12
妹 12
Ch@@ 12
角 12
錆@@ 12
夢 12
油 12
鐘@@ 12
ec@@ 12
ヴ 12
ick@@ 12
凌@@ 12
斑@@ 12
縞@@ 12
唇@@ 12
墜@@ 12
噂@@ 12
号 12
爬@@ 12
君 12
痘@@ 12
蜘@@ 12
蛛@@ 12
蛙@@ 12
鍛@@ 12
群 12
権 12
轢@@ 12
台 12
ws 12
es 12
ネ 12
憶 12
Wh@@ 12
習 12
ボ 12
椰@@ 12
蘇@@ 12
想 12
c 12
菓@@ 12
髭@@ 12
胃@@ 12
紋@@ 12
挟@@ 12
糊@@ 12
Q 12
容 11
枚 11
沼@@ 11
ed@@ 11
wer@@ 11
on 11
煽@@ 11
期 11
貰@@ 11
娘 11
錬@@ 11
me 11
In 11
ation 11
陛@@ 11
僕 11
ありがと@@ 11
褐@@ 11
満 11
染 11
縄@@ 11
旺@@ 11
択@@ 11
晰@@ 11
呑@@ 11
稲@@ 11
険 11
傲@@ 11
泄@@ 11
層 11
We 11
曇@@ 11
Uni@@ 11
設 11
J 11
醒@@ 11
刀@@ 11
癖@@ 11
院 11
響 11
慨@@ 11
堕@@ 11
喧@@ 11
苗@@ 11
’ 11
al 11
in 11
惚@@ 11
ヨーロッ@@ 11
ァ 11
文 11
螺@@ 11
訛@@ 11
膀@@ 11
胱@@ 11
ve@@ 11
× 11
ex@@ 11
ェ 10
Ｎ@@ 10
速 10
街 10
少 10
壕@@ 10
er 10
叙@@ 10
se 10
娩@@ 10
馬 10
緑 10
紅@@ 10
ill@@ 10
ent@@ 10
出 10
意 10
star@@ 10
察 10
or 10
wor@@ 10
chang@@ 10
費 10
派 10
敵 10
轄@@ 10
嶺@@ 10
呆@@ 10
版 10
景 10
息 10
ine@@ 10
在 10
go@@ 10
ta@@ 10
gra@@ 10
閾@@ 10
礫@@ 10
旨@@ 10
メッセ@@ 10
Ｃ@@ 10
曾@@ 10
the 10
ear@@ 10
斉@@ 10
戮@@ 10
繭@@ 10
窪@@ 10
濾@@ 10
Ｑ 10
累@@ 10
春 10
流 10
医 10
纏@@ 10
臓 10
悼@@ 10
ey@@ 10
諾@@ 10
沙@@ 10
捻@@ 10
雫@@ 10
樹 10
模 10
鹸@@ 10
梗@@ 10
per@@ 10
【 10
】 10
緻@@ 9
Ｇ@@ 9
立 9
d 9
Su@@ 9
脳 9
car@@ 9
賞 9
ぬ 9
旬@@ 9
店 9
欄@@ 9
ビジ@@ 9
孵@@ 9
僚 9
舟@@ 9
Ar@@ 9
徴 9
宜@@ 9
Y 9
圳@@ 9
海 9
断 9
誰 9
空 9
伯@@ 9
唾@@ 9
壁 9
門 9
ヒ 9
h 9
碑@@ 9
ci@@ 9
端 9
典 9
弊@@ 9
恊@@ 9
詩 9
el 9
Wor@@ 9
se@@ 9
尚@@ 9
得 9
ォ 9
埃@@ 9
頭 9
＋ 9
屍@@ 9
ti@@ 9
誌 9
東 9
讐@@ 9
和 9
展 9
繕@@ 9
ing 9
弟 9
N 9
汝@@ 9
– 9
ity 9
制 9
sp@@ 9
pro@@ 9
吟@@ 9
頸@@ 9
寧@@ 9
舶@@ 9
漆@@ 9
状 9
求 9
観 9
個 9
乞@@ 9
切 9
煮@@ 9
米 9
外 9
bit@@ 9
象 9
膏@@ 9
憐@@ 9
ome 9
直 9
遵@@ 9
町 9
ft 9
腋@@ 9
win@@ 9
； 9
ate 9
川 9
転 9
毒 9
ser@@ 9
蹄@@ 9
娼@@ 9
bit 9
現 8
離 8
全 8
魚 8
der@@ 8
tion@@ 8
齧@@ 8
煩@@ 8
視 8
貪@@ 8
拳@@ 8
槌@@ 8
郷 8
靱@@ 8
授 8
猫 8
牛 8
逝@@ 8
羨@@ 8
堤@@ 8
th 8
Con@@ 8
ev@@ 8
梱@@ 8
茎@@ 8
駕@@ 8
該@@ 8
刻 8
婚 8
le 8
ひ 8
,000 8
況 8
狼@@ 8
槍@@ 8
ay 8
涯 8
加 8
ch 8
Re@@ 8
議 8
​ 8
録 8
隆@@ 8
皺@@ 8
稽@@ 8
曝@@ 8
塀@@ 8
笛@@ 8
糸 8
装 8
org@@ 8
火 8
嘩@@ 8
漬@@ 8
只@@ 8
吠@@ 8
対 8
氏 8
律 8
築 8
絵 8
良 8
vi@@ 8
祷@@ 8
液 8
才 8
巣 8
鏡 8
掌@@ 8
存 8
It 8
挙 8
at 8
ござ@@ 8
ack 8
is 8
ore 8
暫@@ 8
ve 8
駒@@ 8
蝕@@ 8
濫@@ 8
琥@@ 8
珀@@ 8
book 8
Th@@ 8
扇@@ 8
te 8
郎@@ 8
石 8
尼@@ 8
Ｂ@@ 8
己 8
汐@@ 8
護 8
頓@@ 8
tion 8
次 8
聞 8
ple 8
交 8
Ｔ 8
Ｄ 8
st 8
相 7
捗@@ 7
app@@ 7
洒@@ 7
恋 7
核 7
援 7
int@@ 7
ざ 7
淵@@ 7
滝@@ 7
臆@@ 7
准@@ 7
認 7
閣@@ 7
安 7
変 7
ぇ@@ 7
福 7
青 7
cor@@ 7
呂@@ 7
峰@@ 7
妃@@ 7
氷 7
入 7
菌 7
鎧@@ 7
鉢@@ 7
除 7
服 7
菜 7
姻@@ 7
罪 7
坑@@ 7
My 7
塑@@ 7
閥@@ 7
秋 7
冬 7
撃 7
村 7
躁@@ 7
ギ 7
牡@@ 7
王 7
兼 7
it 7
醸@@ 7
抹@@ 7
旦 7
ine 7
ail@@ 7
廻@@ 7
ter 7
齢 7
tr@@ 7
ound@@ 7
One 7
ケ 7
跡 7
arti@@ 7
資 7
省 7
根 7
勢 7
聴 7
引 7
Pe@@ 7
lob@@ 7
me@@ 7
而@@ 7
腱@@ 7
坪@@ 7
痴@@ 7
勾@@ 7
顔 7
楕@@ 7
謳@@ 7
躊@@ 7
躇@@ 7
饉@@ 7
？@@ 7
傷 7
窩@@ 7
oo@@ 7
那@@ 7
且@@ 7
肢 7
悶@@ 7
ell@@ 7
張 7
z 7
鄙@@ 7
撥@@ 7
失 7
旅 7
瞳@@ 7
窯@@ 7
v 7
ヌ 7
調 7
and@@ 7
out 7
慣 7
。@@ 7
fi@@ 7
What 7
忌@@ 7
或@@ 7
弧@@ 7
n 7
索 7
鞘@@ 7
ga@@ 7
草 7
刊@@ 7
斥@@ 7
us@@ 7
Ⅰ@@ 7
辺 7
如 7
ff@@ 7
鄧@@ 7
pa@@ 7
α@@ 7
送 7
Ｅ 7
# 7
ight 7
掟@@ 7
chi@@ 7
imp@@ 7
葡@@ 7
萄@@ 7
餐@@ 6
館 6
墟@@ 6
煉@@ 6
No@@ 6
非 6
ke 6
able 6
繫@@ 6
虔@@ 6
懇@@ 6
軍 6
芳@@ 6
庭 6
凹@@ 6
up@@ 6
pre@@ 6
ru@@ 6
痙@@ 6
攣@@ 6
諺@@ 6
沃@@ 6
白 6
輩@@ 6
棺@@ 6
du@@ 6
鋳@@ 6
船 6
艘@@ 6
千 6
灼@@ 6
猶@@ 6
扶@@ 6
党 6
ゥ 6
値 6
fe 6
踵@@ 6
劇 6
着 6
檻@@ 6
暦@@ 6
for 6
例 6
ob@@ 6
剛@@ 6
fe@@ 6
ho@@ 6
紀 6
因 6
ant 6
復 6
棒 6
ゲ 6
激 6
嘲@@ 6
血 6
癌 6
経 6
卸@@ 6
更 6
簿@@ 6
桑@@ 6
鉄 6
詠@@ 6
as 6
ガ 6
陸 6
恣@@ 6
使 6
患 6
ye@@ 6
do 6
昇 6
腿@@ 6
ポ 6
奮 6
組 6
e-@@ 6
冥@@ 6
測 6
姑@@ 6
Ｊ 6
集 6
od 6
乱 6
又 6
Ｓ@@ 6
殉@@ 6
疹@@ 6
弛@@ 6
吉@@ 6
滅 6
友 6
喰@@ 6
疽@@ 6
朽@@ 6
ic 6
氾@@ 6
突 6
ｍ@@ 6
us 6
峙@@ 6
ph@@ 6
崎@@ 6
舐@@ 6
ur 6
毛 6
比 6
scienti@@ 6
cri@@ 6
sy@@ 6
庶@@ 6
焚@@ 6
ze 6
璧 6
坦@@ 6
friend 6
貶@@ 6
著 6
瀑@@ 6
壺@@ 6
wh@@ 6
est 6
紋 6
頼 6
莞@@ 6
吃@@ 6
汁@@ 6
too 6
采@@ 5
伝 5
房 5
Ｏ@@ 5
陽 5
減 5
区 5
bot@@ 5
the@@ 5
min@@ 5
備 5
涜@@ 5
籍 5
奔@@ 5
輪 5
凸@@ 5
enti@@ 5
池 5
斎@@ 5
卿@@ 5
ぼ 5
射 5
軋@@ 5
爵@@ 5
狼 5
玩@@ 5
age 5
告 5
篭@@ 5
林 5
..@@ 5
主 5
紙 5
製 5
繹@@ 5
難 5
鵜@@ 5
炉 5
World 5
快 5
Earth 5
崖 5
柄 5
朴@@ 5
渓@@ 5
ヅ@@ 5
智@@ 5
咳@@ 5
略 5
king 5
第 5
儀 5
垢@@ 5
宅 5
ピュー@@ 5
瞬 5
堵@@ 5
暇 5
ant@@ 5
平 5
皮 5
列 5
波 5
土 5
表 5
益 5
bri@@ 5
記 5
宴@@ 5
祥@@ 5
鞄@@ 5
絆 5
篇@@ 5
we 5
脈 5
瞰@@ 5
姪@@ 5
洋 5
束 5
av@@ 5
ョ 5
革 5
丁 5
絨@@ 5
ical 5
痛 5
富 5
ut@@ 5
班@@ 5
郎 5
This 5
妻 5
持 5
傘@@ 5
暢@@ 5
共 5
遜@@ 5
価 5
Ｋ 5
Ａ 5
詫@@ 5
蔽@@ 5
箱 5
限 5
割 5
積 5
鳥 5
錐@@ 5
純 5
密 5
隈@@ 5
my 5
摯@@ 5
環 5
薪@@ 5
恨@@ 5
Z 5
et 5
播@@ 5
準 5
善 5
gr@@ 5
工 5
ut 5
萌@@ 5
ea@@ 5
彰@@ 5
麓@@ 5
橋 5
oc@@ 5
統 5
蛾@@ 5
井 5
ary 5
正 5
粛@@ 5
f 5
ヨ 5
ad 5
hop@@ 5
乗 5
ach@@ 5
尖@@ 5
須 5
ech@@ 5
裂 5
胡@@ 5
酢@@ 5
琴@@ 5
炭 5
鍼@@ 5
厭@@ 5
饉 5
配 5
very@@ 5
旱@@ 5
魃@@ 5
叉@@ 5
Le@@ 5
Ear@@ 5
膣@@ 5
判 5
é@@ 5
flo@@ 5
New 5
iness 4
京 4
増 4
@ 4
庫 4
悠@@ 4
謎 4
淑@@ 4
丸 4
pt 4
ご 4
技 4
靴 4
套@@ 4
猊@@ 4
肌 4
梯@@ 4
杭@@ 4
tom@@ 4
湾 4
句 4
百 4
oun@@ 4
適 4
錘@@ 4
賑@@ 4
Ｐ@@ 4
Ｍ@@ 4
針 4
悦@@ 4
温 4
狡@@ 4
猾@@ 4
陀@@ 4
鹿 4
栄 4
章 4
始 4
ne@@ 4
u 4
示 4
縦 4
焉 4
＄ 4
狂 4
演 4
迂@@ 4
範 4
ks 4
翔@@ 4
役 4
歩 4
刑 4
祭 4
ack@@ 4
似 4
居 4
臣 4
曽@@ 4
檀@@ 4
悔 4
陵@@ 4
岳@@ 4
pl@@ 4
唸@@ 4
嗜@@ 4
can@@ 4
ed 4
放 4
麦 4
案 4
退 4
炎 4
毯@@ 4
to@@ 4
恍@@ 4
贋@@ 4
愁@@ 4
銃 4
響@@ 4
all 4
ass 4
窓 4
謝 4
功 4
給 4
円 4
儚@@ 4
盤 4
dy 4
檻 4
乖@@ 4
咽@@ 4
弱 4
sli@@ 4
訂@@ 4
im@@ 4
碁@@ 4
² 4
寓@@ 4
候 4
杯 4
我 4
虎@@ 4
肋@@ 4
優 4
弾 4
loc@@ 4
菩@@ 4
督 4
極 4
独 4
珪@@ 4
右 4
揉@@ 4
畜 4
Ｚ@@ 4
斂@@ 4
符 4
韻@@ 4
籠@@ 4
嚇@@ 4
osp@@ 4
ran@@ 4
坐@@ 4
翅@@ 4
ale 4
席 4
敬 4
Gre@@ 4
単 4
no@@ 4
ce@@ 4
磔@@ 4
訝@@ 4
宇@@ 4
宙 4
なけ@@ 4
em@@ 4
Ⅱ@@ 4
維 4
con@@ 4
嬢@@ 4
港 4
有 4
棍@@ 4
emo@@ 4
design 4
」@@ 4
可 4
浚@@ 4
渫@@ 4
布 4
^ 4
Ｕ@@ 4
anc@@ 4
str@@ 4
° 4
食 4
tle 4
晦@@ 4
黎@@ 4
級 4
day 4
row 4
佐 4
襟@@ 4
扮@@ 4
住 4
If 4
gg@@ 4
営 4
嚢@@ 4
髪 4
懺@@ 4
hi@@ 4
sc@@ 4
佇@@ 4
冑@@ 4
叱@@ 4
″ 4
gh 4
算 4
dge 4
ject 4
ful 4
吻@@ 4
芭@@ 4
蕉@@ 4
婿@@ 3
ys@@ 3
la@@ 3
矮@@ 3
妙 3
ain@@ 3
our 3
御 3
鱗@@ 3
♥ 3
進 3
ey 3
序 3
qu@@ 3
賀@@ 3
幕 3
致 3
咳 3
姦 3
取 3
続 3
芯@@ 3
ment 3
鈴@@ 3
捕 3
疇@@ 3
褶@@ 3
灰 3
謬@@ 3
倣 3
熔@@ 3
bi@@ 3
phone 3
影 3
風 3
好 3
決 3
酌@@ 3
ピ 3
重 3
鬼@@ 3
セ 3
奢@@ 3
蝋@@ 3
羞@@ 3
奴 3
腑@@ 3
もしれ@@ 3
威 3
ist@@ 3
蛹@@ 3
am 3
ics 3
secre@@ 3
榴@@ 3
健 3
劾@@ 3
‐ 3
rop@@ 3
梁 3
ind 3
南 3
he 3
二 3
首 3
圧 3
姫 3
í@@ 3
殺 3
塔 3
斡@@ 3
ber@@ 3
of@@ 3
云@@ 3
跪@@ 3
鍮@@ 3
ital 3
俯@@ 3
肪 3
漸@@ 3
Oh 3
est@@ 3
竿@@ 3
ly 3
芋@@ 3
豆 3
屑@@ 3
ペ 3
滴 3
唐@@ 3
秤@@ 3
処 3
胃 3
刹@@ 3
ise 3
Here 3
戒 3
憫@@ 3
祉 3
堂 3
iz@@ 3
ome@@ 3
all@@ 3
ker 3
Ｋ@@ 3
Ｊ@@ 3
靭@@ 3
瞞@@ 3
碗@@ 3
筆 3
嘆 3
礫 3
獲 3
竜 3
衛 3
婆@@ 3
県@@ 3
寂 3
ep@@ 3
撼@@ 3
拐 3
旗 3
醇@@ 3
辣@@ 3
網 3
笛 3
墨@@ 3
ener@@ 3
some 3
羊 3
羽 3
姓@@ 3
穴 3
函@@ 3
遁@@ 3
耳 3
票 3
管 3
You 3
Ｃ 3
Ｈ@@ 3
弔@@ 3
嘔@@ 3
税 3
耐 3
te@@ 3
醍@@ 3
醐@@ 3
悲 3
ｲ@@ 3
face 3
cul@@ 3
徘@@ 3
徊@@ 3
仰 3
婦 3
尿 3
萎@@ 3
条 3
bl@@ 3
岸 3
ゾ 3
媚@@ 3
瘢@@ 3
証 3
ide@@ 3
· 3
硝@@ 3
司 3
粒 3
煎@@ 3
ue 3
yp@@ 3
for@@ 3
ゼ 3
America 3
江@@ 3
詞 3
爽@@ 3
魂 3
ous 3
sion 3
電 3
偵@@ 3
庸@@ 3
都 3
彼 3
圳 3
恰@@ 3
q 3
贖@@ 3
帰 3
河 3
Jo@@ 3
壜@@ 3
析 3
藍@@ 3
紆@@ 3
辻@@ 3
nec@@ 3
麺@@ 3
航 3
沌 3
鹸 3
階 3
桂@@ 3
舎 3
節 3
椒@@ 3
乙@@ 3
職 3
糖 3
待 3
獄 3
弥@@ 3
ester@@ 3
inv@@ 3
裔@@ 3
open@@ 3
ste@@ 3
ali@@ 3
ograp@@ 3
黄 3
ノロ@@ 3
睨@@ 3
庁 3
連 3
尾 3
痺 3
桶@@ 3
he@@ 3
棄 3
Un@@ 3
助 3
仔@@ 3
蓮@@ 3
鬱 3
紫 3
防 3
had 3
use 3
whatever 3
inal 3
樽@@ 3
与 3
薩@@ 3
戸 2
隣 2
顏@@ 2
縮 2
＊ 2
歴 2
灯 2
慕@@ 2
謹@@ 2
緒 2
ding 2
袈@@ 2
裟@@ 2
誉 2
唱 2
藪@@ 2
腹 2
ry 2
壷 2
汽@@ 2
咎@@ 2
臼@@ 2
落 2
埠@@ 2
詮 2
dom 2
煌@@ 2
struc@@ 2
到 2
美 2
脚 2
印 2
属 2
恵 2
鋲@@ 2
mo@@ 2
ff 2
諭@@ 2
那 2
trans@@ 2
頁@@ 2
阿@@ 2
運 2
隅 2
守 2
沢 2
楼@@ 2
浦@@ 2
譜 2
穣@@ 2
舗 2
横 2
躍 2
ake 2
gi@@ 2
sil@@ 2
俵@@ 2
売 2
ness 2
異 2
蜂 2
公 2
賛 2
net@@ 2
ster 2
糧 2
柱 2
胸 2
ni@@ 2
拙@@ 2
葯@@ 2
漠 2
霊 2
貂@@ 2
睦@@ 2
噓@@ 2
è@@ 2
ir 2
拝 2
酷 2
棚 2
惰@@ 2
寡@@ 2
jo@@ 2
亘@@ 2
悩 2
vie@@ 2
堀@@ 2
牝@@ 2
泰@@ 2
ican 2
脱 2
債 2
眩@@ 2
黙 2
‘ 2
霞@@ 2
縷@@ 2
閑@@ 2
畔@@ 2
no 2
蠣@@ 2
prob@@ 2
練 2
tran@@ 2
Ｇ 2
ole 2
let 2
point 2
挽@@ 2
酪@@ 2
娠 2
ents 2
囲 2
眠 2
令 2
inc@@ 2
疝@@ 2
pu@@ 2
ain 2
ath 2
wers 2
拠 2
述 2
釘 2
政 2
Ｙ@@ 2
ens 2
Do 2
uc@@ 2
泥 2
岐 2
loo@@ 2
ace 2
谷 2
鮮 2
談 2
但@@ 2
欲 2
not 2
付 2
ess 2
屈 2
宝 2
龍@@ 2
滞 2
艾@@ 2
釉@@ 2
賠@@ 2
ere 2
dat@@ 2
her 2
潮 2
嵩@@ 2
桿@@ 2
τ@@ 2
ene@@ 2
En@@ 2
peri@@ 2
cal@@ 2
憊@@ 2
洞 2
世 2
低 2
枷@@ 2
買 2
峠@@ 2
錦@@ 2
諮@@ 2
許 2
ans@@ 2
猥@@ 2
兜@@ 2
ホ 2
aw@@ 2
thin@@ 2
ook 2
拗@@ 2
慧@@ 2
仕 2
謂@@ 2
live 2
tri@@ 2
life 2
they 2
might 2
cannot 2
森 2
ak 2
蕩@@ 2
藻 2
褪@@ 2
詮@@ 2
蚤@@ 2
hood 2
ｋ@@ 2
Ｖ 2
less 2
Ｘ 2
ark 2
雑 2
開 2
logy 2
you 2
ts 2
冴@@ 2
ger 2
伏 2
超 2
嚢 2
悸@@ 2
吸 2
po@@ 2
ther@@ 2
請 2
逓@@ 2
Ｆ@@ 2
働 2
骸 2
茫@@ 2
械@@ 2
gen@@ 2
億 2
枝 2
end 2
ぉ@@ 2
戴@@ 2
happ@@ 2
践 2
sa@@ 2
comm@@ 2
rec@@ 2
ory 2
ice 2
仏 2
棺 2
蘭@@ 2
瞳 2
讐 2
stems 2
慮 2
腺 2
梨@@ 2
ree@@ 2
掘 2
land 2
喜 2
養 2
雄 2
磋@@ 2
琢@@ 2
gre@@ 2
id 2
冪@@ 2
box 2
鎖 2
喩 2
ence 2
Ⅲ@@ 2
port@@ 2
潅@@ 2
露 2
震 2
唄@@ 2
几@@ 2
ｰ@@ 2
猟 2
褄@@ 2
負 2
兄 2
ﾞ@@ 2
ﾝ@@ 2
妬 2
serv@@ 2
ふ 2
城 2
ca@@ 2
duc@@ 2
unch 2
brea@@ 2
fast 2
tain@@ 2
elec@@ 2
ute 2
移 2
bu@@ 2
bur@@ 2
弦 2
蔵 2
訟 2
却 2
熊 2
駈@@ 2
ree 2
now 2
reg@@ 2
呵@@ 2
粉 2
北 2
拮@@ 2
答 2
孫 2
why 2
Inter@@ 2
mar@@ 2
圏 2
庇@@ 2
称 2
儒@@ 2
片 2
雨 2
獰@@ 2
禿@@ 2
葦@@ 2
雫 2
ted 2
板 2
沫@@ 2
und@@ 2
獅@@ 2
ari@@ 2
幅 2
ma 2
薔@@ 2
酒 2
扉 2
駿@@ 2
編 2
塞 2
崗@@ 2
set 2
爆 2
唖@@ 2
縁 2
糾@@ 2
囚 2
冊 2
映 2
桁 2
軒 2
爪 2
蠕@@ 2
cont@@ 2
tics 2
ers 2
ally 2
stand 2
ning 2
ot 2
斧 2
鱗 2
rit@@ 2
倒 2
ky 2
嘘 2
銅 2
鉛 2
袋 2
艶@@ 2
膳@@ 2
僧 2
ぢ@@ 2
顎 2
关@@ 2
霜@@ 2
陣 2
tation 2
ated 2
man@@ 2
換 2
are@@ 2
虹 2
ved 2
Yor@@ 2
冶@@ 2
ell 2
God 2
ama@@ 2
tive 2
終 2
ving 2
ulation 2
tis@@ 2
bal@@ 2
ite 2
act 2
府@@ 2
読 2
咆@@ 2
哮 2
咬@@ 2
鼻 2
ose 2
σ@@ 2
ury 2
mer@@ 2
轍@@ 2
嬰@@ 2
晶 2
指 2
瘤 2
瘍 2
辱 2
de 2
噪@@ 2
little 2
was 2
that 2
岩 2
軸 2
菅@@ 2
nal 2
粥@@ 2
洟@@ 2
腕 2
髙@@ 2
雲 2
鴨@@ 2
椒 2
塩 2
鮭@@ 2
呟@@ 2
絶 2
周 1
紺@@ 1
丘 1
修 1
illing 1
ance 1
ast@@ 1
ass@@ 1
茣@@ 1
蓙 1
塹@@ 1
試 1
謡@@ 1
延 1
某@@ 1
餅@@ 1
九 1
American 1
um 1
sti@@ 1
dig@@ 1
out@@ 1
fiel@@ 1
der 1
楯@@ 1
頷@@ 1
殿 1
燕@@ 1
♪@@ 1
雪 1
壌 1
凱@@ 1
蝿@@ 1
." 1
蛇 1
翼 1
浄 1
舵 1
盛 1
輸 1
艘 1
ユ 1
ate@@ 1
提 1
滲@@ 1
巫@@ 1
銑@@ 1
宁@@ 1
导@@ 1
份 1
ird 1
戈@@ 1
尓 1
栗@@ 1
座 1
㎞ 1
箋 1
欒@@ 1
覧 1
卓 1
塊 1
鞍 1
警 1
詈@@ 1
閂 1
淫@@ 1
倦@@ 1
怠 1
徳 1
泉 1
慶@@ 1
會@@ 1
ñ@@ 1
叡@@ 1
燎@@ 1
禽@@ 1
bility 1
communic@@ 1
think 1
蛹 1
ounds 1
su@@ 1
any 1
建 1
康@@ 1
cr@@ 1
娩 1
盲 1
pat@@ 1
ago 1
携 1
ater 1
ds 1
甦@@ 1
癬 1
ast 1
茶 1
mid@@ 1
gh@@ 1
敲@@ 1
妊 1
que 1
way 1
ection 1
lan@@ 1
匠 1
涜 1
伊@@ 1
丈 1
完 1
田 1
李@@ 1
柿@@ 1
ten 1
ect 1
鉈 1
昏 1
忽@@ 1
嵐 1
贔@@ 1
屓@@ 1
Afr@@ 1
保 1
補 1
鋸@@ 1
剖 1
五 1
Ｌ@@ 1
竣@@ 1
Africa 1
ah 1
児 1
株 1
os 1
bus@@ 1
廃 1
illed 1
梢@@ 1
燻@@ 1
殻 1
消 1
荷 1
漑 1
view 1
弄@@ 1
ool 1
鰓@@ 1
箕@@ 1
聖 1
狸@@ 1
hy@@ 1
瓶 1
餐 1
蜜 1
Ｆ 1
嵌@@ 1
舶 1
簿 1
槌 1
飴@@ 1
撫@@ 1
墓 1
tiz@@ 1
臂@@ 1
w 1
thing 1
壕 1
卿 1
綻 1
欺 1
did 1
悦 1
慌 1
興 1
呻@@ 1
fin@@ 1
災 1
犯 1
pas@@ 1
ves 1
侈@@ 1
塁@@ 1
厘@@ 1
pati@@ 1
can 1
ba@@ 1
宇 1
径 1
侍@@ 1
紗@@ 1
蒔@@ 1
ked 1
汎 1
畝@@ 1
避 1
Ｓ 1
嫌 1
淀@@ 1
∇ 1
τ 1
潟@@ 1
虞@@ 1
ms 1
children 1
gy 1
閲 1
起 1
絡 1
其@@ 1
鷲@@ 1
膜 1
sion@@ 1
貸 1
聘@@ 1
煙 1
訶@@ 1
曼@@ 1
荼@@ 1
深 1
豪 1
挺@@ 1
ond 1
dise@@ 1
uch 1
鯉@@ 1
科 1
穫 1
肥 1
癘@@ 1
son 1
hard 1
褻@@ 1
ever 1
ols 1
虜 1
狐@@ 1
肩 1
銭 1
res@@ 1
繍 1
豚 1
芻@@ 1
沃 1
走 1
眼 1
鍬@@ 1
war@@ 1
¼ 1
抗 1
匹 1
逢@@ 1
create 1
things 1
are 1
but 1
build 1
understand 1
冤@@ 1
苺@@ 1
猿 1
瞭 1
舳@@ 1
make 1
neigh@@ 1
bor@@ 1
郡 1
au@@ 1
gether 1
班 1
天 1
卍 1
誦@@ 1
裏 1
瑚 1
腸 1
叛@@ 1
思 1
only 1
once 1
nd 1
pr@@ 1
収 1
log@@ 1
複 1
曹 1
紅 1
power 1
tem@@ 1
"F@@ 1
ill 1
death 1
劫@@ 1
慄@@ 1
窟 1
蛍 1
甥@@ 1
泡 1
Ｏ 1
小 1
献 1
end@@ 1
花 1
券 1
feel 1
feeling 1
鍾@@ 1
銛@@ 1
鯨 1
穏 1
涅@@ 1
槃 1
彷@@ 1
彿@@ 1
ist 1
膝 1
糞 1
楊@@ 1
俺 1
轟@@ 1
輻@@ 1
衡 1
迦 1
ood 1
"C@@ 1
want 1
world 1
ourself 1
seen 1
yet 1
驕@@ 1
穂 1
舞 1
uring 1
支 1
eci@@ 1
しょう 1
"N@@ 1
enc@@ 1
bar@@ 1
ture 1
stem 1
lar@@ 1
fy 1
front 1
enge 1
悶 1
磔 1
譚@@ 1
劫 1
And 1
tim@@ 1
ure 1
孕@@ 1
包 1
ぅ@@ 1
偲@@ 1
cu@@ 1
ang@@ 1
渇 1
寒 1
DN@@ 1
窃@@ 1
鶏 1
反 1
枠 1
窺@@ 1
蚕 1
open 1
tro@@ 1
逆 1
Is@@ 1
ju@@ 1
ó@@ 1
巴@@ 1
奨 1
呂 1
刷 1
瞼@@ 1
ici@@ 1
ade 1
oms 1
inspi@@ 1
憫 1
諂@@ 1
nat@@ 1
迄@@ 1
ering 1
拉@@ 1
罰 1
迫 1
鳴 1
賂 1
麻 1
ぽ 1
央 1
頚@@ 1
歯 1
ｰ 1
侶 1
tiv@@ 1
"P@@ 1
帳 1
姉 1
握 1
輛@@ 1
μ@@ 1
旧 1
鷹 1
珠 1
老 1
ｳ@@ 1
ｧ@@ 1
ﾍ@@ 1
ﾆ@@ 1
ｹ@@ 1
揶@@ 1
揄@@ 1
wat@@ 1
礎 1
鯛@@ 1
俟@@ 1
牒@@ 1
ety 1
ature 1
ong 1
滋@@ 1
without 1
gs 1
hear@@ 1
bro@@ 1
ken 1
education 1
roc@@ 1
green 1
gl@@ 1
squ@@ 1
mu@@ 1
ord@@ 1
捩@@ 1
籃@@ 1
駒 1
即 1
盾 1
斜 1
α 1
脾@@ 1
梅@@ 1
贓@@ 1
衒@@ 1
桜@@ 1
compe@@ 1
sig@@ 1
fa@@ 1
ult 1
楠@@ 1
替 1
ver 1
az@@ 1
outh 1
整 1
踊 1
lim@@ 1
隷 1
琵@@ 1
琶@@ 1
top 1
per 1
ony 1
ow 1
ge 1
ellig@@ 1
ines 1
Ｉ 1
峻@@ 1
cle 1
ined 1
ining 1
will 1
剝@@ 1
廟@@ 1
蒼@@ 1
鋒@@ 1
廻 1
鉾@@ 1
仙@@ 1
紹@@ 1
介 1
sym@@ 1
固 1
潤 1
散 1
棘@@ 1
鎌@@ 1
粋 1
how 1
諦 1
祀@@ 1
宿 1
底 1
彙 1
盗 1
脇 1
昭@@ 1
糠@@ 1
ational 1
market 1
附@@ 1
締 1
款@@ 1
ベ 1
tter 1
涙 1
ency 1
na@@ 1
暁@@ 1
酢 1
den 1
"W@@ 1
ぱ 1
屑 1
厳 1
幸 1
hu@@ 1
ran 1
den@@ 1
cer@@ 1
諌@@ 1
・@@ 1
―@@ 1
砕 1
ヲ@@ 1
植 1
雛@@ 1
賓@@ 1
沖 1
烙@@ 1
har@@ 1
杭 1
ヘ 1
討 1
缶 1
昼 1
闇 1
渚@@ 1
Goo@@ 1
嶼@@ 1
腦@@ 1
及 1
愴@@ 1
姜@@ 1
fore@@ 1
ick 1
租@@ 1
炸@@ 1
疼@@ 1
÷ 1
well 1
cy@@ 1
匍@@ 1
匐@@ 1
薇@@ 1
薇 1
暗 1
札 1
蝸@@ 1
額 1
誓 1
遇 1
捷@@ 1
nee@@ 1
dis@@ 1
cre@@ 1
y-@@ 1
載 1
亡 1
鉱 1
原 1
瘤@@ 1
迎 1
ans 1
writ@@ 1
受 1
dri@@ 1
force 1
項 1
燭@@ 1
咄@@ 1
郊 1
床 1
獣 1
del 1
注 1
枡@@ 1
芒@@ 1
while 1
until 1
董@@ 1
秀 1
sit@@ 1
fo@@ 1
糊 1
膏 1
揆@@ 1
ent 1
ber 1
illi@@ 1
res 1
厨@@ 1
西 1
ings 1
ned 1
So 1
旬 1
"S@@ 1
under@@ 1
cl@@ 1
汗 1
猜@@ 1
罷@@ 1
婉@@ 1
Au@@ 1
肛@@ 1
娼 1
臍@@ 1
筝 1
蕾@@ 1
損 1
抒@@ 1
尻 1
asking 1
par@@ 1
吻 1
打 1
茹@@ 1
確 1
ely 1
ny 1
ty 1
bre@@ 1
il 1
ying 1
舌 1
Now 1
condi@@ 1
tional 1
sum@@ 1
mer 1
ban@@ 1
結 1
嶺 1
銀 1
泰 1
遂 1
妃 1
銘 1
杉@@ 1
檜@@ 1
罠 1
頬 1
zy 1
ぃ@@ 1
后@@ 1
屠@@ 1
fit 1
mis@@ 1
坊 1
恥 1
淹@@ 1
public 1
priv@@ 1
濤@@ 1
夥@@ 1
by 1
般 1
&#@@ 1
静 1
唇 1
dle 1
ě@@ 1
gu@@ 1
ó 1
克 1
吏 1
澳@@ 1
处@@ 1
于@@ 1
ī@@ 1
志 1
播 1
牧 1
砦 1
選 1
侘@@ 1
左 1
beli@@ 1
ef 1
斗@@ 1
戚 1
孝 1
導 1
versity 1
dence 1
ded 1
阪@@ 1
Ｂ 1
list@@ 1
ending 1
low 1
its 1
肘 1
違 1
tur@@ 1
吳@@ 1
傳@@ 1
邵@@ 1
por@@ 1
鋼 1
o-@@ 1
tic 1
蔑 1
堰@@ 1
膚 1
唾 1
hel@@ 1
cep@@ 1
pot@@ 1
鬼 1
organ@@ 1
瞥@@ 1
ective 1
sm@@ 1
輩 1
贄@@ 1
tw@@ 1
area 1
mul@@ 1
des@@ 1
ability 1
col@@ 1
ize 1
nice 1
dec@@ 1
tice 1
compu@@ 1
較 1
spi@@ 1
key 1
誤 1
紐 1
杮@@ 1
葺 1
皇 1
熾@@ 1
changing 1
塚@@ 1
mil@@ 1
桟@@ 1
σ 1
検 1
my@@ 1
cop@@ 1
♡ 1
做@@ 1
lies 1
洩@@ 1
sta@@ 1
自 1
鎧 1
黒 1
vo@@ 1
fri@@ 1
炒@@ 1
熟 1
幌@@ 1
肺 1
叢 1
灸@@ 1
尉@@ 1
"A@@ 1
虎 1
禍@@ 1
雀@@ 1
侯@@ 1
撲 1
盃@@ 1
胆 1
葯 1
sol@@ 1
ator 1
彦 1
筈 1
毀@@ 1
訣 1
"M@@ 1
white 1
every@@ 1
where 1
went 1
sure 1
go 1
)" 1
童 1
鮫@@ 1
托@@ 1
釈 1
red 1
泊 1
禅@@ 1
ld 1
Eng@@ 1
dic@@ 1
栓 1
鑽@@ 1
Eu@@ 1
辟@@ 1
誹@@ 1
謗@@ 1
ぺ 1
ぃ 1
諫@@ 1
溝 1
腫 1
杖 1
嘗@@ 1
雇 1
sh 1
Ｎ 1
ands 1
捏@@ 1
霜 1
弧 1
憬 1
裾@@ 1
膿@@ 1
穂@@ 1
巻 1
穢@@ 1
劣 1
継 1
綱 1
悄@@ 1
諍@@ 1
擁 1
柩@@ 1
tun@@ 1
ople 1
闢@@ 1
雹@@ 1
ps 1
ink 1
ants 1
傭@@ 1
鎌 1
餌 1
勒@@ 1
謐@@ 1
詳 1
採 1
旋 1
帽 1
胴 1
die 1
é 1
沐@@ 1
飾 1
ign 1
砦@@ 1
疱@@ 1
瘡@@ 1
陰 1
ia 1
順 1
